<s>	0
<pad>	0
</s>	0
<unk>	0
<lang:fr>	0
<lang:frp>	0
▁de	-3.45936
'	-3.48015
s	-3.53722
_	-3.54058
▁le	-3.63732
▁que	-3.88176
-	-3.98257
▁il	-4.12706
▁et	-4.21218
▁être	-4.23031
là	-4.26748
▁me	-4.29468
▁à	-4.36326
▁	-4.4159
▁euh	-4.4247
▁les	-4.45615
▁un	-4.53457
▁passé	-4.61862
▁c	-4.69727
▁ce	-4.71401
▁non	-4.77066
est	-4.80671
▁celui	-4.81613
▁nous	-4.8181
▁au	-4.86906
▁une	-4.88093
▁la	-4.95534
▁je	-5.00601
▁en	-5.04609
▁dans	-5.05722
▁pour	-5.10277
r	-5.12482
▁pas	-5.14363
▁a	-5.15086
▁qui	-5.21958
▁avoir	-5.24154
▁oui	-5.28588
a	-5.28746
▁on	-5.30951
▁vous	-5.31156
▁tout	-5.31375
▁faire	-5.31797
▁l	-5.31952
▁ça	-5.34654
▁des	-5.35045
▁d	-5.37265
ment	-5.37283
▁celle	-5.38089
rs	-5.39424
▁parce	-5.41191
e	-5.46819
▁j	-5.48266
▁plusieu	-5.48598
▁là	-5.52083
▁plus	-5.52682
▁qu	-5.53435
▁mais	-5.57207
▁si	-5.61143
y	-5.61645
pendant	-5.63163
▁comme	-5.64141
▁avec	-5.64762
▁tu	-5.65329
▁par	-5.65856
▁toi	-5.66858
que	-5.67433
▁quand	-5.68099
▁sur	-5.68539
▁dire	-5.69338
▁y	-5.72452
▁est	-5.72703
▁elle	-5.75251
▁ou	-5.78299
t	-5.8398
▁du	-5.92758
un	-5.94551
▁même	-5.95243
▁donc	-5.97898
▁fait	-5.99718
▁quoi	-6.03584
▁ville	-6.03727
ai	-6.04683
▁se	-6.16372
fois	-6.20059
de	-6.2053
▁voir	-6.23417
▁quelqu	-6.25192
in	-6.29495
▁prochain	-6.29877
on	-6.30566
▁aller	-6.30576
▁après	-6.31104
▁pouvoir	-6.31126
▁mon	-6.32655
▁où	-6.37655
▁peu	-6.40538
▁bien	-6.41681
▁devoir	-6.41811
▁bon	-6.43176
il	-6.43709
▁s	-6.43916
ce	-6.43935
▁moi	-6.44747
▁son	-6.45426
▁lui	-6.45647
▁savoir	-6.47058
▁trop	-6.47356
▁beaucoup	-6.47986
▁puis	-6.48475
▁exact	-6.49081
▁gens	-6.50312
autre	-6.52693
▁he	-6.54063
▁ben	-6.54193
▁alors	-6.57322
▁ouais	-6.57473
▁haut	-6.57623
▁autre	-6.58342
du	-6.59108
ir	-6.60922
▁parler	-6.61786
d	-6.63538
fin	-6.66398
corps	-6.69176
▁très	-6.70034
▁petit	-6.70597
▁NNAAMMEE	-6.72598
▁sont	-6.73416
▁m	-6.73632
nt	-6.74408
▁vrai	-6.75824
▁leur	-6.76751
▁n	-6.77077
était	-6.77296
▁heureuse	-6.77492
▁avait	-6.78455
▁réfléchi	-6.78779
▁peut	-6.81126
▁aussi	-6.82051
▁voulo	-6.82616
▁année	-6.82638
▁comment	-6.86013
▁va	-6.89414
en	-6.94782
▁ne	-6.96062
▁voi	-6.96821
▁prendre	-6.97023
▁deux	-6.97376
à	-6.98192
ait	-6.99519
▁association	-6.99947
▁sais	-7.00577
▁seconde	-7.02063
▁maintenan	-7.02497
▁français	-7.03259
▁vérité	-7.03945
accord	-7.0429
▁mettre	-7.04496
▁choses	-7.0564
▁ont	-7.05913
x	-7.07103
▁fois	-7.09693
▁dit	-7.10174
er	-7.10239
venir	-7.10957
▁ah	-7.11782
▁suis	-7.1241
▁chaque	-7.12831
é	-7.16039
!	-7.17687
▁moin	-7.18069
ici	-7.2029
▁groupe	-7.20963
▁grand	-7.21658
▁était	-7.21773
▁passer	-7.22178
ent	-7.23081
▁faut	-7.23445
▁arrive	-7.24991
▁trouver	-7.27379
▁place	-7.296
▁cours	-7.30386
▁avant	-7.31398
▁juste	-7.31999
▁personne	-7.34209
être	-7.35688
▁temps	-7.35961
la	-7.37248
▁été	-7.3745
le	-7.37995
▁ma	-7.38061
▁tous	-7.41254
▁2	-7.43476
▁rien	-7.44728
▁notre	-7.48166
▁ces	-7.49559
amais	-7.5084
▁partir	-7.50884
▁souvent	-7.52893
es	-7.53754
côté	-7.54297
▁instant	-7.54615
▁sans	-7.54909
▁donner	-7.55753
▁eu	-7.56421
▁travailler	-7.58768
▁problème	-7.59063
▁époque	-7.59346
▁jour	-7.60426
▁trois	-7.61093
ils	-7.61122
▁ses	-7.61244
▁encore	-7.61639
▁question	-7.61713
▁toujou	-7.62971
▁pense	-7.63758
▁premier	-7.64169
▁vie	-7.64859
▁déjà	-7.64897
▁enfants	-7.65272
▁sa	-7.65658
▁fais	-7.66719
▁vois	-7.6702
▁chose	-7.67429
?	-7.67562
une	-7.67988
▁quartier	-7.68272
▁commencer	-7.6844
▁connaîtr	-7.68693
▁ton	-7.6876
▁votre	-7.69992
parlementaire	-7.69992
▁te	-7.70633
▁coup	-7.71331
▁entre	-7.71356
▁ensemble	-7.71416
avais	-7.71701
▁pièce	-7.73751
▁crois	-7.74626
l	-7.75853
ux	-7.76162
▁exemple	-7.77262
▁pendant	-7.77524
▁dis	-7.77847
▁ans	-7.79083
▁contre	-7.79275
cette	-7.79531
▁fin	-7.79616
vois	-7.80452
▁mois	-7.80667
▁genre	-7.82184
00	-7.82508
▁vais	-7.82925
▁rue	-7.85477
▁langue	-7.86994
▁essayer	-7.87373
elle	-7.88097
▁as	-7.89633
▁eux	-7.89773
▁aux	-7.89851
▁avez	-7.90135
▁école	-7.91252
▁expliquer	-7.91719
▁quatre	-7.92054
▁femme	-7.9293
▁journée	-7.92957
▁quelque	-7.93893
▁toute	-7.95271
▁famille	-7.95815
▁t	-7.95836
▁maison	-7.95887
▁suite	-7.96012
▁choi	-7.96948
assez	-7.98198
re	-7.98523
▁emploi	-7.98544
▁moment	-7.98878
▁3	-7.98964
▁veux	-7.99119
▁mot	-7.99507
▁entrer	-7.99724
▁sortir	-8.01372
▁différent	-8.01546
▁hum	-8.02356
▁quelques	-8.02614
▁soit	-8.02683
▁elles	-8.02922
chez	-8.03301
▁seul	-8.04359
▁oh	-8.04972
▁heure	-8.05677
▁long	-8.06091
▁vu	-8.06191
▁parent	-8.07699
▁vingt	-8.07751
▁demander	-8.08787
▁jeunes	-8.09841
▁côté	-8.10087
▁aimer	-8.11531
▁heures	-8.12005
▁jusqu	-8.12095
▁cent	-8.12382
étais	-8.13199
▁mal	-8.13227
▁semaine	-8.14151
ieux	-8.14275
▁quelle	-8.1434
aient	-8.14355
tout	-8.14697
ont	-8.14724
▁dix	-8.14811
▁trouve	-8.1693
▁nuit	-8.17129
▁niveau	-8.18243
▁peux	-8.18266
▁pourquoi	-8.18844
▁musique	-8.18903
▁comprendre	-8.19182
▁fille	-8.19203
▁re	-8.20357
ant	-8.20797
▁dernier	-8.21366
▁père	-8.21475
z	-8.21504
▁vers	-8.21615
▁métier	-8.22259
▁parle	-8.22322
▁cet	-8.22617
▁dur	-8.22853
▁monde	-8.22906
▁matin	-8.22971
▁vivre	-8.2303
tte	-8.2327
▁mère	-8.23475
▁monsieur	-8.24056
▁première	-8.2424
▁gros	-8.2444
acheter	-8.24547
▁sens	-8.24569
2	-8.24669
▁objet	-8.24988
tu	-8.25823
▁étudier	-8.25948
▁entendre	-8.26089
moment	-8.27015
▁point	-8.2712
eux	-8.27579
n	-8.27736
▁garçon	-8.28005
▁façon	-8.28441
▁truc	-8.29068
▁bah	-8.29111
▁travail	-8.29171
▁voiture	-8.29181
▁dernière	-8.29853
▁beau	-8.30442
▁ceux	-8.30467
c	-8.30687
▁nombre	-8.3102
age	-8.31161
dans	-8.31889
améliorer	-8.32311
▁bureau	-8.33847
▁jouer	-8.34274
▁toutes	-8.3433
▁devant	-8.34728
▁rapport	-8.35131
▁10	-8.3524
dire	-8.35594
▁manger	-8.35968
▁prix	-8.36341
▁rester	-8.36489
▁donne	-8.37385
rier	-8.37502
▁besoin	-8.37795
temps	-8.38527
▁contraire	-8.38617
ur	-8.38905
▁étaient	-8.38909
▁combien	-8.39457
▁plein	-8.39781
▁suivr	-8.40451
▁changer	-8.40594
▁part	-8.40712
▁homme	-8.40844
mh	-8.41103
puis	-8.41787
hui	-8.42047
ne	-8.42764
▁facile	-8.43006
▁deuxième	-8.44232
▁5	-8.45165
monde	-8.45221
▁histoire	-8.4536
▁retourner	-8.4566
▁admirer	-8.45789
▁1/	-8.46009
▁rentrer	-8.46084
▁vacances	-8.46119
▁sûr	-8.46266
▁loin	-8.46562
▁intéresser	-8.47091
▁raison	-8.47781
aller	-8.48251
▁vite	-8.4829
▁eh	-8.48902
école	-8.48933
▁certain	-8.49488
▁plutôt	-8.49579
▁personnes	-8.49599
▁es	-8.49634
▁Paris	-8.50464
▁cinq	-8.50719
▁veu	-8.50727
▁paris	-8.51092
▁amis	-8.5121
u	-8.51375
au	-8.51387
ça	-8.51542
▁film	-8.52299
▁écrire	-8.52392
▁classe	-8.52468
ation	-8.53025
▁collège	-8.5305
▁partie	-8.5352
▁attendre	-8.53795
▁rendre	-8.54361
▁vont	-8.54478
▁nouveau	-8.54695
▁magasin	-8.55103
ailleur	-8.55528
vaient	-8.55692
▁pareil	-8.55863
▁porte	-8.57079
non	-8.57236
▁petite	-8.57298
▁cas	-8.57984
▁derrière	-8.57985
▁passe	-8.58033
▁sept	-8.58723
▁font	-8.58749
▁tête	-8.58785
tienne	-8.58889
▁hm	-8.59606
▁super	-8.5975
▁étude	-8.60603
▁société	-8.60616
▁4	-8.60866
▁montrer	-8.61929
o	-8.63037
▁invente	-8.63204
▁utiliser	-8.63339
▁quel	-8.63385
▁rencontre	-8.63417
souvenir	-8.63672
▁anglais	-8.63874
▁proposer	-8.642
▁euro	-8.6491
▁éducation	-8.64948
▁telle	-8.65156
va	-8.65393
▁lire	-8.65462
▁trucs	-8.65613
etera	-8.66122
▁permettr	-8.66212
▁étage	-8.66445
▁doit	-8.66626
▁près	-8.6673
▁accent	-8.67041
▁forme	-8.67329
▁centre	-8.67336
▁certaine	-8.67408
et	-8.67433
plaire	-8.67465
▁fort	-8.68008
▁université	-8.68404
▁C	-8.68457
bas	-8.68722
▁maître	-8.68842
▁salle	-8.68968
bien	-8.69128
aime	-8.6924
▁chercher	-8.6935
vieux	-8.69514
hors	-8.6972
▁ai	-8.70013
▁moyen	-8.70167
moi	-8.70239
▁ni	-8.70328
▁France	-8.70511
france	-8.71173
▁jours	-8.71313
té	-8.71323
▁base	-8.71649
▁doute	-8.71879
oir	-8.72135
▁projet	-8.72163
▁chance	-8.72625
▁préférer	-8.72737
information	-8.72958
jour	-8.73323
avoir	-8.73546
▁cher	-8.73548
▁minute	-8.73596
▁train	-8.74086
▁animation	-8.74094
▁sentir	-8.74153
▁inférieur	-8.74176
▁payer	-8.74403
▁amorce	-8.74612
maison	-8.74836
▁culture	-8.74986
ième	-8.7509
▁compte	-8.75589
▁six	-8.76487
année	-8.76755
▁1	-8.77054
▁politique	-8.77081
▁mm	-8.77195
▁syllabe	-8.77284
appelle	-8.77361
f	-8.77531
▁pays	-8.77532
sous	-8.77896
▁arrêter	-8.77956
▁peur	-8.78312
▁grande	-8.78405
▁pris	-8.78417
▁neuf	-8.78491
▁exister	-8.78873
▁raconter	-8.78893
▁f	-8.79111
▁mille	-8.79221
▁monter	-8.79414
▁autour	-8.79594
▁fête	-8.79781
▁élève	-8.79902
▁seule	-8.8014
▁accepter	-8.80388
▁service	-8.80512
▁apporter	-8.80721
chose	-8.80813
▁équipe	-8.8229
▁pff	-8.82678
▁maman	-8.8301
▁demande	-8.8316
▁ta	-8.83189
▁p	-8.83392
ais	-8.83441
▁mis	-8.83578
▁vendre	-8.83615
▁trente	-8.83971
▁fils	-8.84135
▁nos	-8.85151
▁communication	-8.85222
▁droit	-8.85978
▁bizarre	-8.86036
▁ca	-8.86715
▁habiter	-8.86949
▁êtes	-8.87438
▁résultat	-8.87685
▁courant	-8.8805
▁marché	-8.88102
▁serait	-8.88488
▁forcé	-8.88883
▁roi	-8.88897
▁café	-8.89192
i	-8.89197
eau	-8.89806
▁reste	-8.89936
▁limite	-8.9021
▁T	-8.90529
▁troisième	-8.90781
▁bonne	-8.91285
iez	-8.91307
▁continuer	-8.91589
▁terre	-8.91775
ssus	-8.91892
▁matière	-8.91934
ité	-8.92257
▁propre	-8.92976
▁sous	-8.92977
▁chambre	-8.93039
▁produir	-8.93152
▁enfant	-8.93308
▁S	-8.93428
▁voit	-8.93464
▁soir	-8.93572
▁livre	-8.93615
▁envie	-8.94004
ez	-8.94184
▁jeu	-8.94295
▁texte	-8.94306
▁départ	-8.94379
suite	-8.95361
▁grands	-8.95469
▁noir	-8.96026
▁cheval	-8.96143
▁finir	-8.96154
▁frère	-8.96207
▁connais	-8.96408
accent	-8.96754
ci	-8.96782
▁général	-8.97132
▁village	-8.97456
▁mètre	-8.97519
▁carte	-8.98242
▁poser	-8.98502
h	-8.98508
même	-8.98652
▁pu	-8.98946
▁chef	-8.99171
▁sera	-8.99199
▁bâtiment	-8.99211
avait	-8.99414
▁adolescent	-8.9958
▁coin	-8.99621
▁aucun	-8.9964
▁contact	-8.99806
▁entreprise	-8.99861
▁lendemain	-8.99879
▁mort	-8.99994
▁petits	-9.00495
▁finale	-9.00576
▁merci	-9.00653
g	-9.00817
▁perdre	-9.00822
▁envoyer	-9.00908
▁région	-9.00993
ence	-9.01009
▁début	-9.01192
▁effective	-9.01456
▁pied	-9.01465
▁obliger	-9.01596
▁jardin	-9.01934
▁action	-9.02329
ement	-9.02533
▁langage	-9.02726
▁pain	-9.02891
heure	-9.03033
▁donné	-9.03619
▁difficile	-9.03697
▁domaine	-9.04088
ès	-9.04135
tant	-9.0457
▁dossier	-9.04678
▁6	-9.05002
▁anonyme	-9.05072
▁parlent	-9.05148
▁sport	-9.05225
▁emmene	-9.05323
ie	-9.05406
▁travaille	-9.05568
▁simple	-9.05763
▁commerçant	-9.05867
▁vient	-9.06003
▁lettre	-9.06116
▁dirais	-9.06483
▁joue	-9.06551
▁numéro	-9.06668
▁arrivé	-9.06934
▁prénom	-9.07272
▁main	-9.0743
▁bout	-9.08024
▁A	-9.08032
▁atelier	-9.08163
▁tour	-9.0825
▁jeune	-9.08957
▁soixante	-9.09127
m	-9.0913
▁âge	-9.09258
▁sentiment	-9.0966
▁M	-9.09956
p	-9.10018
▁fond	-9.10436
mal	-9.10452
▁argent	-9.10492
▁allez	-9.10621
▁recherche	-9.10711
▁P	-9.10906
▁plan	-9.1135
▁face	-9.11907
isons	-9.1204
▁réaliser	-9.12054
▁aide	-9.12232
▁répondre	-9.12261
▁audi	-9.12548
▁écouter	-9.1269
▁belle	-9.12718
▁mari	-9.12853
▁information	-9.12983
▁huit	-9.13418
▁allé	-9.13686
al	-9.13721
cent	-9.13746
▁garder	-9.13939
scolaire	-9.14487
qui	-9.14637
▁sait	-9.14814
dit	-9.1484
ée	-9.14847
▁tomber	-9.15249
▁agréable	-9.15268
▁communique	-9.15269
▁dé	-9.15312
▁cinquante	-9.15604
▁allait	-9.15607
▁lycée	-9.15928
▁grave	-9.16057
▁imaginer	-9.16077
▁voyage	-9.16328
▁milieu	-9.16365
me	-9.164
▁gouvernement	-9.16621
an	-9.16757
▁évidem	-9.17058
▁semaines	-9.17622
▁tant	-9.17677
▁nom	-9.17766
▁gagner	-9.17807
▁interne	-9.17953
▁blanc	-9.17979
▁laisse	-9.18009
▁ancien	-9.18495
te	-9.18858
embre	-9.18952
midi	-9.18994
▁clair	-9.19014
end	-9.19036
▁département	-9.19067
▁aura	-9.19075
abord	-9.1929
▁commencé	-9.19291
▁manière	-9.19295
▁attention	-9.19349
vêtement	-9.19449
▁fallait	-9.19553
▁vin	-9.1991
▁formation	-9.20276
▁personnel	-9.20306
us	-9.20508
▁cuisine	-9.20533
▁servir	-9.20558
▁journal	-9.20685
▁entour	-9.20846
impression	-9.21546
▁geste	-9.21833
▁gauche	-9.22066
4	-9.2225
▁phrase	-9.22301
vous	-9.22402
▁photo	-9.22453
▁voie	-9.22503
▁guerre	-9.22578
▁mots	-9.22605
▁eau	-9.22725
▁demi	-9.22883
hier	-9.23216
▁force	-9.23288
▁qualité	-9.23302
▁années	-9.23572
ère	-9.23891
▁wallon	-9.23937
histoire	-9.23944
▁8	-9.2427
incompréhensible	-9.24438
▁vas	-9.2449
▁vienne	-9.24685
les	-9.2529
▁globe	-9.25403
cinq	-9.25406
▁commence	-9.25593
b	-9.25833
attentif	-9.2589
▁parti	-9.2596
▁dérange	-9.26133
▁marquer	-9.26329
vie	-9.2641
▁réunion	-9.26664
▁vos	-9.27043
▁soi	-9.27351
▁pierre	-9.27476
▁aider	-9.27841
▁prend	-9.2785
▁télévision	-9.27887
mère	-9.28135
▁ami	-9.28182
▁bouger	-9.28231
dame	-9.28521
▁livres	-9.28984
▁important	-9.29141
▁soirée	-9.29165
▁note	-9.29229
mais	-9.29472
▁appartement	-9.29511
▁restaurant	-9.29612
▁fini	-9.2984
▁F	-9.29891
▁quarante	-9.29928
▁téléphone	-9.30022
▁montagne	-9.30375
▁danger	-9.30883
▁prof	-9.31011
▁regarde	-9.31924
vingt	-9.32249
▁bas	-9.32276
faire	-9.32304
▁campagne	-9.32434
▁ligne	-9.32497
▁L	-9.33142
▁20	-9.33191
huit	-9.33233
▁Saint	-9.33485
époque	-9.33585
▁changement	-9.33709
▁expérience	-9.33983
lon	-9.35005
▁papier	-9.35237
▁aurait	-9.35258
▁possible	-9.35335
or	-9.35378
▁parlé	-9.35495
▁lieu	-9.35537
attraper	-9.35755
▁boire	-9.35906
▁dû	-9.35932
▁voyez	-9.36144
▁métro	-9.36412
▁midi	-9.3651
▁intéressant	-9.36674
▁in	-9.36688
▁sac	-9.36807
▁pourrait	-9.37192
▁E	-9.37238
▁dimanche	-9.375
▁liste	-9.37728
▁ouvrir	-9.37974
▁dialogue	-9.38049
▁samedi	-9.38325
is	-9.38407
▁date	-9.38543
▁enregistrement	-9.39138
▁décider	-9.39519
▁problèmes	-9.39534
▁quinze	-9.39606
▁pratique	-9.39669
▁week	-9.39703
▁génération	-9.40279
▁couleur	-9.40314
▁égal	-9.40812
▁programme	-9.40942
▁tard	-9.41152
▁bar	-9.41324
▁adjectif	-9.41406
▁table	-9.41417
▁complètement	-9.41457
mment	-9.41534
▁or	-9.41797
▁style	-9.41977
▁marcher	-9.42171
▁réussir	-9.4231
▁penser	-9.42384
▁lever	-9.42702
és	-9.42818
▁papa	-9.42867
ou	-9.42902
▁peuvent	-9.42946
aux	-9.4317
▁chien	-9.43207
▁avons	-9.43287
▁administration	-9.4329
▁zéro	-9.43709
▁poisson	-9.43784
▁cour	-9.43845
▁organiser	-9.43943
▁domicile	-9.44
▁article	-9.44045
▁sorte	-9.44138
▁allée	-9.44194
▁dois	-9.44287
▁droite	-9.4447
▁théâtre	-9.44661
▁souvenir	-9.44692
▁petites	-9.4511
▁agent	-9.45181
▁parlai	-9.45354
▁pré	-9.45394
▁cadre	-9.4548
▁savez	-9.45658
▁mise	-9.45762
▁faudrait	-9.45771
▁considérer	-9.45773
▁15	-9.45853
▁bé	-9.46026
▁descendre	-9.46379
▁normale	-9.46514
A	-9.46621
▁exprimer	-9.47051
▁an	-9.47214
▁kilomètre	-9.47264
▁apprendre	-9.47346
▁rapide	-9.4787
▁réponse	-9.47953
▁D	-9.48015
main	-9.48024
▁tableau	-9.48036
▁concert	-9.48146
▁espoir	-9.48514
sept	-9.48566
▁dictionnaire	-9.48784
▁bac	-9.48851
▁entier	-9.48864
▁tes	-9.49032
▁collégien	-9.49091
▁voulez	-9.49092
▁toucher	-9.49191
▁voisins	-9.49687
▁vache	-9.49853
aire	-9.49952
aurais	-9.50068
▁vue	-9.50324
▁parcour	-9.50707
▁bâti	-9.50799
▁professeur	-9.50951
▁rural	-9.50952
ch	-9.51182
▁pauvre	-9.51265
▁bonjour	-9.51296
importe	-9.5131
▁chemin	-9.51868
▁dieu	-9.51934
▁fiche	-9.51953
▁ouvert	-9.52164
▁manifestation	-9.52211
▁appareil	-9.52297
▁50	-9.52307
▁presqu	-9.52407
able	-9.52494
sociale	-9.52645
▁compter	-9.52665
▁rouge	-9.52889
▁voulai	-9.53336
▁30	-9.53718
▁différente	-9.53798
▁pouvait	-9.53889
▁bord	-9.53911
ro	-9.54274
▁avis	-9.54442
ette	-9.54454
▁cinéma	-9.5478
▁B	-9.55195
▁1:	-9.5544
argent	-9.55501
ton	-9.55671
▁chacun	-9.5576
▁écrivain	-9.55801
▁oublier	-9.55812
mi	-9.55994
▁marier	-9.56098
▁scène	-9.56419
▁public	-9.56447
▁titre	-9.56462
▁corps	-9.56472
▁disent	-9.56556
▁demandé	-9.5675
avez	-9.56836
ri	-9.56837
▁confortable	-9.56847
▁sortie	-9.5686
▁trouvé	-9.57083
▁sel	-9.57243
tour	-9.57808
▁R	-9.57831
▁conseiller	-9.57839
▁affiche	-9.58166
▁bus	-9.5818
▁usine	-9.58264
▁bruit	-9.58422
trouver	-9.58536
gne	-9.58582
▁chaud	-9.58678
▁dame	-9.58713
5	-9.58921
▁regarder	-9.59012
▁fleur	-9.59042
▁bêtise	-9.59099
▁nouvelle	-9.59144
▁carré	-9.59226
ons	-9.59317
it	-9.59372
▁désor	-9.60063
parents	-9.60092
▁apercev	-9.6015
▁radio	-9.60512
▁mélange	-9.60812
▁position	-9.60983
eur	-9.61402
▁venu	-9.61679
▁générale	-9.61822
um	-9.61844
▁porter	-9.61952
▁appelle	-9.62018
▁vendredi	-9.62213
▁but	-9.6229
▁également	-9.62422
▁décéd	-9.62517
▁diplôme	-9.62554
▁différence	-9.62558
▁franche	-9.62612
▁ju	-9.62683
▁lien	-9.62691
▁compétition	-9.62906
▁secteur	-9.62947
après	-9.63016
▁mains	-9.63136
▁sauf	-9.63275
▁sud	-9.63397
▁fou	-9.63537
▁ré	-9.63899
▁espèce	-9.64007
▁mouvement	-9.64327
▁terminer	-9.64387
vait	-9.64405
▁sol	-9.64559
ier	-9.64637
▁environnement	-9.64672
▁chanson	-9.64685
▁puisqu	-9.64726
des	-9.64729
▁remettre	-9.65051
▁souci	-9.6518
▁guide	-9.65449
▁entendu	-9.65465
pas	-9.65692
ion	-9.65748
▁journaliste	-9.65792
▁rire	-9.65964
▁désire	-9.66044
no	-9.66185
▁tombe	-9.66242
▁connu	-9.66314
▁retour	-9.66404
▁nourriture	-9.66499
▁fonction	-9.66682
▁spectacle	-9.66863
▁essay	-9.67223
aître	-9.6737
arrive	-9.6742
semaine	-9.67498
▁viande	-9.676
▁dépend	-9.67901
▁japon	-9.67946
▁court	-9.6804
▁espagnol	-9.68244
▁comprend	-9.68245
▁prêt	-9.68462
▁absolu	-9.68715
▁pasteur	-9.68717
▁latin	-9.68761
▁page	-9.68828
▁faites	-9.68957
▁soeur	-9.69145
▁pieds	-9.69209
▁disais	-9.69235
ujour	-9.69379
▁française	-9.69509
▁document	-9.69514
el	-9.69724
▁boîte	-9.69843
▁accoucher	-9.6987
▁permet	-9.69889
▁mur	-9.70358
▁existe	-9.70422
▁appel	-9.70967
▁malheur	-9.7106
▁fasse	-9.71104
▁artiste	-9.7111
aimerai	-9.7111
rie	-9.71497
▁marche	-9.71497
▁feu	-9.71767
▁arriver	-9.72045
▁technique	-9.7214
▁lit	-9.72148
▁inter	-9.72274
▁rentre	-9.72292
▁écrit	-9.7234
▁libre	-9.72528
▁vert	-9.72611
▁ferme	-9.72652
▁idée	-9.72802
désolé	-9.72863
▁lundi	-9.72915
▁sort	-9.72936
▁hommes	-9.72945
arrêter	-9.73162
▁battement	-9.7331
▁commerce	-9.73362
▁avion	-9.73419
▁mairie	-9.73702
▁président	-9.73779
▁particulier	-9.74091
▁étudiant	-9.74534
▁La	-9.74563
▁b	-9.74675
▁no	-9.74716
ive	-9.75076
▁prends	-9.75172
ément	-9.75361
▁dormir	-9.75419
▁formateur	-9.75686
▁air	-9.75695
▁tel	-9.75893
différence	-9.76079
ve	-9.76115
▁laisser	-9.76383
E	-9.76425
neuf	-9.76496
▁connaît	-9.76692
▁nature	-9.7684
▁retrouve	-9.76879
▁arbre	-9.77151
▁mets	-9.77272
▁Belgique	-9.77297
▁double	-9.77297
▁belgi	-9.77298
naturelle	-9.77304
art	-9.77439
▁déc	-9.77598
▁appris	-9.77706
▁contrôle	-9.77758
▁vent	-9.77828
vier	-9.7799
sciences	-9.78133
▁plante	-9.78152
▁plu	-9.78302
▁voulait	-9.78501
▁religieuse	-9.78528
▁mode	-9.7859
▁fer	-9.79009
▁japonais	-9.79136
▁obligé	-9.79221
▁ordinateur	-9.79333
▁forêt	-9.79355
▁amie	-9.79561
▁étudiants	-9.79683
▁puisse	-9.79703
▁blague	-9.79772
▁pouvez	-9.79774
▁devrai	-9.79805
ture	-9.80067
▁actuelle	-9.80202
▁vidéo	-9.80296
▁bateau	-9.80524
▁compris	-9.80611
▁nord	-9.80651
université	-9.80689
terre	-9.80746
▁musée	-9.81032
▁commande	-9.81082
▁garde	-9.81087
▁lecture	-9.81089
travail	-9.81091
▁machin	-9.81143
▁G	-9.81162
▁cartes	-9.81364
▁moitié	-9.81456
▁type	-9.815
▁situation	-9.81501
▁met	-9.81504
police	-9.81518
ille	-9.81664
▁gare	-9.81687
co	-9.8178
humain	-9.81956
▁activité	-9.81959
▁endroit	-9.82028
ajouter	-9.82302
▁volonté	-9.82319
▁lancer	-9.82567
étaient	-9.83268
▁veul	-9.83275
▁pl	-9.83362
sse	-9.83363
étant	-9.83675
▁exercice	-9.8393
vent	-9.83984
ard	-9.84012
▁trou	-9.8431
▁attends	-9.84451
▁site	-9.84568
im	-9.84689
▁sociale	-9.84696
▁vis	-9.84863
▁appeler	-9.85197
▁cité	-9.85239
ront	-9.85325
3	-9.8545
▁éviter	-9.85459
▁sage	-9.8547
ter	-9.85506
ourir	-9.85554
▁rendez	-9.85557
▁hôtel	-9.85734
▁cause	-9.85817
▁entend	-9.85856
▁content	-9.8592
▁remplir	-9.85993
k	-9.86166
▁disparaîtr	-9.86192
homme	-9.86206
film	-9.86368
idée	-9.86398
▁bras	-9.8642
▁Français	-9.86552
▁fermer	-9.86553
lé	-9.86612
▁semble	-9.86686
▁large	-9.8669
▁sent	-9.86726
▁écoute	-9.86748
▁revue	-9.86754
use	-9.86889
v	-9.86945
▁lorsqu	-9.87081
intérieur	-9.87134
▁plage	-9.87166
▁car	-9.87294
aine	-9.87539
▁charge	-9.87629
▁froid	-9.87676
▁lumière	-9.87704
▁feuilles	-9.87966
▁itinéraire	-9.88037
▁pa	-9.88083
▁aventure	-9.88112
▁énorm	-9.88173
▁souviens	-9.88212
nombreu	-9.88272
▁voyai	-9.88414
ure	-9.8859
né	-9.88783
▁pro	-9.888
▁club	-9.88831
▁camp	-9.89107
▁montre	-9.89113
▁ét	-9.89297
▁directe	-9.89374
▁sang	-9.89512
instant	-9.89592
▁mesure	-9.89593
▁vécu	-9.89869
bus	-9.89989
▁foi	-9.90203
▁sympa	-9.90328
ge	-9.9049
▁ex	-9.90498
▁aucune	-9.90533
iste	-9.90554
▁produit	-9.90671
▁bobine	-9.90796
ine	-9.91033
▁nota	-9.91094
également	-9.91633
▁vélo	-9.91663
▁difficulté	-9.91733
▁scientifique	-9.91733
▁fromage	-9.91776
amuser	-9.918
▁rôle	-9.91817
▁malade	-9.92117
ma	-9.92232
▁adulte	-9.92271
▁40	-9.92284
aît	-9.92406
▁rend	-9.92504
▁soleil	-9.92702
allais	-9.92885
▁rappelle	-9.92894
▁entrée	-9.92896
objet	-9.92897
▁é	-9.93091
▁fac	-9.93315
▁série	-9.93424
▁suisse	-9.93429
▁quatrième	-9.93633
li	-9.93831
▁changé	-9.94114
▁douce	-9.94135
entend	-9.94205
bre	-9.94277
▁viens	-9.9428
▁sommes	-9.94286
▁chanter	-9.94313
▁pousser	-9.94421
isme	-9.94487
▁chinois	-9.9449
▁cimetière	-9.94701
appelles	-9.94913
▁Japon	-9.95054
▁bibliothèque	-9.95083
▁égalité	-9.95174
▁couper	-9.95282
ois	-9.95429
isant	-9.95468
part	-9.95493
▁responsabilité	-9.9557
▁dessin	-9.95648
ède	-9.95654
▁conseil	-9.95924
oût	-9.96146
▁adapter	-9.96265
po	-9.964
▁particulière	-9.96553
lo	-9.9671
▁tien	-9.97021
▁animaux	-9.97109
▁sécurité	-9.97185
dix	-9.97213
▁développement	-9.97489
▁bête	-9.97573
▁I	-9.97612
▁feuille	-9.97634
▁douze	-9.97774
tourner	-9.97797
▁dépense	-9.98046
▁travaillé	-9.98103
▁algorithme	-9.98548
▁système	-9.98548
▁arrivée	-9.98633
métier	-9.98854
▁guilleme	-9.99053
ing	-9.9906
▁doive	-9.99072
▁voudrai	-9.99164
▁budget	-9.99561
▁moniteur	-9.99561
▁chat	-9.9963
ées	-9.99661
▁habit	-9.99702
▁retrouver	-9.998
▁population	-10.0007
▁circuit	-10.0007
▁docteur	-10.0007
▁lors	-10.0017
▁usage	-10.0026
▁faisais	-10.0029
quatre	-10.004
▁seiz	-10.0047
▁château	-10.005
▁maladie	-10.0058
▁attend	-10.0072
▁participer	-10.0076
am	-10.0086
▁manque	-10.0102
▁bruxell	-10.011
▁14:	-10.011
quelle	-10.0113
▁âgé	-10.0133
anglais	-10.0144
▁réussi	-10.015
▁transport	-10.0162
▁plaisir	-10.0165
▁commune	-10.0174
elles	-10.0175
sports	-10.018
▁recette	-10.0189
▁taille	-10.0191
30	-10.0211
▁aime	-10.0261
▁mercredi	-10.0266
▁jeudi	-10.0268
▁maîtresse	-10.0268
▁ordre	-10.0273
▁verre	-10.0278
▁Bruxell	-10.0318
▁rémunération	-10.0319
▁planète	-10.0319
études	-10.0327
▁échange	-10.0341
▁sujet	-10.0343
▁voulu	-10.0372
▁protéger	-10.0373
▁change	-10.0386
M	-10.0386
▁jeux	-10.0395
▁rechercher	-10.0399
▁enfance	-10.04
▁révise	-10.0425
▁gamins	-10.0432
▁ficel	-10.0459
ti	-10.0462
NNAAMMEE	-10.0465
▁questions	-10.0466
▁accè	-10.0468
▁boulot	-10.0478
▁panoram	-10.0478
▁reçu	-10.0478
▁réjouir	-10.0483
▁francs	-10.0488
▁gars	-10.0504
▁jan	-10.0525
▁langues	-10.0531
▁logement	-10.0544
▁resté	-10.0581
▁période	-10.0586
▁co	-10.0597
▁No	-10.0599
▁choisi	-10.0625
▁grosse	-10.0628
▁inclu	-10.064
père	-10.0641
mobile	-10.0656
été	-10.0665
▁importe	-10.0677
▁débat	-10.0678
▁N	-10.0682
▁rêve	-10.0688
▁retard	-10.0695
▁élection	-10.0701
th	-10.0727
omni	-10.0751
vient	-10.0764
▁frapper	-10.0768
▁peinture	-10.079
▁mai	-10.0796
droite	-10.0796
▁bande	-10.0797
▁réputé	-10.0805
▁bouteille	-10.0805
▁évident	-10.0805
▁chargé	-10.0806
▁affaire	-10.0809
▁connaissai	-10.0817
▁casser	-10.0818
▁mont	-10.082
▁profs	-10.0827
ac	-10.0831
▁terme	-10.0847
▁suivi	-10.0861
▁ouvrier	-10.0861
▁logique	-10.0861
▁accueil	-10.0866
▁route	-10.0876
▁balle	-10.088
▁Le	-10.0893
▁terrain	-10.0917
▁pose	-10.0919
▁parole	-10.092
▁fenêtre	-10.0921
▁retraite	-10.0927
▁annonce	-10.0927
▁télé	-10.0931
▁succè	-10.0973
▁mange	-10.0974
▁course	-10.0996
▁J	-10.1029
deux	-10.1044
▁habite	-10.1056
▁drôle	-10.1057
▁bleu	-10.1061
▁risque	-10.1066
▁sûre	-10.1067
avant	-10.1075
▁image	-10.1076
visite	-10.1079
▁copains	-10.1086
▁chèque	-10.1086
▁peine	-10.1087
▁relation	-10.1087
▁bouche	-10.1087
N	-10.112
▁visite	-10.1138
ordre	-10.1139
urs	-10.1142
▁collègue	-10.1143
▁matériel	-10.1143
▁corriger	-10.1151
S	-10.1154
▁o	-10.1162
▁mail	-10.1188
▁serai	-10.1192
▁perdu	-10.1193
▁police	-10.1196
▁coeur	-10.1202
▁pensai	-10.1203
▁acheté	-10.1208
▁oreille	-10.1236
tôt	-10.1245
▁demie	-10.1251
▁travaillai	-10.1252
▁répond	-10.1255
▁bo	-10.1258
▁gâteau	-10.1259
▁connaissance	-10.1259
▁préfère	-10.1259
▁méthode	-10.1262
ique	-10.1276
▁touche	-10.1306
▁entretien	-10.1308
▁désert	-10.1317
▁logop	-10.1317
▁communauté	-10.1324
▁déjeuner	-10.1343
▁faudra	-10.1375
▁bois	-10.139
▁pensez	-10.1409
ions	-10.1413
chercher	-10.1428
occasion	-10.143
▁malgr	-10.1434
▁revoi	-10.1435
▁rater	-10.144
▁rencontré	-10.1441
▁évolution	-10.1442
▁africain	-10.1444
▁devenir	-10.1447
▁accident	-10.1449
ante	-10.1449
▁adresse	-10.1465
▁jeter	-10.147
▁tante	-10.1482
8	-10.1486
▁tourne	-10.1492
▁personnage	-10.1493
▁respecter	-10.1507
▁principe	-10.1553
oi	-10.1559
▁ramasser	-10.1562
▁normal	-10.1583
municipale	-10.1619
▁instrument	-10.163
▁exécuti	-10.1648
▁venai	-10.1648
di	-10.1661
communication	-10.1673
▁voisin	-10.1674
▁crise	-10.1674
▁dites	-10.1693
▁avocat	-10.1697
▁acteur	-10.171
▁plat	-10.1714
▁endroits	-10.1725
▁morceau	-10.1734
▁permis	-10.1734
▁regardé	-10.1744
▁direction	-10.1749
lever	-10.1753
▁passage	-10.1767
quatorze	-10.1773
▁prononciation	-10.1795
▁chéri	-10.1795
▁billet	-10.1805
▁santé	-10.1806
▁vêtement	-10.1813
▁enterrement	-10.1821
▁apparem	-10.1859
▁guitare	-10.1861
▁décidé	-10.1861
▁conscience	-10.1874
▁banque	-10.1896
:	-10.1911
▁câble	-10.1918
▁assassine	-10.1919
▁proche	-10.1922
▁points	-10.1927
dre	-10.1932
face	-10.1937
▁sorti	-10.1958
quel	-10.1968
▁professionnel	-10.1969
ue	-10.197
ière	-10.1983
▁épouse	-10.1996
▁stage	-10.1998
▁amour	-10.2003
▁assure	-10.2004
ap	-10.2031
habitude	-10.2046
doigt	-10.2046
▁trompe	-10.2049
▁dos	-10.2055
man	-10.2062
▁traverser	-10.2064
▁60	-10.2082
C	-10.2094
▁pourrais	-10.2094
ance	-10.2099
▁piano	-10.2105
▁composition	-10.2105
origine	-10.2109
0	-10.2123
▁cave	-10.2128
▁église	-10.216
▁bébé	-10.2168
▁complexité	-10.2168
▁propriétaire	-10.2168
▁corbeau	-10.2169
▁fier	-10.2178
▁offrir	-10.2179
▁salon	-10.218
repas	-10.2202
▁pensée	-10.2203
▁traduir	-10.2232
P	-10.2233
▁lourd	-10.2233
I	-10.2235
musique	-10.2239
▁meilleur	-10.226
▁agence	-10.2265
aise	-10.2275
ttent	-10.2281
▁fall	-10.2289
▁travers	-10.2331
è	-10.2338
je	-10.2342
▁clou	-10.2351
▁analyse	-10.2354
▁Dieu	-10.236
▁copine	-10.2361
▁20:	-10.2362
téléphone	-10.2369
▁mariage	-10.2373
▁i	-10.2374
lu	-10.2388
▁arabe	-10.239
▁scolaire	-10.2398
vis	-10.2413
imagine	-10.2415
▁personnelle	-10.2419
▁clients	-10.2425
▁dîner	-10.2426
▁comité	-10.2426
▁chantier	-10.2431
▁lisse	-10.2443
▁énorme	-10.248
om	-10.2485
▁vocabulaire	-10.2491
▁contrat	-10.2496
▁bruxellois	-10.2498
▁prenne	-10.2503
insi	-10.2503
▁spéciale	-10.2506
▁li	-10.2519
▁riche	-10.2525
▁durer	-10.2525
▁pratiquement	-10.2535
▁louer	-10.2544
éloquen	-10.2557
▁Montreuil	-10.2557
lle	-10.2561
▁ski	-10.2576
▁poste	-10.2598
▁couple	-10.2613
▁su	-10.2622
▁manquer	-10.264
▁abus	-10.2642
▁conduir	-10.2645
uillet	-10.2656
occupe	-10.2658
▁né	-10.2659
▁plateau	-10.2672
▁primaire	-10.2674
▁parc	-10.2687
▁linguistique	-10.269
▁mardi	-10.269
▁rare	-10.2693
▁lis	-10.2699
▁sauter	-10.2708
intéresse	-10.271
▁préparer	-10.2713
▁achat	-10.2715
▁suffi	-10.2726
▁continue	-10.2737
▁catholique	-10.2757
▁côte	-10.2757
▁cahier	-10.2762
inc	-10.2764
▁po	-10.2769
▁assurance	-10.2797
dd	-10.2816
▁hiver	-10.2819
▁laboratoire	-10.2824
▁fera	-10.2831
▁aimé	-10.2838
▁essaie	-10.2849
▁revien	-10.2866
près	-10.2867
ga	-10.2875
▁trouvai	-10.2882
▁cherche	-10.2886
▁devenu	-10.2888
▁compliqué	-10.2892
place	-10.2908
▁paraît	-10.2916
▁social	-10.2942
dé	-10.2945
eurs	-10.2956
▁patois	-10.2961
25	-10.2978
▁port	-10.2984
▁noter	-10.3009
▁all	-10.301
▁objectif	-10.302
to	-10.3024
▁couloir	-10.303
▁éventuelle	-10.303
poing	-10.3036
▁cadeau	-10.3037
appelait	-10.3044
▁occuper	-10.3047
▁données	-10.3052
▁maire	-10.3063
▁piscine	-10.3099
▁solution	-10.3099
▁véhicule	-10.3099
▁marqué	-10.3101
▁prise	-10.3121
▁toilettes	-10.3132
▁escalier	-10.3142
▁silenc	-10.3142
▁calme	-10.3153
▁gentil	-10.3158
tes	-10.316
▁Marseille	-10.3169
▁nécessaire	-10.3169
▁test	-10.3174
▁reprendre	-10.3179
▁augmenter	-10.3181
marié	-10.3188
âge	-10.3189
▁créer	-10.3193
▁branche	-10.32
▁descend	-10.3202
▁opération	-10.3205
▁mainten	-10.3205
▁démarches	-10.3218
chant	-10.3234
▁privé	-10.3239
▁dommage	-10.324
▁siècle	-10.324
▁quasi	-10.324
▁av	-10.3244
▁paysan	-10.3245
op	-10.3258
emploi	-10.3261
trois	-10.3261
▁présente	-10.3275
▁pâte	-10.3311
▁tendance	-10.3311
os	-10.3312
asseoir	-10.3312
pi	-10.3326
▁vit	-10.3336
ville	-10.334
▁case	-10.3354
▁18	-10.3384
▁14	-10.3386
▁Jean	-10.3394
▁vieille	-10.34
travers	-10.341
état	-10.341
ba	-10.3422
table	-10.3426
espère	-10.343
▁journa	-10.3452
▁catégorie	-10.3454
▁concours	-10.3454
▁vigne	-10.3454
▁tissu	-10.3455
▁possibilité	-10.346
▁oiseau	-10.3464
▁fermé	-10.3466
plus	-10.3479
▁prochaine	-10.3479
pied	-10.348
▁façonne	-10.3484
▁venue	-10.3499
▁pourra	-10.3508
▁loi	-10.3525
▁client	-10.3528
ateur	-10.3532
▁légume	-10.3547
allemand	-10.3551
B	-10.3554
▁fruits	-10.3568
équipe	-10.3578
ciel	-10.3579
▁chasse	-10.3586
▁cousin	-10.3588
▁jambe	-10.3599
▁immédiate	-10.36
▁hard	-10.36
plaindr	-10.3608
enseigner	-10.3621
▁mettai	-10.3622
▁enquête	-10.3625
ol	-10.3649
▁remarque	-10.365
▁quartiers	-10.3663
▁valeur	-10.3673
▁loisir	-10.3673
▁ok	-10.3676
nteur	-10.3696
avec	-10.37
chaise	-10.3701
erie	-10.3706
pour	-10.3708
▁règlement	-10.3719
vais	-10.3719
ver	-10.3744
▁conservatoire	-10.3747
▁structure	-10.3747
▁convention	-10.3747
▁économique	-10.3747
▁compléter	-10.3755
▁faux	-10.3755
▁vivant	-10.3756
▁appareils	-10.3763
▁fil	-10.3777
▁expression	-10.3797
ic	-10.3799
▁caractère	-10.3822
▁inquiet	-10.3822
▁flamand	-10.3822
appel	-10.3824
▁ingénieur	-10.3837
▁patient	-10.3844
▁étais	-10.3852
▁règle	-10.3854
bon	-10.3859
pl	-10.3892
▁chocolat	-10.3897
▁zone	-10.3898
▁extrême	-10.3901
▁trace	-10.3903
▁essentielle	-10.3905
ensemble	-10.3927
venait	-10.3953
ff	-10.396
▁mec	-10.3967
▁librairie	-10.3973
▁présent	-10.3978
▁compagnie	-10.3982
▁vol	-10.3986
ware	-10.3986
où	-10.4004
▁jeton	-10.4004
▁apprend	-10.4013
gu	-10.4015
▁g	-10.4015
▁treize	-10.4033
▁savais	-10.4037
▁secrétaire	-10.4049
▁x	-10.4054
▁quart	-10.4061
▁responsable	-10.4081
▁médecine	-10.4087
▁refuse	-10.4095
cours	-10.411
▁conflit	-10.4126
▁défunt	-10.4126
▁laissé	-10.4126
▁vaut	-10.4126
▁ha	-10.4129
▁vide	-10.4142
▁paysage	-10.4143
▁produits	-10.4147
milieu	-10.416
▁religion	-10.4161
libération	-10.4167
▁Na	-10.4169
▁partis	-10.4177
▁repas	-10.4202
▁micro	-10.4203
▁nov	-10.4205
▁corne	-10.4209
andis	-10.421
juif	-10.4211
ni	-10.4218
ise	-10.4221
▁pardon	-10.4223
▁peintures	-10.4225
▁classique	-10.4226
▁concerne	-10.423
▁viv	-10.4235
▁arrêté	-10.4271
▁accord	-10.4272
▁marque	-10.4272
▁banlieue	-10.4282
▁tranquille	-10.4282
▁travaux	-10.4282
entreprise	-10.4284
▁Ma	-10.43
▁onze	-10.4321
▁passait	-10.4335
▁jusque	-10.4339
▁complexe	-10.436
mille	-10.4368
▁vague	-10.4369
aim	-10.4371
▁choisir	-10.4382
▁perd	-10.4394
esprit	-10.4397
ner	-10.4398
▁oeuvre	-10.4403
▁mars	-10.4428
rais	-10.4436
▁envoyé	-10.444
▁malheureuse	-10.444
▁inviter	-10.4457
▁partager	-10.4459
▁octo	-10.4468
▁tirer	-10.447
heures	-10.4473
▁lait	-10.4479
exprime	-10.449
▁raisin	-10.452
▁boisson	-10.4521
▁longue	-10.4522
▁cochon	-10.4522
▁bataille	-10.4529
aille	-10.4543
action	-10.4544
id	-10.4558
▁Ch	-10.4562
▁fa	-10.4568
▁espace	-10.4586
▁discours	-10.4605
vril	-10.4644
sur	-10.4652
▁loup	-10.4666
▁semestre	-10.4682
▁princesse	-10.4682
▁métal	-10.4683
▁lac	-10.4687
▁pouvais	-10.4694
par	-10.4726
enseignement	-10.4727
▁directeur	-10.4736
▁outil	-10.4744
▁dés	-10.475
enfant	-10.4765
▁connaissez	-10.4765
▁hôpital	-10.4782
▁tas	-10.4785
▁lecteur	-10.48
olo	-10.4816
▁enregistre	-10.4822
iers	-10.4823
▁allemand	-10.484
▁relative	-10.4846
▁régulière	-10.4846
▁capable	-10.4847
▁écoutez	-10.4852
j	-10.4859
pile	-10.487
▁arrêt	-10.4885
▁champ	-10.4888
▁lié	-10.4893
▁vend	-10.4904
▁13	-10.4911
▁adolescen	-10.492
ler	-10.4922
▁courriel	-10.493
▁bref	-10.493
▁sculpture	-10.493
▁démoli	-10.493
▁boutique	-10.4935
▁chaîne	-10.4951
▁essentiel	-10.4954
▁hé	-10.4955
▁saison	-10.4956
▁professionnelle	-10.4967
écrire	-10.4973
éducation	-10.4978
▁commun	-10.4987
▁roman	-10.5013
▁francophone	-10.5014
impôt	-10.5014
▁visage	-10.5019
nis	-10.5021
ot	-10.5021
▁goûter	-10.5021
▁peau	-10.5023
▁extraordinaire	-10.5027
▁pleure	-10.5029
▁disque	-10.5033
▁examen	-10.5045
G	-10.5063
▁conférence	-10.5098
▁moyenne	-10.5112
oire	-10.5114
▁lu	-10.5139
spécialisée	-10.5146
gé	-10.5154
▁documents	-10.5162
▁cou	-10.5169
▁distance	-10.5184
▁chasseur	-10.5188
▁Di	-10.519
▁tente	-10.5197
▁poésie	-10.5199
▁utilise	-10.5205
▁effet	-10.5211
▁marchand	-10.5226
aussi	-10.5235
poser	-10.5235
▁inspecte	-10.5266
▁poche	-10.5268
▁bouffon	-10.527
▁mauvaise	-10.5273
▁présenter	-10.5278
▁voler	-10.528
▁br	-10.5286
▁photos	-10.5308
▁médecin	-10.5313
▁île	-10.5314
positive	-10.532
ations	-10.5329
fait	-10.5339
▁confian	-10.5351
▁discrète	-10.5357
▁grâce	-10.5357
▁15:	-10.5358
▁pire	-10.536
agit	-10.5363
▁prince	-10.5365
▁animateur	-10.5367
▁suivant	-10.5379
▁rat	-10.538
▁blanche	-10.5381
▁ballon	-10.5401
gue	-10.5415
w	-10.543
▁aides	-10.5434
▁foot	-10.5441
▁temple	-10.5445
▁0	-10.5451
▁totalement	-10.5458
▁expo	-10.5467
▁enseignant	-10.5467
▁joueur	-10.5473
▁régions	-10.5478
ordonner	-10.5482
ad	-10.5487
mé	-10.5492
amour	-10.5513
iquement	-10.5514
▁média	-10.5516
▁Ro	-10.553
▁mathématique	-10.5533
F	-10.5539
▁cercle	-10.5541
if	-10.5555
▁sciences	-10.5567
tion	-10.5569
▁v	-10.5578
veux	-10.5579
▁camion	-10.5599
ah	-10.5602
▁oncle	-10.5623
évrier	-10.5623
▁méchant	-10.5623
▁retrouvé	-10.5632
▁messe	-10.5648
▁économie	-10.5653
▁verra	-10.5672
prix	-10.5682
▁raconte	-10.5695
▁littéra	-10.5712
▁tradition	-10.5713
▁sélectionner	-10.5713
lait	-10.5714
▁création	-10.5714
▁tôt	-10.5723
▁rouler	-10.5745
▁teni	-10.5764
▁couche	-10.5765
sportif	-10.5772
personnelle	-10.5785
ul	-10.579
▁douane	-10.5803
▁magnifique	-10.5803
▁statut	-10.5803
▁supprime	-10.5803
▁norme	-10.5803
▁meuble	-10.5803
▁gêne	-10.5803
▁oublié	-10.5804
▁18:	-10.5804
▁propos	-10.5804
▁garage	-10.5806
couture	-10.5811
▁sert	-10.582
▁maîtrise	-10.5821
▁fautes	-10.5836
▁rentré	-10.5841
▁pensé	-10.5848
▁huile	-10.5854
▁ferai	-10.5856
▁rentrée	-10.5861
▁fruit	-10.5867
▁courses	-10.587
▁correspond	-10.5873
▁mi	-10.5881
vi	-10.5895
▁apparait	-10.5895
▁bavarde	-10.5895
▁immigre	-10.5895
▁16	-10.5896
▁description	-10.5897
▁gr	-10.5898
▁chevauche	-10.5909
▁dessiner	-10.5911
ran	-10.5922
▁équilibre	-10.5927
▁téléphoner	-10.5929
▁pont	-10.593
▁os	-10.5932
▁central	-10.5932
▁finance	-10.5936
air	-10.5958
promene	-10.5959
T	-10.5983
▁festival	-10.5988
▁phase	-10.5988
▁maxim	-10.5988
▁boulangerie	-10.5988
▁espagn	-10.6006
tique	-10.6035
▁repris	-10.6036
golfi	-10.6038
ble	-10.6042
accueil	-10.6054
patient	-10.6054
▁posé	-10.6076
▁candidat	-10.6081
▁détruir	-10.6081
▁tranche	-10.6081
▁patron	-10.6081
▁hasard	-10.6081
▁mangé	-10.6081
▁gardé	-10.6081
▁gosse	-10.6081
▁grève	-10.6081
▁message	-10.6083
▁voter	-10.6104
▁calcul	-10.6144
exprimer	-10.6148
mo	-10.6157
▁impeccable	-10.6176
▁planning	-10.6176
grand	-10.6177
▁ministre	-10.6187
six	-10.6211
entrée	-10.6216
6	-10.624
ke	-10.625
▁source	-10.6271
▁belge	-10.6271
▁réalité	-10.6271
▁mauvais	-10.6274
▁environ	-10.6276
▁élaboration	-10.6281
▁pompier	-10.6283
▁chevau	-10.6289
do	-10.6303
▁conditions	-10.6312
alais	-10.6325
▁rejoin	-10.6338
extérieur	-10.6341
théâtre	-10.6342
bo	-10.6346
▁machine	-10.6351
▁juge	-10.6359
▁presse	-10.6362
▁dessins	-10.6368
▁nationalité	-10.6368
chaîne	-10.6372
ite	-10.6372
▁surveiller	-10.6384
▁état	-10.6426
▁brise	-10.6428
rait	-10.6436
déplacer	-10.644
étranger	-10.644
▁déclaration	-10.6464
▁16:	-10.6464
▁copain	-10.6465
▁commençai	-10.6467
▁sav	-10.6467
ns	-10.6469
▁dépasser	-10.6479
▁importante	-10.648
▁pal	-10.6488
ste	-10.6488
▁sou	-10.6492
▁traiter	-10.6492
vo	-10.6494
▁éléments	-10.6495
dos	-10.6496
nager	-10.6497
▁na	-10.6509
▁indépendant	-10.6517
▁construit	-10.6525
▁proposé	-10.6534
chute	-10.6538
courrier	-10.6539
▁local	-10.654
euse	-10.6554
audiovisuel	-10.6562
▁compréhension	-10.6562
▁plonge	-10.6562
▁médical	-10.6562
▁master	-10.6563
▁jaune	-10.6566
sortir	-10.6568
▁sixième	-10.6573
▁touriste	-10.6584
▁Mar	-10.6591
▁moteur	-10.6605
sérieu	-10.6615
▁goût	-10.663
hôpital	-10.6639
avion	-10.6639
apprendre	-10.6641
▁so	-10.6645
▁marrant	-10.6661
▁musicien	-10.6661
▁sépare	-10.6661
▁gronde	-10.6661
inscri	-10.6663
▁prévu	-10.6668
▁cheminée	-10.667
▁patte	-10.6671
▁visiter	-10.6671
R	-10.6679
D	-10.6681
▁neige	-10.6681
he	-10.6693
▁habitant	-10.6696
▁prenai	-10.6701
▁apparaîtr	-10.6708
▁tri	-10.6714
▁juger	-10.6723
▁lance	-10.6729
ud	-10.6732
▁étapes	-10.6744
avantage	-10.6744
▁prêter	-10.6748
em	-10.6757
▁contente	-10.6758
▁agressif	-10.6761
▁bulletin	-10.6761
▁vallée	-10.6761
éri	-10.6764
▁Mont	-10.6798
▁mémoire	-10.68
▁émission	-10.681
▁goutte	-10.6815
ab	-10.6829
L	-10.6849
▁chuchote	-10.6862
▁terrasse	-10.6862
▁militaire	-10.6862
▁tribuna	-10.6863
▁joli	-10.6864
▁cabinet	-10.6876
▁exposition	-10.6887
▁termes	-10.6888
ule	-10.6892
▁ga	-10.6905
▁éleve	-10.6909
▁renvoye	-10.6918
▁outils	-10.6922
▁poil	-10.6928
agne	-10.6949
▁four	-10.6956
isé	-10.696
activité	-10.6962
ka	-10.6963
▁injection	-10.6964
gi	-10.6978
▁corde	-10.6981
▁piste	-10.6981
années	-10.6983
▁chaussures	-10.7005
▁anniversaire	-10.7007
▁jure	-10.7015
▁appelé	-10.7019
▁âgée	-10.702
▁surface	-10.7021
▁saint	-10.7023
bi	-10.7033
▁régime	-10.7037
▁coffre	-10.7039
physique	-10.7049
endroit	-10.705
aide	-10.7053
▁cru	-10.706
▁Suisse	-10.7067
▁boulevard	-10.7067
▁distribution	-10.7067
tre	-10.7067
▁frontière	-10.7067
▁payé	-10.7068
▁indicateur	-10.7074
▁fonctionne	-10.708
▁incendie	-10.7082
▁thème	-10.7084
▁physique	-10.7085
▁joué	-10.7091
mer	-10.7092
▁grandir	-10.7098
▁propose	-10.712
trompe	-10.7155
regarder	-10.7155
ex	-10.7158
our	-10.7167
▁allema	-10.7172
▁indien	-10.7172
▁match	-10.7173
▁réseau	-10.7174
▁serrer	-10.7182
▁arrivai	-10.7189
▁rose	-10.7194
▁chant	-10.7203
▁obligée	-10.7205
▁revenu	-10.721
che	-10.7211
▁pe	-10.7215
▁représente	-10.7222
ball	-10.7235
rez	-10.7243
▁nourri	-10.7253
▁souten	-10.7258
vivant	-10.7261
▁monté	-10.7267
fumer	-10.7274
▁compétence	-10.7277
alternative	-10.7277
▁profession	-10.7282
▁gris	-10.7291
▁boucher	-10.7295
▁discuter	-10.7305
ag	-10.7311
▁habille	-10.7322
pe	-10.7324
▁final	-10.7328
▁jeunesse	-10.7337
▁rendu	-10.7348
▁cheveux	-10.7354
évolution	-10.7368
dor	-10.7378
▁récréation	-10.7383
▁supplémentaire	-10.7383
▁grammaire	-10.7383
▁z	-10.7385
▁gérer	-10.7385
ène	-10.7412
▁tape	-10.7412
▁élu	-10.7426
assister	-10.743
▁tombé	-10.7437
▁rencontrer	-10.7447
ssent	-10.7448
animaux	-10.7477
▁bouquin	-10.7491
▁négatif	-10.7491
▁notion	-10.7491
▁horaire	-10.7502
isation	-10.7503
▁rigoler	-10.7515
▁bière	-10.7519
▁démarche	-10.7524
raction	-10.7553
onnait	-10.7554
ê	-10.7568
adore	-10.7588
▁k	-10.759
▁commission	-10.7599
▁guéri	-10.7599
▁reine	-10.7607
▁prêtre	-10.7611
cul	-10.7616
haut	-10.7617
europe	-10.7638
enfants	-10.7644
▁meilleure	-10.7661
▁pousse	-10.7694
▁cerveau	-10.7709
▁thé	-10.7711
▁pleuv	-10.7717
orgue	-10.7722
▁brûler	-10.7726
▁dém	-10.7732
▁émotion	-10.7736
onneur	-10.7738
▁anti	-10.7749
▁créé	-10.7765
▁monte	-10.7767
uire	-10.7781
arrête	-10.7787
ix	-10.7789
▁80	-10.7792
▁prête	-10.7802
ole	-10.7804
immeuble	-10.781
photo	-10.7811
▁neutre	-10.782
▁licence	-10.782
urieux	-10.7821
heur	-10.7823
▁auto	-10.7825
▁pét	-10.7828
▁respect	-10.7834
▁intéressante	-10.7838
▁définir	-10.7842
▁attitude	-10.785
▁abri	-10.7872
▁Sa	-10.7877
▁directeurs	-10.7885
uf	-10.791
▁principale	-10.7912
▁11	-10.7916
énerve	-10.7916
▁italie	-10.7928
Europe	-10.7933
▁concierge	-10.7933
▁douleur	-10.7933
▁léger	-10.7933
▁degré	-10.7933
▁terrible	-10.7933
▁tapis	-10.7933
▁cigarette	-10.7934
▁pollution	-10.7936
ki	-10.7947
prendre	-10.7948
▁aquarium	-10.7951
▁demandai	-10.7966
écoute	-10.7972
▁pi	-10.8002
▁envoie	-10.8004
ales	-10.8007
tri	-10.8024
affaire	-10.8039
▁intérêt	-10.8042
traiter	-10.8043
▁faible	-10.8046
▁logiciel	-10.8046
▁amusant	-10.8046
▁flûte	-10.8046
▁noeud	-10.8046
▁racine	-10.8046
▁rivière	-10.8046
▁victime	-10.8046
▁agresser	-10.8046
▁correcte	-10.8048
▁commercial	-10.8049
▁10:	-10.8051
▁immeuble	-10.8056
▁resto	-10.8061
▁traîner	-10.8062
▁étranger	-10.8068
▁choquer	-10.8069
▁allons	-10.8079
▁saisir	-10.8081
▁prier	-10.8086
▁De	-10.8096
▁assis	-10.8102
▁h	-10.8104
▁imagine	-10.8106
▁code	-10.8108
▁armée	-10.8119
ut	-10.8133
▁cons	-10.8146
ving	-10.8146
▁bosse	-10.8153
▁gestion	-10.8161
▁chaleur	-10.8161
▁contamin	-10.8161
▁modèle	-10.8161
▁putain	-10.8161
iel	-10.8167
pleu	-10.8168
▁honte	-10.8172
▁loto	-10.8176
▁animal	-10.8186
▁signe	-10.8191
▁carrière	-10.8199
▁attente	-10.8216
▁précis	-10.8217
qu	-10.8235
▁pis	-10.8248
riez	-10.8254
▁voile	-10.8256
▁Chin	-10.8265
oux	-10.8276
▁typique	-10.8277
▁critère	-10.8278
▁minimum	-10.8278
▁praxi	-10.8278
▁stade	-10.8278
▁découvrir	-10.8278
▁riz	-10.8279
▁regard	-10.8294
uer	-10.8318
pa	-10.8326
▁paye	-10.8344
▁chaise	-10.8354
▁pot	-10.8354
▁grille	-10.8367
val	-10.8382
min	-10.8385
▁véritable	-10.8395
▁célèbre	-10.8395
▁reçoi	-10.8395
▁spécifique	-10.8395
▁location	-10.8395
▁parlant	-10.8397
▁récupérer	-10.84
▁afrique	-10.8401
▁Ba	-10.8406
io	-10.8407
adresse	-10.8411
ennes	-10.8412
▁continu	-10.8414
▁fam	-10.8419
fesse	-10.8427
▁fauteuil	-10.8429
▁forte	-10.8447
▁file	-10.8449
lit	-10.845
approcher	-10.8451
▁batt	-10.8461
▁chiffres	-10.8464
odo	-10.8478
▁Bo	-10.8484
▁hauteur	-10.8489
▁jus	-10.8502
ét	-10.8512
programme	-10.8513
▁populaire	-10.8514
▁secrétariat	-10.8514
▁stagiaire	-10.8514
▁deviner	-10.8514
▁batterie	-10.8515
▁caisse	-10.8515
halet	-10.8516
aurai	-10.8521
▁crayon	-10.8522
éné	-10.8523
▁naturelle	-10.8524
av	-10.8529
▁million	-10.853
vé	-10.8558
▁sauve	-10.8572
▁régional	-10.8573
▁Br	-10.8579
▁vi	-10.8589
▁clé	-10.8591
essaie	-10.8592
▁moto	-10.8601
▁grosses	-10.8619
▁pile	-10.8625
occuper	-10.8626
▁hyper	-10.8633
folklorique	-10.8635
▁asiatique	-10.8635
▁mâle	-10.8635
▁Charler	-10.8635
▁judo	-10.8636
▁comp	-10.8636
▁Cha	-10.8637
▁retirer	-10.8643
abandonner	-10.865
▁voyageur	-10.8655
AN	-10.8658
▁construi	-10.868
▁textes	-10.8691
ose	-10.8696
▁longueur	-10.8705
iège	-10.8708
▁sable	-10.8716
▁vente	-10.8722
▁Ga	-10.8727
▁percev	-10.8733
▁certificat	-10.8754
imulation	-10.8757
▁bistrot	-10.8757
▁drogue	-10.8757
▁guerrier	-10.8757
▁détail	-10.8757
▁habitué	-10.8757
▁facteur	-10.8757
▁mouton	-10.8757
▁mission	-10.8758
▁volet	-10.876
▁implication	-10.876
ho	-10.8766
▁facture	-10.8773
mobil	-10.8774
▁peintre	-10.8779
taire	-10.8781
sie	-10.8796
toi	-10.8808
emb	-10.8812
▁italien	-10.8812
ria	-10.8822
▁herbe	-10.8826
ph	-10.8827
▁contes	-10.883
ia	-10.8831
PE	-10.8851
publique	-10.8867
▁Ar	-10.8867
▁regardai	-10.8868
iser	-10.8874
▁médicament	-10.888
▁aimante	-10.888
▁construction	-10.888
▁pause	-10.8882
▁éclater	-10.8883
▁référence	-10.8883
▁restée	-10.8892
▁installé	-10.89
con	-10.89
oral	-10.8911
▁arme	-10.8921
▁attacher	-10.8926
tat	-10.893
▁bu	-10.8937
▁aille	-10.8944
hi	-10.8955
asse	-10.8968
for	-10.8987
▁sache	-10.8994
▁cheveu	-10.8997
▁souhaite	-10.8997
▁organisé	-10.8998
media	-10.9002
▁bloc	-10.9002
tif	-10.9002
▁probable	-10.9005
▁basket	-10.9005
▁gobelet	-10.9005
▁remarqué	-10.9005
▁robe	-10.9005
▁proposition	-10.9005
▁fichier	-10.9005
▁barrière	-10.9005
▁suffisam	-10.9005
▁préparation	-10.9005
▁Corse	-10.9006
▁conserve	-10.9007
environnement	-10.901
foot	-10.9012
▁invité	-10.9016
▁plaine	-10.9018
▁déposer	-10.9018
▁allumer	-10.9022
▁rends	-10.9023
▁déchet	-10.9028
▁Aix	-10.9029
▁ba	-10.904
▁com	-10.9041
▁effort	-10.9043
éli	-10.9045
▁math	-10.905
▁faute	-10.9056
née	-10.9086
offre	-10.9102
▁galet	-10.9124
▁toile	-10.9127
▁Mo	-10.9127
▁pêche	-10.913
▁catastrophe	-10.9132
▁réflexion	-10.9132
▁bourse	-10.9132
▁crème	-10.9132
▁Belge	-10.9132
▁carton	-10.9136
intérêt	-10.9137
financière	-10.9137
▁sécher	-10.9138
niste	-10.9138
▁débarque	-10.9145
ches	-10.9158
▁marié	-10.916
ordinateur	-10.9166
améliorée	-10.9166
▁parlez	-10.9172
▁Ca	-10.9189
▁gratuit	-10.9191
venez	-10.9202
▁approche	-10.9203
▁bouge	-10.9213
▁souhait	-10.9216
▁enseignement	-10.9226
▁ch	-10.923
▁senti	-10.923
▁veille	-10.9254
▁reconnaîtr	-10.9256
▁horrible	-10.926
▁scolari	-10.926
▁présence	-10.926
médiateur	-10.9267
▁expliqué	-10.9269
▁planche	-10.9271
rou	-10.9271
▁Parisien	-10.9287
huitième	-10.9289
▁connaisse	-10.9293
▁tenu	-10.9296
▁w	-10.9297
pé	-10.9309
▁doigt	-10.9341
▁cri	-10.936
ali	-10.9373
▁dirige	-10.9373
▁claire	-10.9384
▁fur	-10.9389
▁bagarre	-10.939
▁traduction	-10.939
▁chèvre	-10.939
▁autoriser	-10.939
▁Nord	-10.939
▁baguette	-10.9391
▁suppose	-10.9392
▁pluie	-10.9393
▁lâche	-10.9395
res	-10.9396
▁rang	-10.9398
▁camping	-10.9405
▁terminé	-10.9406
fort	-10.9417
▁saut	-10.9429
point	-10.9435
▁suiv	-10.9444
▁nu	-10.9463
▁Jo	-10.9486
▁pomme	-10.9493
▁alcool	-10.9495
▁féminin	-10.9521
▁universitaire	-10.9521
▁divise	-10.9521
▁manga	-10.9521
▁miroir	-10.9521
▁sucre	-10.9522
hiver	-10.9522
▁champion	-10.9523
expérience	-10.9533
▁colère	-10.9547
▁pote	-10.9555
mon	-10.9556
▁croqu	-10.9559
▁siège	-10.9572
▁hop	-10.9578
▁rempli	-10.9594
▁amené	-10.9594
Est	-10.9595
neuv	-10.9602
avance	-10.9606
▁chou	-10.9607
▁dure	-10.961
▁mo	-10.9618
▁consacre	-10.9655
▁pigeon	-10.9655
▁territoire	-10.9655
▁touché	-10.9655
▁nan	-10.9655
▁trottoir	-10.9656
1	-10.9659
▁hors	-10.9659
sport	-10.9665
tro	-10.9667
analyse	-10.9668
▁accroche	-10.9684
▁baisser	-10.97
▁mineur	-10.9709
ction	-10.9734
▁char	-10.9744
rom	-10.976
utant	-10.9765
▁loca	-10.9768
og	-10.9778
▁reprend	-10.9778
▁baptême	-10.979
▁chapeau	-10.979
▁discussion	-10.979
▁ressemble	-10.979
ète	-10.9795
▁empreinte	-10.9797
ati	-10.9799
▁tram	-10.9809
▁adaptations	-10.9812
opposer	-10.9819
▁frais	-10.982
▁gamin	-10.9835
▁interviewe	-10.9837
▁pouvai	-10.9846
▁quitter	-10.9855
go	-10.9862
lier	-10.9869
▁Co	-10.9875
▁explose	-10.9883
▁rond	-10.9888
▁retourne	-10.9893
ber	-10.9906
▁croir	-10.9907
▁employé	-10.9925
▁cellule	-10.9927
▁dialecte	-10.9927
▁étrangère	-10.9927
▁rive	-10.993
▁raconté	-10.9935
▁moments	-10.9941
▁ver	-10.9958
▁laver	-10.9976
▁poids	-10.9979
▁coûte	-11.0014
▁humain	-11.002
▁formations	-11.0025
▁direct	-11.0035
rité	-11.0035
▁marin	-11.005
▁An	-11.0059
▁publique	-11.0063
▁cinquième	-11.0066
▁sauce	-11.0066
fer	-11.0068
▁soigne	-11.007
▁nid	-11.0079
église	-11.0084
association	-11.0085
▁Al	-11.0095
▁pommes	-11.0096
hôtel	-11.0102
▁trait	-11.0108
▁coupe	-11.011
▁assistant	-11.0117
ork	-11.0139
▁maisons	-11.014
empêche	-11.0146
oe	-11.015
▁dise	-11.0161
ché	-11.0164
▁réveille	-11.017
▁référent	-11.0194
▁unique	-11.0194
étude	-11.0199
up	-11.0199
rée	-11.0201
evoir	-11.0205
orthograph	-11.0207
▁dizaine	-11.0207
▁collection	-11.0207
▁vision	-11.0214
▁infirmier	-11.0214
▁pédagogique	-11.022
▁sympathique	-11.0221
▁épaule	-11.0221
uen	-11.0222
objectif	-11.0227
vélo	-11.0228
▁taxi	-11.0228
▁vérifier	-11.0231
▁cirque	-11.0233
▁essaye	-11.024
▁entière	-11.0243
▁maternelle	-11.0246
▁dirait	-11.026
▁opéra	-11.0262
▁particip	-11.0283
▁coût	-11.0284
▁gagne	-11.0287
illes	-11.0289
▁achète	-11.029
▁développer	-11.03
lles	-11.0306
▁restai	-11.0321
▁jouai	-11.0323
▁réuni	-11.0326
habite	-11.0348
▁clientèle	-11.0349
▁crèche	-11.035
▁tortue	-11.035
▁définition	-11.035
▁peuple	-11.035
▁réaction	-11.0351
▁indiquer	-11.0351
▁balade	-11.0353
▁interdit	-11.0353
▁mou	-11.0356
médic	-11.0362
▁oiseaux	-11.0367
emp	-11.0371
exemple	-11.0373
iane	-11.0374
▁assemblée	-11.0375
▁échelle	-11.038
▁filet	-11.0389
▁cora	-11.0394
▁jésu	-11.0426
arrêt	-11.0441
ifié	-11.0446
▁support	-11.0454
anque	-11.0461
ondre	-11.0463
▁beaux	-11.0483
▁quotidien	-11.0492
▁gaz	-11.0494
manufactur	-11.0494
▁sensibilis	-11.0494
▁bombe	-11.0494
▁quadrill	-11.0494
▁21:	-11.0494
▁repos	-11.0497
▁obligatoire	-11.0499
▁cd	-11.0506
▁parisien	-11.0507
▁creuser	-11.0508
▁dira	-11.0511
espace	-11.0519
▁salade	-11.0523
ventre	-11.0529
▁humaine	-11.0534
▁amène	-11.0539
▁rap	-11.054
▁version	-11.0542
qué	-11.0546
▁déplacer	-11.0554
▁pure	-11.0555
▁élevé	-11.0558
▁critique	-11.0564
▁douche	-11.0566
▁informatique	-11.0568
ach	-11.0569
▁durée	-11.0572
▁pub	-11.0586
pré	-11.0588
▁vraie	-11.0598
ayant	-11.0601
▁rapporter	-11.0622
▁ressort	-11.0624
▁Ra	-11.0632
▁contract	-11.0635
▁capacité	-11.0641
▁juriste	-11.0641
▁prenez	-11.0642
app	-11.0642
▁cool	-11.0642
▁manteau	-11.0643
▁cherché	-11.0643
▁chauffeur	-11.0645
▁figure	-11.0651
▁promett	-11.0661
employé	-11.0667
fleur	-11.0668
apprentissage	-11.0668
▁apport	-11.068
ttes	-11.0682
ord	-11.0685
coup	-11.0688
▁autoroute	-11.0688
▁courrier	-11.0689
▁servi	-11.0689
onne	-11.0693
▁prison	-11.07
dou	-11.0701
▁sale	-11.0717
▁critiquer	-11.072
▁membre	-11.072
▁fi	-11.0725
porte	-11.0753
▁fabrique	-11.0758
▁influence	-11.0761
▁offre	-11.0787
cale	-11.079
waterp	-11.0791
▁camarade	-11.0791
▁conversation	-11.0791
▁diminue	-11.0791
▁défaut	-11.0791
▁soldat	-11.0791
▁automatique	-11.0791
▁couteau	-11.0791
▁salue	-11.0793
▁joueuse	-11.0795
▁naturel	-11.0796
▁ira	-11.0798
▁psycho	-11.08
▁fout	-11.0802
▁leçon	-11.0805
▁chôm	-11.0808
▁loyer	-11.0818
▁accessible	-11.0823
▁aimai	-11.0826
▁étudiante	-11.0846
cal	-11.0847
▁process	-11.0847
▁passion	-11.0851
arriver	-11.0853
▁ambiance	-11.0866
▁national	-11.0868
▁noire	-11.0871
peur	-11.0895
▁apprentissage	-11.0915
▁im	-11.0916
auraient	-11.092
ven	-11.0921
▁danseurs	-11.0939
▁décision	-11.0942
▁génial	-11.0942
▁impressionnant	-11.0942
▁néerland	-11.0943
▁quitté	-11.0944
â	-11.0945
▁parisienne	-11.0946
▁vive	-11.0947
▁vitesse	-11.095
▁utilisé	-11.0964
▁compt	-11.0965
oul	-11.0973
conserve	-11.0974
malade	-11.0975
image	-11.0984
eu	-11.0989
▁Espagn	-11.0999
▁ra	-11.1002
▁intéressé	-11.1004
▁pharmacien	-11.1009
▁lesquel	-11.1021
ug	-11.1022
▁CD	-11.1023
▁cage	-11.1025
▁dirai	-11.1033
tel	-11.1049
▁financière	-11.1089
▁terrifi	-11.1091
digitale	-11.1096
tatouage	-11.1096
▁sandwich	-11.1096
arafe	-11.1096
▁antipathique	-11.1096
▁chrétien	-11.1096
▁prisonnier	-11.1096
▁New	-11.1097
▁richesse	-11.1099
▁fourni	-11.11
▁montré	-11.1101
▁Sud	-11.1104
▁di	-11.1108
entre	-11.1115
▁dégo	-11.1116
▁foire	-11.1119
nourri	-11.113
▁vanill	-11.1147
▁culturel	-11.1154
▁angle	-11.1154
▁ressources	-11.1178
itrage	-11.1211
▁Gr	-11.1214
▁accompli	-11.1227
▁indépendan	-11.123
hum	-11.124
aider	-11.1246
▁donn	-11.1252
▁menstru	-11.1252
▁Namur	-11.1252
▁considère	-11.1252
▁registre	-11.1252
▁rythme	-11.1252
▁volume	-11.1252
▁colonne	-11.1252
▁détect	-11.1253
▁correction	-11.1253
▁prin	-11.1255
▁documentaire	-11.1255
▁nuage	-11.1257
▁permett	-11.1266
▁associe	-11.1267
▁continué	-11.1268
▁température	-11.1275
▁réelle	-11.1277
▁bibl	-11.1282
primaire	-11.1289
▁cache	-11.1295
calme	-11.1299
▁croissant	-11.1299
▁balaye	-11.1305
▁précise	-11.1321
▁ancienne	-11.1321
▁onz	-11.1337
expliquer	-11.1346
ha	-11.1364
▁taper	-11.1379
▁barre	-11.1384
ants	-11.1384
▁parfait	-11.1391
▁types	-11.1395
tient	-11.1397
▁contexte	-11.1411
▁déguise	-11.1411
▁expert	-11.1411
▁phonétique	-11.1411
▁croyai	-11.1411
▁géant	-11.1411
▁éclair	-11.1411
ache	-11.1421
▁chanteur	-11.1426
▁ouvre	-11.1428
▁étoile	-11.1434
▁déplie	-11.1447
▁paie	-11.1448
▁vendu	-11.1449
exercice	-11.145
développement	-11.1451
▁nul	-11.1455
so	-11.1476
▁Car	-11.1479
▁avantage	-11.1497
▁cuir	-11.15
▁surprise	-11.1504
▁concerna	-11.1506
vez	-11.1518
10	-11.1534
demi	-11.1551
▁ouh	-11.156
▁sénat	-11.157
▁cérémonie	-11.1572
▁disparu	-11.1572
▁hiéroglyphe	-11.1572
▁policier	-11.1572
▁restauration	-11.1572
▁signature	-11.1572
▁télécharge	-11.1572
▁circulation	-11.1573
▁cap	-11.1573
▁crédit	-11.1573
▁pleine	-11.1574
▁rappeler	-11.1577
eindre	-11.158
▁événement	-11.1591
club	-11.1614
▁flan	-11.1616
▁lève	-11.1618
▁présenté	-11.1619
▁Bel	-11.1623
▁coller	-11.1625
envers	-11.1647
▁nationale	-11.1649
▁technologie	-11.165
▁merde	-11.165
▁intervention	-11.1654
entendre	-11.1664
élé	-11.167
▁bassin	-11.1679
ob	-11.1689
battr	-11.1691
cé	-11.1698
▁grandi	-11.1704
▁sein	-11.1716
essaye	-11.172
eterre	-11.172
ssé	-11.1725
▁ç	-11.1733
▁collaboration	-11.1736
▁comprenne	-11.1736
▁jambon	-11.1736
▁placé	-11.1736
▁recevoir	-11.1737
trevue	-11.1737
▁supermarché	-11.1737
▁décoration	-11.1739
▁canton	-11.174
▁soutien	-11.1742
▁récem	-11.1745
mettre	-11.1753
▁plume	-11.1754
▁album	-11.1758
▁plastique	-11.1764
▁fax	-11.1764
▁cor	-11.1767
▁poussé	-11.177
▁architecte	-11.1774
yrie	-11.1777
▁be	-11.1778
▁excuse	-11.178
européen	-11.178
parole	-11.1781
▁ouverte	-11.1782
alité	-11.1788
▁Lond	-11.1788
▁lot	-11.179
▁rédui	-11.1792
▁mine	-11.1798
▁intéresse	-11.1809
▁fonctionnement	-11.1812
▁ménage	-11.1813
unis	-11.1817
▁cerf	-11.182
▁esprit	-11.1825
enne	-11.1826
▁photocopie	-11.1833
▁mariée	-11.1836
craie	-11.1842
gène	-11.1843
▁aile	-11.1846
▁globale	-11.1855
▁pic	-11.1856
▁aspect	-11.1857
▁prévoi	-11.1873
▁culturelle	-11.1891
▁majorit	-11.1902
▁beurre	-11.1903
▁colombe	-11.1903
▁serpent	-11.1903
▁séance	-11.1903
▁vitrine	-11.1903
▁littéraire	-11.1903
▁console	-11.1903
ège	-11.1905
bille	-11.1906
▁boucle	-11.1908
rale	-11.1913
mb	-11.1913
▁fontaine	-11.1924
▁pf	-11.1928
▁amitié	-11.1939
bu	-11.1948
amérique	-11.1949
marin	-11.195
politique	-11.1951
▁privée	-11.1962
▁moule	-11.1962
▁sauvage	-11.1964
▁babou	-11.1981
▁américaine	-11.1989
▁couvrir	-11.1992
▁profit	-11.1993
aurait	-11.2004
▁pur	-11.2018
▁total	-11.202
▁Fin	-11.2028
ats	-11.2031
▁Fr	-11.2036
sais	-11.2041
chi	-11.2055
▁Po	-11.2064
▁al	-11.2067
▁défini	-11.207
IC	-11.2072
▁aiguille	-11.2072
▁chapelle	-11.2072
▁séjour	-11.2073
▁paquet	-11.2073
▁trésor	-11.2073
▁triste	-11.2073
▁monument	-11.2074
▁écraser	-11.2078
▁étrange	-11.2082
nce	-11.2088
▁pie	-11.2092
▁refus	-11.2092
▁immense	-11.2095
▁impression	-11.2095
tan	-11.2096
▁enveloppe	-11.2097
chine	-11.2099
▁opposition	-11.2109
▁tourisme	-11.2113
▁ascenseur	-11.2118
iens	-11.212
Pierre	-11.2121
fatigué	-11.2121
établissement	-11.2122
divorce	-11.2122
▁doigts	-11.2126
espagnol	-11.2127
▁profiter	-11.2134
▁vo	-11.2136
▁amener	-11.2144
▁confi	-11.2152
▁découvert	-11.2159
▁américain	-11.2177
▁San	-11.2179
▁désir	-11.2193
▁ho	-11.2204
▁Angl	-11.2206
▁écriv	-11.2213
ouvrir	-11.2214
▁Intern	-11.222
▁Mon	-11.2223
▁rep	-11.2225
▁vieilles	-11.2226
▁commerciale	-11.2227
ck	-11.2235
▁studio	-11.2245
▁sensible	-11.2245
▁socia	-11.2245
▁rock	-11.2245
▁Bast	-11.2246
▁inaugurer	-11.2246
▁sup	-11.2247
▁mousse	-11.2247
venant	-11.2248
▁accueilli	-11.2252
▁administrateur	-11.2252
com	-11.2254
croissan	-11.2259
▁biologi	-11.2262
▁internat	-11.2263
per	-11.2268
▁historique	-11.2272
▁section	-11.2272
▁tiré	-11.229
rain	-11.2297
organisation	-11.2297
ifi	-11.2302
▁remonter	-11.2315
ô	-11.2315
▁connue	-11.2332
▁Be	-11.2335
élèves	-11.2341
bourg	-11.2345
▁profil	-11.2357
éloigne	-11.2357
essayer	-11.2362
▁combat	-11.2365
lot	-11.2366
▁serv	-11.2366
▁Du	-11.2375
▁acc	-11.2375
▁arrête	-11.2378
▁japonaise	-11.2386
▁positif	-11.242
▁rugby	-11.242
▁théorie	-11.242
▁valise	-11.242
▁production	-11.242
▁cosmo	-11.242
▁boeuf	-11.242
▁accepté	-11.2421
▁joie	-11.2421
▁Pays	-11.2421
inclusion	-11.2423
▁chômeur	-11.2431
▁misère	-11.2433
▁assiette	-11.2437
▁épo	-11.244
cous	-11.2445
line	-11.2466
▁tire	-11.2474
échec	-11.2476
▁promene	-11.2476
arrivai	-11.2476
▁parlement	-11.2501
▁essence	-11.2503
▁rêver	-11.2504
▁imp	-11.2505
▁queue	-11.2509
▁parfaite	-11.2514
▁faite	-11.2515
▁morte	-11.2542
▁prépare	-11.2545
ève	-11.255
▁nouvel	-11.2575
util	-11.2582
cho	-11.2583
▁diffuse	-11.2585
ages	-11.2589
excuser	-11.2592
▁jou	-11.2595
▁gout	-11.2597
▁centimètre	-11.2599
▁patrimoine	-11.2599
▁cierge	-11.2599
réflexe	-11.2599
▁boulanger	-11.2599
▁frein	-11.2599
▁violence	-11.2599
sec	-11.26
▁corse	-11.2603
▁septante	-11.2605
▁née	-11.2612
▁chante	-11.2618
men	-11.262
▁bloque	-11.2622
▁acquis	-11.2627
habitai	-11.263
▁info	-11.2651
▁patience	-11.2653
cela	-11.2654
▁naissance	-11.2658
expression	-11.2659
▁ob	-11.2687
▁graine	-11.2698
pes	-11.27
cteur	-11.2701
▁enseigne	-11.271
euros	-11.2712
tru	-11.2712
▁per	-11.2723
▁croissan	-11.274
ui	-11.275
▁Pa	-11.275
eff	-11.2767
▁habitude	-11.2771
▁congé	-11.2774
▁dép	-11.2777
ell	-11.2778
▁climat	-11.2779
▁chemise	-11.2781
▁impossible	-11.2781
▁incroyable	-11.2781
▁photographe	-11.2781
▁moderne	-11.2781
shirt	-11.2781
▁pneu	-11.2782
polie	-11.2784
▁salaire	-11.2784
▁analgésie	-11.2785
▁soupe	-11.2792
▁traditionnelle	-11.2793
▁chao	-11.2794
▁courage	-11.2796
▁poulet	-11.2809
▁châteaux	-11.2811
▁revienne	-11.2813
▁mix	-11.2815
mont	-11.2817
▁erreur	-11.2817
▁sonner	-11.2818
▁Sainte	-11.2831
▁masse	-11.284
cheveux	-11.2844
culturelle	-11.2845
nier	-11.2847
▁etc	-11.2849
▁futur	-11.2852
▁chiffre	-11.2858
gorge	-11.2859
▁frappe	-11.2864
ncy	-11.2865
▁gl	-11.2876
▁inscrit	-11.2889
▁barbe	-11.2894
▁cha	-11.2903
bilité	-11.2927
▁réanim	-11.2929
rapprocher	-11.2937
forme	-11.294
oublie	-11.2946
miel	-11.2948
▁supporter	-11.2955
▁lion	-11.2958
▁plaque	-11.2962
▁kilo	-11.2966
remlin	-11.2966
▁femelle	-11.2966
▁facilité	-11.2966
▁témoin	-11.2966
okyo	-11.2966
▁cible	-11.2966
▁briller	-11.2968
dis	-11.2969
▁baie	-11.2969
▁mobiliser	-11.297
▁refait	-11.2972
▁niveaux	-11.2972
▁tort	-11.2975
▁Fran	-11.2978
▁pourraient	-11.2979
▁parties	-11.298
▁mondial	-11.298
▁Lyon	-11.2982
▁réalisé	-11.2984
▁situe	-11.2997
ange	-11.2998
▁formé	-11.3008
naire	-11.3028
orchestre	-11.3031
istes	-11.304
▁explique	-11.3041
économie	-11.3046
courses	-11.3048
▁sujets	-11.3069
lée	-11.3069
▁souri	-11.3091
▁debout	-11.31
ami	-11.311
▁treiz	-11.3112
▁vir	-11.3116
▁façons	-11.3122
nie	-11.3135
nette	-11.3136
▁traditionnel	-11.3141
pp	-11.3146
▁diab	-11.3148
▁couvert	-11.3154
▁bouchon	-11.3154
▁bâton	-11.3154
▁connecte	-11.3154
▁liberté	-11.3154
▁poubelle	-11.3154
▁province	-11.3154
précoce	-11.3154
▁systématique	-11.3154
▁souvenez	-11.3155
▁utile	-11.3156
▁marre	-11.3156
▁Bruxellois	-11.3156
▁mince	-11.3158
inauguration	-11.3159
▁do	-11.3163
▁actrice	-11.3166
▁collecte	-11.3173
▁bénévole	-11.3176
▁armoire	-11.3182
▁gueule	-11.3182
▁immigré	-11.3186
▁quitte	-11.319
anc	-11.3193
nent	-11.3193
▁grimpe	-11.3195
fuir	-11.3202
cu	-11.3205
▁genou	-11.3211
▁hi	-11.3213
arbre	-11.3214
ienne	-11.3215
▁compose	-11.3215
▁tremble	-11.3215
▁apporté	-11.3218
papier	-11.3225
▁Si	-11.3239
▁internationale	-11.3243
ât	-11.3256
Afri	-11.3259
▁Li	-11.326
ification	-11.3265
éro	-11.3269
▁avance	-11.327
▁Par	-11.327
and	-11.3279
▁boss	-11.3284
▁attaché	-11.3295
▁douz	-11.3305
importan	-11.3308
▁divers	-11.3313
▁drap	-11.3329
▁art	-11.3331
▁précisé	-11.3334
▁décor	-11.3335
aperçoi	-11.3339
▁inde	-11.3341
▁discrimin	-11.3344
▁priori	-11.3345
▁autonome	-11.3347
▁bouquet	-11.3347
▁développé	-11.3347
▁permanence	-11.3347
▁gagné	-11.3347
▁cheffe	-11.3347
▁rugueu	-11.3347
▁bazar	-11.3347
▁sushi	-11.3347
▁provençal	-11.3347
allonie	-11.3347
suicide	-11.3348
▁préparé	-11.335
demander	-11.335
▁boule	-11.3351
▁attendez	-11.3352
▁présentation	-11.3356
▁bronze	-11.3362
▁tra	-11.3364
▁croi	-11.3365
▁lune	-11.3367
▁Con	-11.3368
▁regardez	-11.3369
avi	-11.3374
▁tester	-11.3377
vingts	-11.3392
▁frite	-11.3402
▁poule	-11.3403
ouf	-11.3408
▁Ni	-11.341
▁trouvez	-11.3413
utilise	-11.3415
ien	-11.3416
▁prononcer	-11.3416
▁Lu	-11.3425
aill	-11.3433
rovi	-11.3435
▁Gu	-11.3442
existe	-11.3447
▁précédent	-11.3454
éra	-11.3458
▁avenue	-11.3469
▁colle	-11.3471
▁spécial	-11.3486
inter	-11.35
ouvre	-11.3501
car	-11.3503
▁rapprocher	-11.3505
atrice	-11.3509
tisme	-11.3525
▁différe	-11.3531
châtaigne	-11.3543
▁commissariat	-11.3543
▁conséquence	-11.3543
▁galerie	-11.3543
▁personnalité	-11.3543
▁opére	-11.3543
▁football	-11.3543
▁villages	-11.3544
▁disposition	-11.3545
▁Etats	-11.3546
▁regrette	-11.3548
▁agression	-11.3554
▁ranger	-11.3556
▁cous	-11.3568
▁désolé	-11.3569
▁rou	-11.3569
▁fée	-11.3575
ébri	-11.3576
étire	-11.358
▁pointe	-11.359
aka	-11.3613
▁Beau	-11.3615
ll	-11.3618
envoie	-11.362
escalier	-11.3621
oreille	-11.3621
mesure	-11.3621
étage	-11.3626
▁diction	-11.3628
▁couverture	-11.363
▁grain	-11.3635
▁allai	-11.3635
▁circule	-11.364
▁tombée	-11.3641
louer	-11.3652
▁additionn	-11.3671
ué	-11.3689
▁chefs	-11.3689
ada	-11.3701
▁plats	-11.3711
▁Bi	-11.3713
▁potage	-11.3714
▁sor	-11.3718
tori	-11.3731
▁boxe	-11.3738
▁faculté	-11.3743
▁financier	-11.3743
▁formidable	-11.3743
▁parallèle	-11.3743
▁proximité	-11.3743
▁trajet	-11.3743
▁liquide	-11.3743
▁continent	-11.3743
▁comprenai	-11.3743
▁preuve	-11.3743
▁siffle	-11.3743
▁foyer	-11.3744
▁portable	-11.3745
articles	-11.3746
▁citer	-11.375
▁portes	-11.3757
▁fixe	-11.3759
▁préféré	-11.3761
écriture	-11.3765
▁frigo	-11.3767
▁Mi	-11.3768
ER	-11.3771
▁arrondissement	-11.3777
▁jolie	-11.378
▁opinion	-11.3782
▁enlève	-11.3787
▁bougie	-11.3788
▁décide	-11.3791
gna	-11.3793
toire	-11.3794
▁gai	-11.3797
▁pêcher	-11.3797
personnel	-11.3798
▁animé	-11.3807
▁ressenti	-11.3811
▁visible	-11.3814
abeille	-11.3822
monnaie	-11.3823
ancien	-11.3824
alcool	-11.3824
assurance	-11.3825
appartement	-11.3825
▁arrière	-11.383
▁condition	-11.3859
▁science	-11.3859
▁censé	-11.3861
▁secour	-11.3879
▁bosser	-11.3897
▁suivante	-11.39
vê	-11.3915
▁Afri	-11.3925
▁coq	-11.3925
▁subi	-11.3926
▁interview	-11.3938
▁banc	-11.3947
interpréter	-11.3947
météorologique	-11.3947
▁connerie	-11.3947
▁enceinte	-11.3947
▁originaire	-11.3947
▁magique	-11.3947
▁étagère	-11.3947
▁carreau	-11.3947
▁emporter	-11.3947
▁Champ	-11.3948
▁aurais	-11.3948
▁défendre	-11.3949
▁mettez	-11.3949
▁canne	-11.3953
▁visité	-11.3953
▁front	-11.3954
▁menace	-11.3954
▁excursion	-11.3956
▁charbon	-11.3958
▁Japonais	-11.3959
▁crée	-11.3961
▁drapeau	-11.3967
▁obten	-11.3968
▁administratif	-11.3976
▁inspecteur	-11.3981
▁Ti	-11.3986
▁fl	-11.3996
▁plais	-11.4001
icycle	-11.4002
▁porc	-11.4006
▁enlever	-11.401
éc	-11.4016
écris	-11.402
▁handicapé	-11.4028
identité	-11.4031
achète	-11.4032
ouvrage	-11.4034
▁roue	-11.4037
▁Italie	-11.4039
▁Lo	-11.4048
▁racontai	-11.4056
ica	-11.4059
ang	-11.4064
▁autom	-11.4065
oli	-11.4065
étique	-11.4087
û	-11.4097
▁européen	-11.4098
▁copie	-11.4099
étudiant	-11.4112
▁cabine	-11.4126
▁remonte	-11.4136
▁roule	-11.4136
lande	-11.414
ouverture	-11.4151
way	-11.4154
extrémité	-11.4155
▁alentour	-11.4155
▁badge	-11.4155
▁fragile	-11.4155
▁prononcé	-11.4155
▁réchauffer	-11.4155
voi	-11.4155
▁hérite	-11.4155
▁delta	-11.4155
▁rayon	-11.4155
▁boudin	-11.4156
▁ceinture	-11.4156
oxy	-11.4158
▁purée	-11.4159
▁trempée	-11.416
▁respirer	-11.4171
▁décline	-11.4173
▁perle	-11.4177
▁blessure	-11.4177
▁glisser	-11.4178
▁déplacement	-11.4181
▁voleur	-11.4181
issant	-11.4182
lette	-11.4184
gan	-11.4187
accorder	-11.42
▁principal	-11.4201
▁apprenne	-11.4206
▁tennis	-11.4211
▁copier	-11.4216
▁tac	-11.4216
J	-11.4218
vert	-11.4228
orientation	-11.4244
écrit	-11.4246
treize	-11.4246
manger	-11.4246
cas	-11.4256
écouter	-11.4275
installer	-11.4296
occupai	-11.4306
▁gu	-11.431
intra	-11.4321
▁saurai	-11.4328
▁manie	-11.4329
▁comportement	-11.4335
▁casque	-11.4341
blé	-11.4346
▁signer	-11.4362
encourager	-11.4368
▁maturité	-11.4368
insertion	-11.4368
▁charrette	-11.4368
▁philosophi	-11.4368
▁théorique	-11.4368
▁partenaire	-11.4368
▁poussière	-11.4368
▁triangle	-11.4368
élène	-11.4368
criminel	-11.4368
▁cherchai	-11.437
▁représentant	-11.4371
▁jury	-11.4373
▁sourire	-11.4373
▁terrifiant	-11.4375
▁centaine	-11.4384
▁tasse	-11.4396
▁toit	-11.4397
▁traitement	-11.4398
▁autonomie	-11.4399
comprends	-11.4404
iller	-11.4408
▁accusé	-11.4409
▁formule	-11.4411
▁pression	-11.4417
▁voy	-11.4422
▁enfer	-11.443
▁sportif	-11.4445
▁descendu	-11.4447
▁messi	-11.4449
▁échappe	-11.4453
apprend	-11.446
▁classeur	-11.4461
ult	-11.4461
coucher	-11.4462
herbe	-11.4463
▁bagage	-11.4463
accè	-11.4463
administration	-11.4464
▁habité	-11.4464
écu	-11.4468
▁coule	-11.4471
avenue	-11.4474
▁pharmacie	-11.449
▁phénomène	-11.4507
▁orchestre	-11.4509
port	-11.4509
omb	-11.4512
év	-11.4513
file	-11.4517
▁montée	-11.4517
▁maroc	-11.4527
▁retourné	-11.4532
▁Do	-11.4533
réparer	-11.4541
ski	-11.4548
▁Se	-11.455
▁origine	-11.4571
▁bourgeois	-11.4579
▁concept	-11.4584
▁concurrenc	-11.4585
▁disponible	-11.4585
▁gousse	-11.4585
▁livraison	-11.4585
▁mélangé	-11.4585
▁pantalon	-11.4585
▁pommade	-11.4585
▁propriété	-11.4585
ibéri	-11.4585
▁saumon	-11.4585
▁auberge	-11.4586
▁standard	-11.4586
▁balance	-11.4586
▁compare	-11.4586
▁champagne	-11.4586
▁mentalité	-11.4586
▁couronne	-11.4587
▁capitale	-11.4587
▁lapin	-11.4587
▁confess	-11.4587
▁passeport	-11.4587
▁station	-11.4588
▁cultiver	-11.4589
▁Pic	-11.4597
▁ti	-11.4597
▁loge	-11.4599
foc	-11.4608
traire	-11.4613
▁conduite	-11.462
bain	-11.4631
tivité	-11.4633
trait	-11.4634
palpa	-11.4637
▁arracher	-11.4639
▁tâche	-11.4641
▁coupé	-11.4652
▁gay	-11.4667
▁supérieur	-11.4668
▁céré	-11.4672
▁devenue	-11.4672
▁créa	-11.4674
inverse	-11.4684
▁former	-11.4685
longueur	-11.4685
▁reprise	-11.4691
fi	-11.4692
nous	-11.4697
▁nettoy	-11.4707
▁ouvrage	-11.4718
organiser	-11.4722
ogne	-11.4724
▁suit	-11.4729
▁travaill	-11.4735
érer	-11.4752
▁réserve	-11.4755
▁utilis	-11.4764
▁to	-11.4779
appuye	-11.4797
ssant	-11.4799
grandir	-11.4804
▁épais	-11.4805
▁Go	-11.4806
▁u	-11.4808
▁légère	-11.4808
intéressai	-11.4808
pédagogue	-11.4808
▁Conseil	-11.4808
▁compagnon	-11.4808
▁marketing	-11.4808
▁perçu	-11.4808
▁récipient	-11.4808
▁brave	-11.4808
▁contrainte	-11.4808
▁offert	-11.4808
▁Seine	-11.4808
▁fortuné	-11.4808
▁blond	-11.4808
▁réforme	-11.4808
▁clef	-11.4808
▁noix	-11.4809
▁fumée	-11.4809
▁européenne	-11.481
▁monstre	-11.4811
▁aperçu	-11.4815
▁wa	-11.4818
▁renseignement	-11.4819
▁Jacque	-11.4823
auto	-11.4824
▁lèvre	-11.4827
▁aveugle	-11.4831
▁honnête	-11.4834
huile	-11.4835
die	-11.4835
▁moindre	-11.484
▁option	-11.4855
▁considéré	-11.4855
explique	-11.4877
▁Marie	-11.49
ane	-11.4905
▁conc	-11.4906
électrici	-11.4911
armée	-11.4913
oeuvre	-11.4913
enfance	-11.4913
nombreuse	-11.4918
avons	-11.4924
conscient	-11.493
▁ri	-11.4931
▁tourné	-11.4943
fini	-11.4964
▁coins	-11.4964
▁occupé	-11.4973
▁récupér	-11.4979
istique	-11.4996
▁aidé	-11.5
usine	-11.5017
▁panneau	-11.5023
▁broder	-11.5034
▁yaourt	-11.5034
▁solida	-11.5035
▁fleuve	-11.5035
Amérique	-11.5035
▁colonie	-11.5035
▁comprenez	-11.5035
▁concrète	-11.5035
▁kanji	-11.5035
▁économiser	-11.5035
▁bilan	-11.5035
▁parking	-11.5035
▁organe	-11.5035
▁pilote	-11.5035
▁pluriel	-11.5035
justice	-11.5035
▁ramène	-11.5035
▁oeufs	-11.5036
▁forge	-11.5036
▁évolué	-11.5038
▁perte	-11.5044
▁sombre	-11.5047
▁tenait	-11.5051
▁participe	-11.506
▁cub	-11.5076
▁oriente	-11.5082
▁rajouter	-11.5087
▁intégré	-11.5092
▁rentrai	-11.5106
▁écho	-11.5115
▁sentai	-11.5117
▁fut	-11.5125
▁col	-11.5127
▁divorce	-11.5138
▁neveu	-11.5145
goutte	-11.5145
voiture	-11.5146
▁fu	-11.5152
rice	-11.5162
oche	-11.5168
ima	-11.5169
▁avancer	-11.5172
▁tonne	-11.5174
amis	-11.518
arrange	-11.5184
court	-11.5187
▁bain	-11.5198
▁tir	-11.5207
hu	-11.5212
▁second	-11.5223
▁extérieur	-11.5232
laire	-11.5237
▁ras	-11.5239
çon	-11.5239
rire	-11.5247
▁africaine	-11.5247
ze	-11.5256
▁appart	-11.5262
▁réel	-11.5264
all	-11.5265
▁verte	-11.5266
industrie	-11.5267
inquiète	-11.5267
▁acquie	-11.5267
▁costaud	-11.5267
▁crêpe	-11.5267
▁déménagé	-11.5267
▁déçu	-11.5267
▁Chambre	-11.5267
▁réglage	-11.5267
▁prestation	-11.5268
▁quantité	-11.5269
▁conception	-11.5269
▁Basque	-11.5269
azz	-11.527
▁communion	-11.5271
▁reparti	-11.5273
▁tou	-11.5277
opération	-11.5278
▁poireau	-11.5278
▁adopte	-11.5281
▁montage	-11.5282
lla	-11.5284
can	-11.5286
▁atmosph	-11.5286
▁pri	-11.5287
▁grenouille	-11.5289
▁plainte	-11.529
▁signé	-11.5292
uni	-11.5292
ologie	-11.5293
▁adapté	-11.5294
iques	-11.5301
auteur	-11.5301
▁impact	-11.5307
▁Re	-11.5318
▁foule	-11.5325
▁apporte	-11.5332
▁organisme	-11.5334
▁évoluer	-11.5334
▁repartir	-11.534
▁combattr	-11.5341
mbo	-11.5343
calculer	-11.5345
▁gel	-11.5356
▁Mac	-11.5358
▁ennui	-11.536
étonne	-11.5362
▁nonante	-11.538
météo	-11.5381
cacher	-11.5381
marché	-11.5382
▁poli	-11.5382
éré	-11.5382
▁cit	-11.5384
▁Allema	-11.5386
île	-11.5387
agence	-11.539
▁pourriez	-11.5396
▁nombreuse	-11.5409
eaux	-11.5411
durable	-11.5419
▁profond	-11.542
▁carrés	-11.5422
▁constate	-11.5433
▁établissement	-11.5436
▁amérique	-11.5439
▁reconnais	-11.5453
▁levé	-11.5453
▁arriv	-11.5463
lais	-11.5468
▁ap	-11.5481
▁Maroc	-11.5487
▁ô	-11.549
êtes	-11.5492
▁machins	-11.5493
▁gardien	-11.5503
▁merveille	-11.5505
▁dispositif	-11.5506
▁illusion	-11.5506
musculaire	-11.5506
▁Monsieur	-11.5506
▁bijou	-11.5506
▁déménagement	-11.5506
▁séparé	-11.5506
▁thèse	-11.5506
▁cuivre	-11.5506
▁Bourgogne	-11.5506
▁complet	-11.5506
▁étiquette	-11.5506
▁canard	-11.5506
▁civilisation	-11.5506
▁collectif	-11.5506
▁marchai	-11.5506
▁répartition	-11.5506
▁discipline	-11.5506
▁croyez	-11.5506
▁motivé	-11.5506
▁regroupe	-11.5506
envoyer	-11.5506
▁amoureuse	-11.5506
▁Poit	-11.5507
▁épuise	-11.5507
▁gonfle	-11.5507
▁spécialité	-11.5507
book	-11.5507
▁verbe	-11.5508
▁gour	-11.5508
▁excusez	-11.5509
▁publicité	-11.5515
▁diable	-11.5517
▁noté	-11.5517
▁pape	-11.5519
▁délai	-11.5522
▁plongée	-11.5522
▁larme	-11.5541
lope	-11.5546
▁deuil	-11.5553
péni	-11.5555
▁secondaire	-11.5556
▁stocke	-11.5556
▁imagin	-11.5567
▁masque	-11.5572
▁urbanis	-11.5576
▁existai	-11.5579
▁fan	-11.5582
ow	-11.5583
▁locale	-11.5599
▁bis	-11.5609
inscription	-11.5626
▁découverte	-11.5626
aspect	-11.5627
intervention	-11.5627
ambiance	-11.5627
Allema	-11.5627
▁oe	-11.563
▁reconnu	-11.5648
▁mini	-11.5653
▁hurle	-11.5664
▁issu	-11.5665
ballon	-11.5671
▁axe	-11.5679
▁stages	-11.5679
▁franc	-11.5703
▁bonbon	-11.5707
▁thèmes	-11.5709
tier	-11.5709
civique	-11.5712
▁accepte	-11.5714
struction	-11.5718
▁pages	-11.5718
▁pan	-11.5723
▁correct	-11.5735
ko	-11.5737
▁médiateur	-11.5737
▁laid	-11.5738
land	-11.5741
▁tienne	-11.5742
▁tuer	-11.5749
▁canapé	-11.5749
▁placard	-11.5749
▁psychologique	-11.5749
▁stratégie	-11.5749
▁engagé	-11.5749
▁rassemble	-11.5749
▁adjoint	-11.5749
▁manche	-11.575
▁barrage	-11.575
▁comparé	-11.575
▁absent	-11.575
▁Flamand	-11.575
▁poème	-11.575
▁Russ	-11.5751
▁gras	-11.5752
rasm	-11.5753
▁défense	-11.5754
astor	-11.5754
▁serré	-11.5754
▁chère	-11.5755
▁fatigue	-11.5757
▁discuté	-11.5764
illon	-11.5765
▁Tour	-11.5766
▁choc	-11.5766
envoler	-11.5768
▁volant	-11.5768
▁Cour	-11.5769
LM	-11.5775
▁jean	-11.5776
avoue	-11.5778
▁occupation	-11.5782
▁Da	-11.5784
▁organise	-11.5785
▁grec	-11.5791
▁déroule	-11.5797
▁lutte	-11.5803
plier	-11.5815
jon	-11.5819
▁recommencer	-11.5837
gare	-11.5838
tam	-11.5842
▁Cor	-11.5846
lation	-11.5852
approche	-11.5864
émission	-11.5874
Italie	-11.5877
osité	-11.5877
informatique	-11.5877
appareil	-11.5878
pre	-11.5901
▁Rou	-11.5914
ifier	-11.5941
ouais	-11.5943
▁duré	-11.5944
▁vote	-11.5947
▁grav	-11.5959
▁élément	-11.5959
▁génér	-11.5963
▁géographi	-11.5965
▁pé	-11.5966
▁eaux	-11.5975
tats	-11.5978
jou	-11.5981
roulette	-11.5981
▁brancher	-11.5984
▁bal	-11.5991
▁baign	-11.5992
▁Fontaine	-11.5999
▁chaussette	-11.5999
▁distributeur	-11.5999
▁frotte	-11.5999
▁indemnité	-11.5999
▁libraire	-11.5999
▁photographie	-11.5999
▁politicien	-11.5999
▁pâtisserie	-11.5999
▁satisfaction	-11.5999
▁vulgaire	-11.5999
▁galère	-11.5999
▁célébr	-11.5999
▁championnat	-11.6
roulant	-11.6
▁11:	-11.6
▁souligner	-11.6002
▁représentation	-11.6002
▁violent	-11.6002
▁chiant	-11.6003
▁TD	-11.6003
▁Bret	-11.6004
▁crochet	-11.6006
Etat	-11.6008
▁bulle	-11.6008
▁investi	-11.601
▁coiffure	-11.601
▁partage	-11.6013
▁adaptation	-11.6014
▁hésit	-11.6017
▁masculin	-11.602
▁individuelle	-11.602
▁multi	-11.602
scer	-11.6039
▁litre	-11.6043
▁escalade	-11.6046
▁chercheur	-11.6051
trans	-11.6054
▁Ju	-11.6054
ép	-11.6068
▁mecs	-11.6084
▁achet	-11.6091
nat	-11.6097
▁centime	-11.6112
relief	-11.6113
technologie	-11.6133
sportive	-11.6134
fa	-11.6135
entretien	-11.6138
sol	-11.6153
▁supérieure	-11.6159
▁majeur	-11.6167
▁ange	-11.6172
nuit	-11.6175
ari	-11.6176
nne	-11.6188
ères	-11.6194
▁aspects	-11.6198
▁familial	-11.6202
▁complète	-11.6209
scar	-11.6212
inuit	-11.6215
nais	-11.6217
▁laine	-11.6217
accept	-11.622
▁boug	-11.622
installe	-11.6227
▁pourcent	-11.6231
tenti	-11.6235
▁tab	-11.6241
ute	-11.6246
▁Bou	-11.625
▁villa	-11.6256
▁multiplic	-11.6256
▁cercueil	-11.6256
▁indigent	-11.6256
▁inondation	-11.6256
▁reproduction	-11.6256
▁ridiculise	-11.6256
▁réservé	-11.6256
▁schéma	-11.6256
▁séminaire	-11.6256
▁hibou	-11.6256
▁flèche	-11.6256
distanci	-11.6256
entendez	-11.6256
▁quinzaine	-11.6256
▁variété	-11.6257
▁habillé	-11.6257
▁convient	-11.6257
▁municipalité	-11.6257
▁volaille	-11.6257
▁singe	-11.6257
▁sociologi	-11.6261
▁directrice	-11.6265
basque	-11.6266
▁nettoyer	-11.6266
▁coca	-11.6266
▁juré	-11.6267
épi	-11.6268
▁glace	-11.6283
▁new	-11.6284
▁franchir	-11.6285
▁trans	-11.6286
▁gratter	-11.6287
▁confronté	-11.6289
▁pique	-11.629
▁band	-11.6298
pente	-11.6301
▁foutu	-11.6304
▁horizon	-11.6306
▁énergie	-11.6312
ago	-11.6314
▁attendu	-11.6316
▁auquel	-11.633
▁quatorz	-11.6348
▁réveillé	-11.6349
▁acte	-11.6364
amp	-11.6366
▁accompagnement	-11.6368
nique	-11.6382
AP	-11.6386
taux	-11.6387
tière	-11.6394
chaussée	-11.6396
▁relie	-11.6397
quinze	-11.6397
pierre	-11.6397
attente	-11.6398
essence	-11.6399
▁géographique	-11.6407
▁financement	-11.6413
ménage	-11.6423
eresse	-11.6426
irai	-11.6434
▁échec	-11.6436
▁organisation	-11.6442
▁Paul	-11.6446
attend	-11.6447
▁nana	-11.6455
▁bonnet	-11.6459
▁liée	-11.6461
▁fraise	-11.6465
▁cloche	-11.6467
▁remercie	-11.6474
qua	-11.6477
▁courte	-11.6486
▁instruments	-11.6493
gen	-11.6498
issait	-11.65
▁rai	-11.65
▁individuel	-11.6505
▁remet	-11.6507
▁actuel	-11.6511
▁piéton	-11.6517
occurrence	-11.6519
▁académique	-11.6519
▁bloqué	-11.6519
▁caractéristique	-11.6519
▁catalogue	-11.6519
▁kiosque	-11.6519
▁producteur	-11.6519
▁psychologue	-11.6519
▁relevé	-11.6519
▁salarié	-11.6519
▁sanitaire	-11.6519
▁spontané	-11.6519
▁épisode	-11.6519
▁caméra	-11.6519
▁secret	-11.6519
▁potentiel	-11.6519
▁séisme	-11.6519
▁solide	-11.6519
▁royaume	-11.6519
▁colline	-11.652
▁éteindre	-11.652
▁touristique	-11.652
▁fourche	-11.652
▁priorité	-11.6521
▁sélection	-11.6523
▁aidant	-11.6524
▁boucherie	-11.6525
▁caché	-11.6525
▁violon	-11.6527
ness	-11.653
affect	-11.6542
entreprises	-11.6543
▁éc	-11.6552
▁électrique	-11.6557
▁sentier	-11.6558
bonne	-11.6565
asso	-11.6568
▁mour	-11.6572
passer	-11.6574
▁paire	-11.6582
▁cré	-11.6601
▁hy	-11.6602
▁ombre	-11.6606
▁dia	-11.662
municipal	-11.6623
▁familiale	-11.6631
intéresser	-11.6634
▁recev	-11.6634
▁mettrai	-11.6636
▁somme	-11.6639
cher	-11.664
▁riches	-11.6644
▁jugement	-11.665
▁bel	-11.6654
▁rez	-11.6662
Marie	-11.6666
développer	-11.6667
religion	-11.6667
arabe	-11.6667
pong	-11.6676
étend	-11.6679
york	-11.668
ana	-11.6687
base	-11.6687
uk	-11.6687
▁sec	-11.6691
tres	-11.6693
ôt	-11.6698
▁lancé	-11.67
▁Grand	-11.6702
▁plate	-11.672
▁stock	-11.6729
ignon	-11.6738
▁brun	-11.6745
▁quinz	-11.6749
▁puce	-11.6754
▁cuit	-11.6759
▁reten	-11.6784
▁cigare	-11.6785
▁consommation	-11.6789
▁bouffe	-11.6789
▁embrasse	-11.6789
▁gymnase	-11.6789
▁matelas	-11.6789
▁récupère	-11.6789
▁canada	-11.6789
▁chameau	-11.6789
▁choeur	-11.6789
▁fixé	-11.6789
▁locataire	-11.679
oyer	-11.679
envisage	-11.6791
▁puissance	-11.6791
▁désigner	-11.6792
▁sabot	-11.6792
▁discrimination	-11.6793
▁contenu	-11.6793
▁napoléon	-11.6793
▁quotidienne	-11.6793
▁Martine	-11.6794
▁manifeste	-11.6797
sexuel	-11.6797
▁François	-11.6798
▁exposé	-11.6798
irais	-11.6799
▁permette	-11.68
▁doré	-11.6806
irlande	-11.6808
▁synthèse	-11.6808
écart	-11.6822
▁pend	-11.6822
évaluation	-11.6823
▁costume	-11.6823
▁épée	-11.6828
pho	-11.6829
▁allais	-11.6833
nage	-11.6834
▁arbitre	-11.6838
▁go	-11.6841
vin	-11.6847
▁fréquent	-11.6847
▁équipement	-11.6852
rouille	-11.6854
▁raté	-11.687
▁pressé	-11.6872
▁repart	-11.6874
▁mesurer	-11.6876
▁supporte	-11.6881
▁commentaire	-11.6887
empêcher	-11.6907
▁conte	-11.6907
▁admett	-11.6916
▁secouri	-11.6919
▁fatigué	-11.692
lli	-11.6922
animation	-11.6926
isto	-11.6931
pad	-11.6936
bagage	-11.6944
géographique	-11.6944
centime	-11.6944
déjeuner	-11.6945
rendez	-11.6945
cinquante	-11.6945
▁arts	-11.6954
âcher	-11.6957
▁traverse	-11.696
▁international	-11.6961
▁revenue	-11.6965
▁classer	-11.6966
▁ru	-11.6968
▁assise	-11.6974
same	-11.6974
▁passager	-11.6979
▁finit	-11.698
▁éloigne	-11.6983
signer	-11.6985
pain	-11.699
▁Fac	-11.7003
▁casse	-11.7006
atal	-11.7018
net	-11.7047
▁format	-11.7065
▁progr	-11.7066
▁résidence	-11.7067
trisomi	-11.7067
▁diagnostic	-11.7067
▁informaticien	-11.7067
▁plafond	-11.7067
▁répertoire	-11.7067
▁motivation	-11.7067
▁limité	-11.7067
▁failli	-11.7067
▁artistique	-11.7067
▁marge	-11.7067
▁mandat	-11.7067
embête	-11.7067
▁effacer	-11.7068
▁romantique	-11.7068
ong	-11.7068
▁enduran	-11.7069
▁coiffeur	-11.707
▁sérieuse	-11.707
▁cassette	-11.7072
▁jupe	-11.7073
▁bous	-11.7076
▁prenant	-11.7077
▁lente	-11.7092
▁renseigner	-11.7094
▁reb	-11.7095
▁annexe	-11.7097
▁sommet	-11.7098
▁démarre	-11.7098
▁anneau	-11.7099
▁agenda	-11.7107
hop	-11.7108
▁institution	-11.7111
▁tache	-11.7115
▁discute	-11.7119
▁débrouiller	-11.7121
▁concev	-11.7124
▁pourrai	-11.713
▁préf	-11.7136
arrière	-11.7144
▁programm	-11.7152
▁découpe	-11.7163
▁penche	-11.7164
▁étend	-11.7174
▁basse	-11.7179
▁pince	-11.718
▁benne	-11.7183
▁mien	-11.7183
onstitution	-11.719
bert	-11.7195
▁chaussée	-11.7199
▁original	-11.7204
▁pouv	-11.7206
dic	-11.7207
iriez	-11.7213
▁boules	-11.7213
rquer	-11.7216
office	-11.7229
cloche	-11.723
escalade	-11.723
italien	-11.723
responsable	-11.7231
arrivée	-11.7231
enterrement	-11.7231
maintenan	-11.7231
diction	-11.7235
appeur	-11.7237
échange	-11.7238
bra	-11.724
acte	-11.7245
amois	-11.7252
appeler	-11.7263
are	-11.7267
rédi	-11.7276
tête	-11.7323
fais	-11.7325
▁retrouvée	-11.7329
▁quant	-11.734
étudiants	-11.7345
chimie	-11.7351
▁renouvel	-11.7353
▁aristocratique	-11.7353
▁charcuterie	-11.7353
▁consultation	-11.7353
▁dimension	-11.7353
▁député	-11.7353
▁emblématique	-11.7353
▁fantôme	-11.7353
▁inquiéte	-11.7353
▁miracle	-11.7353
▁récolte	-11.7353
▁sacrifice	-11.7353
▁scanner	-11.7353
▁sponsor	-11.7353
▁Bernard	-11.7353
▁farine	-11.7353
▁relance	-11.7353
▁armure	-11.7353
▁psychologie	-11.7353
▁débit	-11.7353
▁ennemi	-11.7353
▁moulin	-11.7353
▁cheville	-11.7353
▁réception	-11.7353
▁renverse	-11.7353
▁fauche	-11.7353
▁kid	-11.7354
▁tronc	-11.7354
▁consiste	-11.7354
▁filière	-11.7354
▁étudié	-11.7355
sevel	-11.7356
▁mouillé	-11.7357
▁superbe	-11.7358
▁transparent	-11.7358
▁paille	-11.7363
▁usé	-11.7369
▁occasion	-11.7376
attendai	-11.7385
▁sub	-11.7386
encre	-11.7389
▁nette	-11.7393
▁saute	-11.7394
▁Républi	-11.7398
amener	-11.7402
aura	-11.7404
▁cra	-11.7405
▁aîné	-11.7406
▁CE	-11.7422
▁divorcer	-11.743
▁tablette	-11.7433
▁Au	-11.7471
▁réagir	-11.7473
ote	-11.7501
tension	-11.7504
▁rajoute	-11.7504
▁soin	-11.7507
éduc	-11.7509
▁bouilli	-11.751
▁bic	-11.7511
▁Sé	-11.7513
▁verrai	-11.7519
dessinée	-11.7522
anniversaire	-11.7525
cuisine	-11.7525
ice	-11.7526
▁Pi	-11.7526
chasse	-11.7527
drôle	-11.7531
pul	-11.7541
▁gorge	-11.7547
adapter	-11.7555
▁sensation	-11.7556
mono	-11.7568
▁surpris	-11.7584
▁bi	-11.759
▁importan	-11.7612
▁dat	-11.7615
▁Nation	-11.7618
▁Ren	-11.7633
▁Sh	-11.7635
▁genti	-11.7642
▁syntax	-11.7645
aménagement	-11.7647
▁approché	-11.7647
▁collectivité	-11.7647
▁cueilli	-11.7647
▁célibataire	-11.7647
▁décollage	-11.7647
▁insulte	-11.7647
▁permanent	-11.7647
▁pénible	-11.7647
▁tambour	-11.7647
▁étonnant	-11.7647
▁Louvain	-11.7647
intention	-11.7647
▁terminale	-11.7647
▁rosé	-11.7648
immigration	-11.7648
▁chouette	-11.7649
▁vieillard	-11.7649
▁meurtre	-11.7649
▁secoue	-11.7649
▁acide	-11.765
CL	-11.765
▁officielle	-11.7652
▁ab	-11.7657
▁entraîne	-11.7659
▁apéritif	-11.766
▁accompagné	-11.766
éunion	-11.7661
▁bilingue	-11.7661
▁ravin	-11.7662
▁rappel	-11.7665
In	-11.7666
utiliser	-11.7675
▁fréquente	-11.7675
▁promo	-11.7676
entendai	-11.7684
▁reconnaissan	-11.7692
▁académie	-11.7693
▁donnée	-11.7694
▁libér	-11.7694
▁demandez	-11.7699
▁croix	-11.7699
▁émargement	-11.77
jo	-11.7703
▁électronique	-11.7712
▁vice	-11.7713
axe	-11.7726
▁individu	-11.7728
issement	-11.7736
engager	-11.7741
▁tribu	-11.7742
post	-11.7745
▁unité	-11.7749
▁patin	-11.775
van	-11.7767
▁tension	-11.7772
▁lave	-11.7776
▁bleue	-11.7779
▁Terre	-11.7784
▁souffler	-11.7785
▁Tu	-11.7788
▁constat	-11.7791
mademoiselle	-11.7818
orge	-11.7821
essentiel	-11.7828
fruits	-11.7828
avocat	-11.7828
courbe	-11.7837
reposer	-11.7839
▁stress	-11.7843
ésité	-11.7851
▁occupe	-11.7852
▁articles	-11.7861
▁labo	-11.7866
▁communal	-11.7868
▁top	-11.7876
▁traité	-11.7878
▁oral	-11.789
▁entré	-11.7894
▁essai	-11.7902
▁pou	-11.7905
▁ci	-11.7927
▁choisiss	-11.7934
nfusion	-11.7949
application	-11.795
immobilière	-11.795
▁Jésus	-11.795
▁Luxembourg	-11.795
▁agricole	-11.795
▁fermier	-11.795
▁particularité	-11.795
▁privilégié	-11.795
▁problématique	-11.795
acquisition	-11.795
▁manuel	-11.795
▁luxembourg	-11.795
▁valable	-11.795
▁lièvre	-11.795
▁cycle	-11.795
▁reproche	-11.795
▁demeure	-11.795
▁lampe	-11.795
▁Borde	-11.795
▁fameuse	-11.7951
▁intelligent	-11.7951
russie	-11.7951
▁flamme	-11.7951
▁fonctionnaire	-11.7952
▁trouble	-11.7952
▁pipe	-11.7952
▁réalisation	-11.7952
▁rideau	-11.7952
▁spécialiste	-11.7953
▁suffisant	-11.7953
▁charte	-11.7954
▁loue	-11.7954
▁préface	-11.7954
▁participation	-11.7955
▁auteurs	-11.7956
▁corre	-11.7957
allergie	-11.7958
▁réussite	-11.7961
▁socialiste	-11.7966
▁dragon	-11.797
▁Bag	-11.7973
▁redonne	-11.7974
▁voisine	-11.7975
rquie	-11.7977
▁planté	-11.7979
▁exigence	-11.7979
rône	-11.7979
▁besoins	-11.7983
ctif	-11.7984
▁tomate	-11.7986
glacée	-11.8016
lage	-11.802
▁décroche	-11.8028
▁épreuve	-11.8029
parental	-11.8031
▁estime	-11.8035
▁tend	-11.8035
▁cassé	-11.8039
▁voyag	-11.8041
▁chair	-11.8047
ordi	-11.8051
▁battu	-11.8052
▁profonde	-11.8054
audi	-11.8057
▁bouton	-11.8069
▁nou	-11.8077
boy	-11.8079
▁donnai	-11.8085
quoi	-11.809
irait	-11.8107
disputer	-11.8111
▁inverse	-11.8122
▁appuye	-11.8126
ly	-11.8129
▁Man	-11.8135
▁intéressée	-11.8135
Paul	-11.8139
commercial	-11.814
mémoire	-11.814
effective	-11.8141
opéra	-11.8142
atelier	-11.8142
olive	-11.8142
journée	-11.8145
▁prononce	-11.815
▁bio	-11.8151
▁basé	-11.817
uv	-11.8171
▁bille	-11.8178
▁voyager	-11.8185
interne	-11.819
arc	-11.8193
▁débrouille	-11.8202
▁rocher	-11.8206
soi	-11.8211
▁rigole	-11.8214
▁démen	-11.8219
▁insist	-11.8223
assis	-11.8223
▁Lau	-11.8223
An	-11.8232
èche	-11.8233
▁retrouvai	-11.824
▁sida	-11.8244
itude	-11.8249
▁Freud	-11.825
saint	-11.8253
▁maintien	-11.8255
▁chirurgie	-11.8258
▁marquée	-11.826
▁Raymond	-11.8262
▁assoupli	-11.8262
▁cavalier	-11.8262
▁foulard	-11.8262
▁magazine	-11.8262
▁manquai	-11.8262
▁mendiant	-11.8262
▁modification	-11.8262
▁ruisseau	-11.8262
▁réputation	-11.8262
▁répète	-11.8262
▁argument	-11.8262
▁choqué	-11.8262
▁discret	-11.8262
▁opérateur	-11.8262
▁subvention	-11.8262
▁poursuivr	-11.8262
actualité	-11.8263
▁short	-11.8263
sible	-11.8263
▁paradis	-11.8263
▁romain	-11.8263
▁débouche	-11.8263
▁portail	-11.8263
▁blesse	-11.8263
▁découvre	-11.8263
▁emmené	-11.8263
postale	-11.8264
▁fédéral	-11.8265
▁révolution	-11.8265
uvet	-11.8265
▁rup	-11.8265
▁prépa	-11.8267
▁mixte	-11.8269
▁mention	-11.8269
▁loué	-11.8271
▁AN	-11.8272
▁portugais	-11.8272
▁gérant	-11.8273
▁breton	-11.8278
▁nulle	-11.8278
intégr	-11.8284
▁vivante	-11.8288
▁ramené	-11.83
▁garantie	-11.8309
▁cathé	-11.8312
▁anecdote	-11.8314
▁pension	-11.8316
▁arche	-11.8324
▁rigolo	-11.8326
▁ramene	-11.8326
▁Su	-11.8338
échappe	-11.8344
noir	-11.835
▁ronde	-11.8354
▁global	-11.8354
hal	-11.8358
▁économies	-11.8359
▁accompagner	-11.8364
▁puissant	-11.8367
▁foutr	-11.8384
▁fourmi	-11.8403
veau	-11.8413
iff	-11.8415
▁Les	-11.8422
abri	-11.8445
habille	-11.8458
Espagn	-11.8462
poids	-11.8463
assure	-11.8463
branche	-11.8465
▁moque	-11.8465
▁Des	-11.8466
examen	-11.8466
▁cul	-11.8468
▁boite	-11.847
ête	-11.8476
▁maîtriser	-11.8477
ologique	-11.8482
ting	-11.8487
douche	-11.8488
▁spécialisé	-11.8492
▁Pierre	-11.8492
enregistrement	-11.8497
▁ressent	-11.8507
▁plair	-11.8508
▁remis	-11.8531
▁installée	-11.8532
▁appartien	-11.8535
▁Del	-11.8535
▁bobo	-11.8537
▁intégre	-11.8544
▁trent	-11.8546
▁expliqu	-11.8554
dan	-11.8557
angle	-11.8558
▁éco	-11.8558
▁poire	-11.8577
▁regret	-11.8577
▁confort	-11.8585
▁assaisonne	-11.8585
funèbre	-11.8585
▁comparaison	-11.8585
▁gendarme	-11.8585
▁incapable	-11.8585
▁mosquée	-11.8585
▁illégal	-11.8585
▁millier	-11.8585
parnass	-11.8585
▁devienne	-11.8585
▁balcon	-11.8585
▁sapin	-11.8585
Ecole	-11.8585
▁enfermé	-11.8585
▁envahi	-11.8585
▁volontaire	-11.8586
amphi	-11.8586
▁coréen	-11.8587
▁vomi	-11.8587
▁syndicat	-11.8587
▁muraille	-11.8588
▁voté	-11.8589
▁grossier	-11.8589
âme	-11.859
▁trouvée	-11.8591
▁glacier	-11.8592
imprimerie	-11.8593
▁dentiste	-11.8593
▁rattraper	-11.8598
▁vendeur	-11.8598
▁chi	-11.86
▁congr	-11.8602
▁embarque	-11.8603
▁indiqué	-11.8604
▁canal	-11.861
▁comédien	-11.8614
▁réécri	-11.8614
▁Africain	-11.8624
bes	-11.8629
▁visiteur	-11.8631
▁totale	-11.8633
▁citoyen	-11.8636
▁entouré	-11.8637
▁remise	-11.864
▁observatoire	-11.8644
▁savon	-11.8653
▁gant	-11.8654
▁fume	-11.8654
▁CF	-11.8655
▁arrose	-11.866
▁inspire	-11.8661
▁régionale	-11.8662
enchanté	-11.8662
▁dépl	-11.8672
icule	-11.8675
▁refusé	-11.8679
▁Bon	-11.8681
▁Com	-11.8702
ème	-11.8705
▁jeté	-11.8719
proch	-11.8727
▁sportive	-11.8753
▁bri	-11.8755
▁simpl	-11.8757
▁hall	-11.876
▁destin	-11.8762
AS	-11.8774
public	-11.8784
▁ouverture	-11.8784
▁rigue	-11.8784
▁voul	-11.8791
sauvage	-11.8796
investi	-11.8796
chambre	-11.8797
souci	-11.8797
▁aliment	-11.8827
▁rigol	-11.8827
usage	-11.8835
ccéder	-11.8841
change	-11.8847
▁chauffe	-11.8853
▁salad	-11.8853
▁choque	-11.8854
▁baisse	-11.8858
veillée	-11.8872
▁frappé	-11.8881
▁sympathi	-11.8886
uest	-11.8896
▁industriel	-11.89
observ	-11.8901
ij	-11.8912
moque	-11.8917
thérapeutique	-11.8918
▁crocodile	-11.8918
▁fiancé	-11.8918
▁insecte	-11.8918
▁maghrébin	-11.8918
▁perfection	-11.8918
▁persuadé	-11.8918
▁récompense	-11.8918
▁trombone	-11.8918
▁évacue	-11.8918
▁Côte	-11.8918
▁cuillère	-11.8918
▁enregistré	-11.8918
▁abandonné	-11.8918
▁mépris	-11.8918
▁serviteur	-11.8918
▁étern	-11.8918
▁inventé	-11.8918
▁billard	-11.8919
▁champignon	-11.8919
▁baiser	-11.8919
▁parachute	-11.8919
▁tarif	-11.8919
▁énervé	-11.8919
▁déesse	-11.8919
▁invitation	-11.892
▁bè	-11.8922
▁tuteur	-11.8922
▁press	-11.8923
▁arrivant	-11.8923
gro	-11.8927
▁passionné	-11.8929
racher	-11.893
▁écrite	-11.893
▁taxe	-11.8931
▁21	-11.8933
▁mouche	-11.8933
avaler	-11.8939
ori	-11.8939
▁posée	-11.8941
▁liégeois	-11.8951
▁atteindr	-11.8955
cité	-11.8959
▁rame	-11.8965
▁casier	-11.8965
▁aéroport	-11.8967
▁Michel	-11.8971
imé	-11.8973
hâ	-11.8988
▁trip	-11.899
▁invite	-11.8997
▁défil	-11.8999
▁infirmière	-11.9001
▁prendrai	-11.9003
▁CP	-11.9009
▁communale	-11.902
▁réagi	-11.9024
▁chinoise	-11.9029
ît	-11.9046
▁clin	-11.9051
hésite	-11.9064
CI	-11.9067
▁tournée	-11.9067
▁apprenai	-11.907
blanc	-11.9071
▁héro	-11.9075
nant	-11.91
▁recul	-11.9107
AC	-11.9112
▁orientation	-11.9116
▁élevée	-11.9116
engage	-11.9116
▁installer	-11.9117
ongle	-11.9121
exto	-11.9126
ivre	-11.9135
▁Bu	-11.9136
Louis	-11.9139
Algérie	-11.9139
voyant	-11.9139
visible	-11.9141
surprise	-11.9141
jeunesse	-11.9141
octo	-11.9141
enquête	-11.9141
▁philo	-11.9155
▁récent	-11.9155
ky	-11.9157
accompagnement	-11.9161
▁assistante	-11.9176
enco	-11.9192
▁basque	-11.9213
▁démarr	-11.9224
▁posai	-11.9226
ôme	-11.9228
▁fit	-11.9228
▁bol	-11.9245
▁utilisée	-11.9246
lex	-11.9252
vacance	-11.926
Asi	-11.9261
initiati	-11.9263
itrine	-11.9263
▁destinataire	-11.9263
▁apprécié	-11.9263
▁calendrier	-11.9263
▁cuisinier	-11.9263
▁céramiste	-11.9263
▁dirigé	-11.9263
▁distribue	-11.9263
▁dynamique	-11.9263
▁fédération	-11.9263
▁guichet	-11.9263
▁influencé	-11.9263
▁mécanicien	-11.9263
▁proviseur	-11.9263
▁rédaction	-11.9263
▁souffre	-11.9263
essuyer	-11.9263
▁Bagnol	-11.9263
▁carotte	-11.9263
▁souple	-11.9263
▁Tunisie	-11.9263
Germain	-11.9263
▁salsa	-11.9263
▁gomme	-11.9263
▁cantine	-11.9263
▁amende	-11.9263
▁buisson	-11.9264
▁grange	-11.9264
▁tracteur	-11.9264
▁antenne	-11.9264
▁poutre	-11.9264
▁adhérer	-11.9265
▁casserole	-11.9265
télévisé	-11.9265
installation	-11.9265
▁notaire	-11.9265
▁craint	-11.9266
▁nommé	-11.9267
▁volont	-11.9269
▁destination	-11.9269
nacle	-11.9271
▁répéte	-11.9272
▁projection	-11.9274
▁satisfait	-11.9278
IS	-11.9282
▁stoppe	-11.9282
apprenti	-11.9284
Denis	-11.9286
▁montant	-11.9287
▁brûlé	-11.9289
Al	-11.929
▁wallonne	-11.9296
▁alimentaire	-11.9301
▁Maison	-11.9305
▁fonctionn	-11.9306
▁sortant	-11.9319
▁gentille	-11.9328
rome	-11.9329
▁transformer	-11.9331
▁semblai	-11.9333
▁dég	-11.9341
éco	-11.9344
▁coucher	-11.9346
▁étape	-11.9348
▁engagement	-11.9349
▁balai	-11.9349
gile	-11.935
▁mette	-11.9354
▁occupée	-11.9358
▁botte	-11.9359
EP	-11.9377
▁dress	-11.9378
▁ressortir	-11.9378
▁situer	-11.9379
illé	-11.9389
▁évolue	-11.9392
▁Mer	-11.9411
▁office	-11.9415
urri	-11.9417
social	-11.9436
▁passerelle	-11.944
itaire	-11.944
équilibre	-11.945
▁automn	-11.9479
mètre	-11.9482
▁Gui	-11.9496
patin	-11.9497
penche	-11.9497
privée	-11.9498
adolescen	-11.9498
rêve	-11.9498
fête	-11.95
ancienne	-11.9502
▁Bri	-11.9516
▁rama	-11.9523
q	-11.9525
▁allemande	-11.9527
▁fum	-11.9527
▁remplace	-11.9536
▁ren	-11.9537
out	-11.9542
habiter	-11.9559
▁cuba	-11.956
▁augmente	-11.9561
▁fermée	-11.9561
▁régi	-11.9596
▁excellent	-11.9598
▁constitue	-11.9599
attr	-11.9604
▁El	-11.9606
▁extra	-11.9606
▁socio	-11.9614
▁favori	-11.9616
▁intellectuel	-11.9619
▁contribu	-11.962
agricult	-11.962
▁bourgeon	-11.962
▁chahut	-11.962
▁cocktail	-11.962
▁démocratie	-11.962
▁désagréable	-11.962
▁remorque	-11.962
▁barcelon	-11.962
▁blanchisse	-11.962
▁nôtre	-11.962
▁façade	-11.962
▁module	-11.962
▁remue	-11.962
▁exploit	-11.9621
▁cocotte	-11.9621
▁poète	-11.9621
▁pétrol	-11.9621
admir	-11.9621
▁sanglier	-11.9622
email	-11.9622
▁transit	-11.9622
▁reportage	-11.9623
▁flam	-11.9625
▁metteur	-11.9626
▁calif	-11.9627
▁fondue	-11.9627
▁comte	-11.9629
▁bif	-11.9631
équivalent	-11.9633
▁brut	-11.9635
▁modifier	-11.9635
égard	-11.9637
▁tournai	-11.9638
▁progressi	-11.9641
▁protection	-11.9641
▁sain	-11.9648
teck	-11.9649
▁régle	-11.9649
▁états	-11.9657
▁traite	-11.9663
▁étendu	-11.9663
▁araignée	-11.9663
louse	-11.9666
instruction	-11.9667
▁connaissaient	-11.9671
▁bec	-11.9677
▁affichage	-11.9677
ançai	-11.9677
▁transforme	-11.9677
▁repasser	-11.9678
postu	-11.9679
patan	-11.968
shi	-11.9697
▁ping	-11.9708
EA	-11.9712
▁recycle	-11.9715
▁explication	-11.9718
▁interroge	-11.9718
ecture	-11.9723
▁bla	-11.9725
▁rejoint	-11.9735
▁radica	-11.9737
▁Centr	-11.9739
▁Pro	-11.974
ED	-11.9741
▁majeure	-11.9746
▁espér	-11.9748
Co	-11.975
▁ongle	-11.9753
▁bonhomme	-11.9755
▁feux	-11.9766
▁chaude	-11.9776
▁grill	-11.9787
▁contacter	-11.9789
▁écout	-11.9798
▁volé	-11.9812
lac	-11.9812
apprécie	-11.9813
▁Fo	-11.9815
▁souffle	-11.9819
All	-11.982
▁vérifie	-11.9823
▁intégr	-11.9827
rtes	-11.9829
▁sole	-11.9841
naissance	-11.9842
▁monnaie	-11.9843
▁coopérati	-11.9845
▁écriture	-11.9849
conduir	-11.9852
appliquer	-11.9855
▁avancé	-11.986
position	-11.9865
plomb	-11.9866
magasin	-11.9869
debout	-11.9877
éga	-11.988
▁spécialisée	-11.9888
▁seau	-11.991
▁formul	-11.9913
▁voudr	-11.9913
artiste	-11.9916
▁poul	-11.9925
▁conduit	-11.9932
▁mérite	-11.9942
▁recrute	-11.9943
▁quad	-11.9949
▁pédagogi	-11.9956
▁épice	-11.9956
▁comédie	-11.9958
▁dépressi	-11.9965
▁défend	-11.997
▁stop	-11.997
▁Canad	-11.9971
rient	-11.9978
architectur	-11.999
▁stand	-11.999
▁baccalauréat	-11.9991
▁bactérie	-11.9991
▁banane	-11.9991
▁biceps	-11.9991
▁brevet	-11.9991
▁chevelu	-11.9991
▁fantastique	-11.9991
▁féminis	-11.9991
▁galipette	-11.9991
▁gamme	-11.9991
▁papillon	-11.9991
▁poignet	-11.9991
▁procès	-11.9991
▁évènement	-11.9991
▁statue	-11.9991
▁whisky	-11.9991
▁square	-11.9991
▁collective	-11.9991
▁score	-11.9991
▁coquill	-11.9991
▁valide	-11.9991
▁convenable	-11.9991
▁impulsion	-11.9991
▁pelot	-11.9991
▁maquette	-11.9992
obéir	-11.9992
▁noble	-11.9993
▁biais	-11.9994
▁examiner	-11.9994
traitance	-11.9994
▁pourcentage	-11.9995
▁relais	-11.9995
▁fermeture	-11.9996
▁casquette	-11.9997
▁tendre	-11.9997
▁serveur	-11.9998
▁bordel	-11.9998
▁comptabili	-11.9998
▁profondeur	-11.9999
sultan	-11.9999
▁porté	-12
▁conteur	-12
▁répétition	-12.0001
▁mobilis	-12.0001
▁coté	-12.0004
anesthésie	-12.0005
▁verser	-12.0006
▁recon	-12.0007
▁bouchée	-12.0008
▁lunette	-12.0011
▁via	-12.0013
▁panne	-12.0015
▁Canet	-12.002
▁effectue	-12.0021
▁archiv	-12.0026
▁lessive	-12.0026
anime	-12.003
▁cultivé	-12.0035
▁attiré	-12.0048
ige	-12.0048
▁évang	-12.0049
▁autorité	-12.006
▁décédé	-12.0062
▁vaste	-12.0063
▁municipal	-12.0067
▁récupéré	-12.0068
aube	-12.0071
ombre	-12.0076
▁session	-12.0078
▁établi	-12.0079
▁soude	-12.008
▁remonté	-12.0087
▁marocain	-12.0091
▁job	-12.0095
▁remarquer	-12.0108
▁aisé	-12.0109
ouvr	-12.0109
organise	-12.011
▁fondation	-12.0114
▁Algérie	-12.0116
vaux	-12.0123
▁sali	-12.0129
TS	-12.0136
▁voyant	-12.0139
▁progresse	-12.0146
▁chute	-12.0157
▁préciser	-12.0165
▁coli	-12.0175
▁inscription	-12.0183
▁pion	-12.0189
idi	-12.0191
étudie	-12.0192
▁oublie	-12.0193
ouche	-12.0193
Air	-12.0194
nière	-12.0195
arme	-12.0195
▁ferre	-12.0197
▁auxquel	-12.0202
▁résou	-12.0214
▁identité	-12.0217
info	-12.0241
▁diverse	-12.0249
soutien	-12.0253
autoroute	-12.0253
animé	-12.0254
▁coûter	-12.0255
effet	-12.0257
▁demanda	-12.026
Art	-12.0262
terie	-12.0262
manie	-12.0265
berg	-12.0265
clair	-12.0268
roux	-12.0271
▁toléran	-12.0273
▁déplace	-12.0276
▁centrale	-12.0281
▁évoque	-12.029
uébec	-12.0295
▁cadet	-12.0295
▁che	-12.0297
▁déco	-12.0298
cue	-12.0307
▁Sol	-12.0313
uve	-12.0313
rogne	-12.0323
rid	-12.0324
▁arc	-12.0332
▁solde	-12.0339
viendrait	-12.0341
▁portuga	-12.0363
▁fui	-12.0364
Charle	-12.0374
imprime	-12.0374
▁affût	-12.0375
▁bracelet	-12.0375
▁budgétaire	-12.0375
▁bénéfici	-12.0375
▁cravate	-12.0375
▁gêné	-12.0375
▁hiérarchi	-12.0375
▁inconnu	-12.0375
▁pavillon	-12.0375
▁perspective	-12.0375
▁ridicule	-12.0375
▁technicien	-12.0375
▁baissé	-12.0375
nvalide	-12.0375
▁bouclier	-12.0375
▁Portuga	-12.0375
▁déposé	-12.0375
▁squelette	-12.0375
▁prétend	-12.0375
▁résistance	-12.0375
▁congel	-12.0376
▁isolement	-12.0376
▁ouvrière	-12.0376
▁accroché	-12.0376
▁exception	-12.0376
▁définitive	-12.0376
▁renard	-12.0376
▁cogner	-12.0376
▁Ramp	-12.0376
▁sculpteur	-12.0377
▁rattrapage	-12.0377
▁collier	-12.0377
▁coincé	-12.0379
▁cerise	-12.0379
▁foudre	-12.0381
▁italienne	-12.0383
▁apais	-12.0383
LE	-12.0384
eg	-12.0387
▁racontez	-12.0388
▁polo	-12.0389
▁précision	-12.0392
▁Philippe	-12.0392
▁malaise	-12.0395
▁pêcheur	-12.0395
▁observe	-12.0395
▁profite	-12.0395
aliste	-12.0397
▁Ah	-12.04
▁marbre	-12.04
▁obsession	-12.0402
▁pil	-12.0407
▁existant	-12.0407
▁écouté	-12.0415
▁organisée	-12.0417
▁dater	-12.0419
▁brique	-12.0421
▁nouveauté	-12.0432
ignan	-12.0434
▁massage	-12.0436
▁portée	-12.0448
indique	-12.0448
▁Guy	-12.045
▁termine	-12.0477
modo	-12.0478
▁troupe	-12.0479
▁retournée	-12.048
▁écran	-12.0481
▁orange	-12.0482
▁pre	-12.0486
▁donnez	-12.0487
▁dépasse	-12.0499
▁municipale	-12.05
▁légitime	-12.0505
▁musicale	-12.0505
▁phénomènes	-12.0517
exprim	-12.0521
coco	-12.0528
▁olive	-12.0531
▁muse	-12.0567
▁reposer	-12.0573
▁pareille	-12.0575
▁talon	-12.0582
amuse	-12.0595
cotte	-12.0595
atiques	-12.0597
off	-12.0603
▁intervien	-12.0605
▁pinceau	-12.0616
▁mineure	-12.0624
cation	-12.0625
▁planifie	-12.0637
▁développe	-12.0644
pêche	-12.0652
individu	-12.0652
interview	-12.0652
existai	-12.0652
effort	-12.0653
Saint	-12.0654
amène	-12.0654
▁chanté	-12.0658
patience	-12.0669
▁coque	-12.0672
▁To	-12.0673
▁demandeur	-12.0685
rand	-12.0691
▁fonctionner	-12.0691
sang	-12.07
▁positionne	-12.0705
livier	-12.0712
▁revu	-12.0716
▁partiel	-12.0721
nac	-12.0726
▁retenu	-12.0728
▁pleur	-12.0736
▁électro	-12.0738
▁zo	-12.0746
▁surveillan	-12.075
bul	-12.0751
▁Toul	-12.0758
rame	-12.0762
▁valoris	-12.0766
▁conten	-12.0768
cheva	-12.0768
▁complément	-12.0775
▁commis	-12.0775
Académie	-12.0775
▁bruyant	-12.0775
▁circonstance	-12.0775
▁conséquent	-12.0775
▁convaincu	-12.0775
▁croyance	-12.0775
▁division	-12.0775
▁fraîche	-12.0775
▁indispensable	-12.0775
▁joyeux	-12.0775
▁modifié	-12.0775
▁nécessité	-12.0775
▁parenthèse	-12.0775
▁saucisse	-12.0775
▁saucisson	-12.0775
▁stratégique	-12.0775
▁timbre	-12.0775
▁tournure	-12.0775
▁trompé	-12.0775
▁bravo	-12.0775
▁convivial	-12.0775
▁militant	-12.0775
▁radiographie	-12.0775
▁raisonnable	-12.0775
▁revanch	-12.0775
▁forum	-12.0775
▁épuisé	-12.0775
▁conduis	-12.0776
▁Tournai	-12.0776
bitus	-12.0776
▁olivier	-12.0776
▁préempt	-12.0776
▁résilience	-12.0776
▁délire	-12.0776
▁complémentaire	-12.0776
▁Gen	-12.0776
▁réparti	-12.0777
▁Maman	-12.0777
▁sonore	-12.0778
▁Charles	-12.0779
▁caca	-12.0779
▁dort	-12.0781
hygi	-12.0782
▁PC	-12.0783
▁Rosn	-12.0783
institut	-12.0784
Patrick	-12.0784
▁caden	-12.0785
▁croisé	-12.0788
▁mignon	-12.0793
▁mous	-12.0795
▁pouce	-12.0797
▁signal	-12.0798
épal	-12.0798
▁tiers	-12.0803
▁interprète	-12.0809
▁revenait	-12.0813
envie	-12.0817
▁investissement	-12.0829
▁urgence	-12.0829
vu	-12.083
▁chic	-12.0837
▁comporte	-12.0839
▁National	-12.0842
ault	-12.0857
▁chevalier	-12.0863
▁Gan	-12.0863
▁ciment	-12.0864
▁horreur	-12.0865
fou	-12.0866
▁passant	-12.0867
▁van	-12.0868
▁transmettr	-12.0868
▁attache	-12.0877
intégre	-12.0878
alimentation	-12.089
▁robinet	-12.0891
allo	-12.0901
ologue	-12.0902
▁explos	-12.0904
▁cépages	-12.0907
▁remplacer	-12.0912
▁inca	-12.0917
utilis	-12.0919
▁banquet	-12.0919
▁parfum	-12.0923
ium	-12.093
▁32	-12.0936
▁prud	-12.0938
▁attrape	-12.0943
habitue	-12.0956
appuie	-12.0972
égo	-12.0982
attaque	-12.0984
hab	-12.0994
toucher	-12.1008
▁barb	-12.1008
aute	-12.1023
gh	-12.1028
anti	-12.1029
entraînement	-12.1032
ffert	-12.105
urbanis	-12.1068
phi	-12.1069
observation	-12.107
genou	-12.107
classique	-12.107
attire	-12.107
confortable	-12.107
attendre	-12.1076
applique	-12.1083
zi	-12.1087
▁idéal	-12.1088
▁considér	-12.1089
▁handicap	-12.1097
apporter	-12.1107
▁traîne	-12.1132
accus	-12.1133
▁repasse	-12.1139
▁Brian	-12.1142
ç	-12.1145
▁redescend	-12.1153
ipi	-12.1155
▁cacher	-12.1155
▁étonné	-12.1157
▁organis	-12.1162
▁emprunt	-12.1167
▁employe	-12.1171
▁gain	-12.1172
▁commercia	-12.1173
jouer	-12.1178
oto	-12.1184
▁syndic	-12.1189
chirurgi	-12.1191
amélioration	-12.1192
ictor	-12.1192
olympique	-12.1192
scension	-12.1192
▁attrapé	-12.1192
▁banqui	-12.1192
▁belgicisme	-12.1192
▁bénéfice	-12.1192
▁consacré	-12.1192
▁corbillard	-12.1192
▁crampe	-12.1192
▁détache	-12.1192
▁embêtant	-12.1192
▁embêté	-12.1192
▁fanfare	-12.1192
▁gênant	-12.1192
▁juridique	-12.1192
▁licencié	-12.1192
▁maigre	-12.1192
▁marseillais	-12.1192
▁microscope	-12.1192
▁nécessite	-12.1192
▁pollen	-12.1192
▁poupée	-12.1192
▁racheté	-12.1192
▁relève	-12.1192
▁restaure	-12.1192
▁scooter	-12.1192
▁thématique	-12.1192
▁traduit	-12.1192
▁témoignage	-12.1192
▁virgule	-12.1192
▁épingle	-12.1192
orthophoni	-12.1192
▁Allemand	-12.1192
▁Lorrain	-12.1192
▁sincère	-12.1192
▁dollar	-12.1192
▁déménager	-12.1192
▁résume	-12.1192
▁Petit	-12.1192
▁Rachid	-12.1192
▁atteint	-12.1192
▁redoubl	-12.1192
refour	-12.1192
▁fabuleu	-12.1192
▁composé	-12.1192
▁éloigné	-12.1192
▁vestiaire	-12.1192
arnant	-12.1192
▁banal	-12.1192
▁transformation	-12.1192
▁confusion	-12.1193
▁carnet	-12.1193
dorsal	-12.1193
▁dessert	-12.1193
▁dormai	-12.1193
▁entasse	-12.1193
▁intervenant	-12.1193
▁transpire	-12.1194
▁extrait	-12.1194
▁dictée	-12.1194
▁absorbe	-12.1195
sanne	-12.1195
argot	-12.1196
▁Rome	-12.1197
▁totalit	-12.1198
▁piège	-12.1198
▁gère	-12.1201
cosm	-12.1203
▁contra	-12.1206
▁rejet	-12.1207
APE	-12.1207
▁motif	-12.1209
▁Italien	-12.121
▁poussin	-12.1211
▁regardant	-12.1217
olé	-12.1217
▁sèche	-12.1219
▁fabriqué	-12.1219
▁Anglais	-12.1224
▁lavand	-12.1227
lia	-12.1228
▁active	-12.1229
uvoir	-12.123
▁lourde	-12.123
mbourg	-12.123
▁évi	-12.123
▁tendu	-12.1233
▁pér	-12.1236
▁tunnel	-12.1237
balle	-12.1243
élève	-12.1246
▁attraction	-12.125
▁partant	-12.125
couper	-12.1256
▁ivres	-12.1258
fondre	-12.1262
▁visuel	-12.1263
appui	-12.1269
▁cire	-12.1272
alt	-12.1274
graisse	-12.128
▁fatiguée	-12.1295
▁Roche	-12.1295
▁payai	-12.1295
kin	-12.1308
▁linge	-12.131
écologi	-12.131
▁Met	-12.1313
▁Pap	-12.1319
colo	-12.1327
▁investig	-12.133
▁repér	-12.1337
▁Tou	-12.1346
ip	-12.1346
▁curi	-12.135
▁grè	-12.1351
▁poster	-12.1355
▁stressé	-12.1359
licite	-12.1361
▁Sch	-12.1371
▁positive	-12.1372
▁matinée	-12.1372
RS	-12.1382
agissai	-12.1387
▁magistrat	-12.1399
▁univers	-12.1405
▁morale	-12.1416
▁conscient	-12.1425
▁brûle	-12.143
kl	-12.1441
▁éclat	-12.1445
▁outre	-12.1452
viens	-12.1456
inette	-12.1459
ocher	-12.1461
occup	-12.1464
ouvent	-12.1471
▁suèd	-12.1491
▁tom	-12.1493
entraîner	-12.1498
embauche	-12.1502
robinet	-12.1503
organisme	-12.1504
influence	-12.1504
maternelle	-12.1504
professionnelle	-12.1505
légume	-12.1505
confian	-12.1505
sécurité	-12.1505
réponse	-12.1505
petit	-12.1505
▁pété	-12.1506
▁Noir	-12.1509
aud	-12.151
question	-12.151
▁Cé	-12.1511
sommes	-12.1512
▁rapproche	-12.1515
▁devra	-12.1517
▁troupeau	-12.1529
yonnais	-12.1538
attends	-12.1553
▁tenai	-12.1557
ferme	-12.1564
▁confront	-12.1571
arrache	-12.1574
▁Mono	-12.1576
écarte	-12.1578
▁cinquant	-12.1584
▁chapit	-12.1584
▁paraiss	-12.1596
▁ressen	-12.1597
▁pren	-12.1602
étudiante	-12.1611
euil	-12.1613
onaco	-12.162
▁ramasse	-12.162
lumin	-12.1624
pus	-12.1624
acteur	-12.1625
▁religieu	-12.1625
habilitation	-12.1626
hospital	-12.1627
obstacle	-12.1627
opportunité	-12.1627
▁Géorgie	-12.1627
▁aéroplane	-12.1627
▁brouillard	-12.1627
▁décalage	-12.1627
▁dépassé	-12.1627
▁explore	-12.1627
▁expulse	-12.1627
▁fidéli	-12.1627
▁muscle	-12.1627
▁néerlandophone	-12.1627
▁négociation	-12.1627
▁partenariat	-12.1627
▁stylo	-12.1627
▁supprimé	-12.1627
▁timide	-12.1627
▁doublé	-12.1627
▁hausse	-12.1627
▁territorial	-12.1627
▁transmis	-12.1627
▁étroit	-12.1627
épicier	-12.1627
▁charmant	-12.1627
▁désespéré	-12.1627
▁Turc	-12.1627
▁idiot	-12.1627
▁imposé	-12.1627
▁perception	-12.1627
▁agriculteur	-12.1627
▁déteste	-12.1627
▁Place	-12.1627
▁Marcel	-12.1627
▁djin	-12.1627
▁efficace	-12.1627
▁mamie	-12.1627
▁vendange	-12.1627
▁algue	-12.1628
▁réglé	-12.1629
▁ticket	-12.1629
▁tournage	-12.1629
▁aborder	-12.1629
▁téléphoné	-12.1629
isha	-12.163
▁créme	-12.163
phone	-12.1631
▁surveille	-12.1631
▁jugé	-12.1632
▁partition	-12.1632
▁doué	-12.1637
ognon	-12.1637
éparation	-12.1637
▁reconnaît	-12.1639
▁CM	-12.1641
▁enlevé	-12.1641
▁pizza	-12.1642
▁débarrasser	-12.1647
euro	-12.1648
▁Ré	-12.1649
▁artisan	-12.1649
▁fréquenté	-12.1652
achat	-12.1652
▁38	-12.1653
▁obtenu	-12.1656
▁imprimant	-12.1657
▁fabrication	-12.1657
▁mienne	-12.1666
▁mène	-12.1677
▁reprenne	-12.1687
î	-12.1687
▁accueille	-12.17
▁Mari	-12.1704
avancer	-12.1705
▁raser	-12.1708
▁actif	-12.1713
▁médiati	-12.1714
▁récit	-12.1715
▁recule	-12.1716
décu	-12.1721
eize	-12.1723
▁Belle	-12.1727
▁intellectuelle	-12.1728
▁correspondant	-12.1731
▁piquer	-12.1732
▁colore	-12.1742
▁orale	-12.1743
gal	-12.1745
▁cuite	-12.1749
▁attaque	-12.1766
▁Can	-12.1772
▁foss	-12.1785
▁perdue	-12.1786
▁arrêtée	-12.1787
▁fortune	-12.1787
rich	-12.1796
existen	-12.1813
▁bat	-12.1828
dam	-12.1832
▁pens	-12.184
▁influencer	-12.1841
Marc	-12.1842
▁météo	-12.186
gard	-12.1864
▁gamine	-12.187
▁porteur	-12.1871
▁électrici	-12.1872
▁passez	-12.1872
▁Art	-12.1874
bru	-12.1892
train	-12.1906
▁coll	-12.1909
enregistre	-12.1914
cro	-12.1931
rosse	-12.1933
linge	-12.1939
▁déchire	-12.1954
idéal	-12.1957
explication	-12.1957
interroge	-12.1957
morale	-12.1958
écran	-12.1958
allez	-12.1959
tennis	-12.1959
ascenseur	-12.1959
fauteuil	-12.1959
attitude	-12.1959
épouse	-12.1959
lumière	-12.1959
invite	-12.196
pel	-12.1964
▁respecte	-12.1964
▁form	-12.1983
▁autop	-12.1985
exploitation	-12.199
▁ouvr	-12.1993
▁préfér	-12.1998
orange	-12.2007
ES	-12.2012
entrer	-12.2014
▁sacré	-12.2015
▁musulman	-12.2025
▁dépendant	-12.2033
▁réveil	-12.2033
▁renvoie	-12.2033
▁Mor	-12.2054
cour	-12.2064
▁principa	-12.2064
▁exceptionnel	-12.2068
▁bret	-12.2069
▁coiffe	-12.2076
▁recommence	-12.2079
▁poly	-12.2079
hara	-12.2079
▁crâne	-12.2081
éducative	-12.2081
interprétation	-12.2081
▁Barcelon	-12.2081
▁Seigneur	-12.2081
▁administrative	-12.2081
▁australie	-12.2081
▁branché	-12.2081
▁chimpanzé	-12.2081
▁commandé	-12.2081
▁conviction	-12.2081
▁déambulateur	-12.2081
▁dénoncer	-12.2081
▁gypaète	-12.2081
▁géorgie	-12.2081
▁islam	-12.2081
▁javelot	-12.2081
▁joseph	-12.2081
▁lézard	-12.2081
▁mécanique	-12.2081
▁méfie	-12.2081
▁perroquet	-12.2081
▁poêle	-12.2081
▁promesse	-12.2081
▁promène	-12.2081
▁pâtissier	-12.2081
▁pénalité	-12.2081
▁pôle	-12.2081
▁remplacé	-12.2081
▁rubrique	-12.2081
▁tempête	-12.2081
▁folle	-12.2081
▁pompe	-12.2081
▁verlan	-12.2081
Neuve	-12.2081
▁Normand	-12.2081
▁blessé	-12.2081
▁occidenta	-12.2081
▁plaign	-12.2081
▁préserve	-12.2081
Croix	-12.2081
Elysée	-12.2081
▁gym	-12.2081
▁verger	-12.2081
▁gourmand	-12.2081
▁validé	-12.2081
▁magie	-12.2081
▁ronge	-12.2081
aragon	-12.2082
▁promoteur	-12.2082
▁ramassé	-12.2082
▁talent	-12.2082
▁couché	-12.2082
ianna	-12.2082
folie	-12.2083
cuir	-12.2084
▁CAPE	-12.2084
▁chanteuse	-12.2084
▁candidature	-12.2084
▁tombai	-12.2084
▁vieilli	-12.2086
▁prière	-12.2086
▁pilier	-12.2087
▁signification	-12.2088
▁pratiqué	-12.2089
▁ministère	-12.2089
▁revend	-12.2089
▁mouette	-12.2092
▁évoqué	-12.2092
▁batteur	-12.2092
outil	-12.2098
admin	-12.2098
▁transformé	-12.2103
▁Bouche	-12.2105
▁trompette	-12.2108
▁méta	-12.211
iche	-12.2118
▁Burk	-12.2119
éveil	-12.212
▁vitre	-12.2126
gel	-12.2127
▁casino	-12.2128
▁éduqué	-12.2132
▁interlocuteur	-12.2137
article	-12.2138
▁recommand	-12.2138
▁graphique	-12.2142
▁intonation	-12.2143
▁restreint	-12.2149
▁chom	-12.2153
▁sacrée	-12.2153
allons	-12.2154
▁canon	-12.2159
appara	-12.2164
▁applaudi	-12.2165
cou	-12.2166
▁soignant	-12.2172
▁implique	-12.2174
▁raquette	-12.2178
▁pointu	-12.22
hou	-12.2209
▁trott	-12.2209
ola	-12.221
▁Barb	-12.2214
▁horm	-12.2217
▁égo	-12.2219
évit	-12.2228
▁ravi	-12.2234
▁récente	-12.2241
arranger	-12.2249
▁Louis	-12.2249
▁décè	-12.2261
EF	-12.2262
▁galop	-12.2264
15	-12.2268
▁reconnue	-12.2275
Ile	-12.2276
golf	-12.2277
▁piment	-12.2277
▁saisie	-12.2302
▁Jou	-12.2315
guste	-12.2324
▁créée	-12.2343
▁mondiale	-12.2369
▁carna	-12.2387
▁Bois	-12.2394
emmen	-12.2406
▁Dan	-12.2406
route	-12.2413
▁semi	-12.2419
▁figur	-12.242
univers	-12.2433
épreuve	-12.2434
vidéo	-12.2436
attention	-12.2436
poisson	-12.2442
vit	-12.2445
bière	-12.2447
pleine	-12.2458
allait	-12.2461
colore	-12.2467
retourner	-12.2472
tige	-12.2481
▁prouve	-12.2484
▁nerveu	-12.2487
▁corrige	-12.2498
bot	-12.2503
▁berce	-12.2504
▁armé	-12.2511
▁transmet	-12.2512
abandonne	-12.2514
ruy	-12.2532
oiseau	-12.2536
MS	-12.2545
énu	-12.2545
▁glaci	-12.2547
▁traversé	-12.255
offr	-12.2553
▁soumis	-12.2556
▁recense	-12.2557
▁fournisseur	-12.2557
▁provincia	-12.2557
angoisse	-12.2557
thérapie	-12.2557
▁Américain	-12.2557
▁Moham	-12.2557
▁associé	-12.2557
▁clôture	-12.2557
▁dialectal	-12.2557
▁disparition	-12.2557
▁délinquan	-12.2557
▁effectué	-12.2557
▁externe	-12.2557
▁fracture	-12.2557
▁guitariste	-12.2557
▁insupportable	-12.2557
▁karat	-12.2557
▁mouchoir	-12.2557
▁médaille	-12.2557
▁négocie	-12.2557
▁percussion	-12.2557
▁perpendicu	-12.2557
▁spécificité	-12.2557
▁symbolique	-12.2557
▁divisé	-12.2557
▁marmit	-12.2557
▁pâté	-12.2557
spiration	-12.2557
▁web	-12.2557
▁inutile	-12.2558
▁mûre	-12.2558
▁Cuba	-12.2558
▁méditation	-12.2558
▁transmission	-12.2558
▁élan	-12.2558
▁aigle	-12.2558
▁falaise	-12.2558
▁amateur	-12.2558
▁fausse	-12.2558
▁spectateur	-12.2558
▁équipé	-12.2558
▁augmentation	-12.2558
▁berger	-12.2558
▁consomme	-12.2558
▁dramatique	-12.2558
autorisation	-12.2558
▁clic	-12.2558
▁affreu	-12.2558
▁Jura	-12.2558
▁Robert	-12.2558
ragna	-12.2558
▁prévention	-12.2558
▁holland	-12.2558
informer	-12.2559
▁vernis	-12.2559
▁persil	-12.2559
▁sucré	-12.2559
▁fauc	-12.256
âques	-12.256
▁cidre	-12.256
▁thon	-12.256
▁Plan	-12.2561
▁panier	-12.2562
utilité	-12.2563
▁prévenu	-12.2563
▁tricher	-12.2564
▁assisté	-12.2565
nichon	-12.2565
affine	-12.2567
êne	-12.2567
▁curé	-12.2568
▁brillant	-12.2569
▁questionnaire	-12.2571
▁fleuriste	-12.2571
▁menu	-12.2571
▁CN	-12.2572
clavier	-12.2577
▁anglaise	-12.2579
▁situé	-12.2579
▁potier	-12.2581
▁accouchement	-12.2581
▁heu	-12.2584
▁basique	-12.2588
▁repère	-12.2588
▁numérique	-12.2591
élevage	-12.2592
actu	-12.2592
▁déterminé	-12.2602
épicerie	-12.2603
fit	-12.2611
▁financeur	-12.2614
▁Porte	-12.2615
▁stressant	-12.2615
▁résident	-12.2615
▁humanité	-12.2616
▁luxe	-12.2618
Dame	-12.2619
▁acquér	-12.2622
▁éducateur	-12.2622
▁intime	-12.2625
icole	-12.2633
AF	-12.2633
esse	-12.2633
iversité	-12.2634
basse	-12.2634
▁emmène	-12.2634
oyez	-12.2635
▁étonnée	-12.2638
▁mobilier	-12.2641
cyclable	-12.2658
▁stricte	-12.266
▁Jardin	-12.2663
▁collé	-12.2663
▁absence	-12.2665
nvers	-12.2671
▁fouille	-12.2671
▁préoccupe	-12.2689
tomi	-12.269
▁embauche	-12.2696
▁sauté	-12.2701
▁loger	-12.2701
▁destinée	-12.2707
▁béni	-12.273
▁ennuyeu	-12.274
▁prie	-12.2746
▁inscrite	-12.2763
oubli	-12.2764
▁censée	-12.2765
▁remercier	-12.2775
▁tuyau	-12.2793
▁CA	-12.2797
▁perce	-12.28
▁varie	-12.2812
athl	-12.2813
▁dessinée	-12.2815
▁Dur	-12.2819
▁recycl	-12.2823
▁réagiss	-12.2831
▁fondé	-12.2846
▁repren	-12.2856
habitation	-12.2857
▁abeille	-12.2859
ega	-12.286
voir	-12.2906
naut	-12.2915
▁tenue	-12.2917
▁réduit	-12.2919
▁concerné	-12.2928
infirmière	-12.2934
ick	-12.2934
émotion	-12.2935
enseignant	-12.2935
exposition	-12.2936
affiche	-12.2936
douze	-12.2936
conscience	-12.2936
alors	-12.2939
▁destiné	-12.294
chance	-12.2942
éviter	-12.2945
▁tha	-12.295
▁géo	-12.2963
imaginai	-12.2971
▁moral	-12.2988
▁dégage	-12.2988
▁contemporain	-12.2989
▁mettra	-12.2991
▁plaisai	-12.3001
engagement	-12.3004
arracher	-12.3005
iégeois	-12.3008
habill	-12.3023
▁prévue	-12.3024
ling	-12.3048
moule	-12.3049
▁Lec	-12.3053
intelligen	-12.3056
uimper	-12.3057
hectare	-12.3057
infrastructure	-12.3057
▁David	-12.3057
▁Rivesalt	-12.3057
▁concentration	-12.3057
▁consommateur	-12.3057
▁dégagé	-12.3057
▁dégradation	-12.3057
▁exclusive	-12.3057
▁exotique	-12.3057
▁identique	-12.3057
▁perturb	-12.3057
▁pistolet	-12.3057
▁portefeuille	-12.3057
▁rénovation	-12.3057
▁élargi	-12.3057
▁épave	-12.3057
hésion	-12.3057
▁allongé	-12.3057
▁liban	-12.3057
▁matériau	-12.3057
▁Nikor	-12.3057
▁publié	-12.3057
▁traduis	-12.3057
encadre	-12.3058
▁admis	-12.3058
▁délicieu	-12.3058
▁catalan	-12.3058
harmonie	-12.3058
emmerde	-12.3058
▁semblable	-12.3058
▁vocation	-12.3058
▁reparler	-12.3058
▁capitaine	-12.3058
▁conservateur	-12.3058
▁Goll	-12.3058
▁favoriser	-12.3058
▁dingue	-12.3058
▁poivre	-12.3058
▁fiction	-12.3058
▁brosse	-12.3058
éditeur	-12.3058
▁progressive	-12.3059
▁avorte	-12.3059
▁conclu	-12.3059
▁nièce	-12.3059
▁star	-12.3059
▁exprimé	-12.306
▁rassure	-12.306
▁requin	-12.306
▁GR	-12.306
▁abc	-12.3062
péra	-12.3062
▁Berl	-12.3063
Royal	-12.3063
▁Palais	-12.3066
▁bienvenue	-12.3066
▁blocage	-12.307
▁boxeur	-12.3071
▁dict	-12.3071
▁logo	-12.3072
▁kiff	-12.3073
▁meurt	-12.3075
▁courtier	-12.3075
▁gazelle	-12.3077
▁foncé	-12.3078
▁coupole	-12.3079
omètre	-12.308
vention	-12.308
▁golfe	-12.3081
▁Père	-12.3082
èce	-12.3083
jan	-12.3085
▁Berc	-12.3088
▁gardai	-12.309
▁crime	-12.3091
▁lumineu	-12.3095
▁concentré	-12.3099
▁étouffe	-12.3099
▁enseigné	-12.31
▁claque	-12.3102
▁cohérent	-12.3104
▁océan	-12.3106
▁envoyai	-12.3106
▁russe	-12.3107
▁seigneur	-12.3112
▁gér	-12.3114
▁recrutement	-12.3123
caution	-12.3125
ligne	-12.3125
Antoine	-12.3125
▁Cann	-12.3126
▁dégager	-12.3132
▁constaté	-12.3136
▁report	-12.3138
umba	-12.3139
Alsac	-12.3149
▁bateaux	-12.3164
rian	-12.3167
▁tricot	-12.3177
vou	-12.3178
▁escalader	-12.3183
▁cuve	-12.3184
échauff	-12.3189
▁Cap	-12.3191
▁cousine	-12.3192
▁coude	-12.32
▁Française	-12.3212
▁amuse	-12.3221
enrichi	-12.3223
▁Grande	-12.3223
▁plomb	-12.3231
adresser	-12.3234
estime	-12.3237
▁hurl	-12.3239
▁bassine	-12.325
▁Bac	-12.3253
Edi	-12.3256
▁craque	-12.3259
esco	-12.3262
▁cow	-12.3266
équipement	-12.327
▁extérieure	-12.3275
issaient	-12.3278
▁pouss	-12.3281
anor	-12.3285
▁termin	-12.329
▁amenée	-12.3293
écrivai	-12.3295
apprécier	-12.3304
▁rendue	-12.3314
▁marchande	-12.3317
Mars	-12.3328
▁conforme	-12.3344
ouh	-12.3357
▁attire	-12.336
trop	-12.3362
▁Flo	-12.3385
▁rentr	-12.3389
▁Bar	-12.339
érable	-12.3394
▁Fou	-12.3396
▁béton	-12.3403
celle	-12.3404
▁consta	-12.3424
ordure	-12.3427
▁Mou	-12.344
espagn	-12.3451
alisé	-12.3459
tricot	-12.3459
architecte	-12.3461
vivre	-12.3463
engrais	-12.3477
imagin	-12.3481
accepter	-12.3482
emmene	-12.3488
pression	-12.35
▁cultiv	-12.3513
▁franchi	-12.3517
▁dormi	-12.3518
ferré	-12.3521
▁détermine	-12.3522
▁bruxelloise	-12.3535
▁défi	-12.3536
Luc	-12.3538
oscope	-12.3544
enlever	-12.3548
▁revenai	-12.3555
▁imit	-12.3572
▁imprimer	-12.3572
▁Pal	-12.3573
▁instit	-12.3575
▁officiel	-12.3577
▁bague	-12.358
ception	-12.3582
Atlanti	-12.3584
approprie	-12.3584
artifice	-12.3584
▁Châtel	-12.3584
▁charcutier	-12.3584
▁chevreuil	-12.3584
▁clown	-12.3584
▁compositeur	-12.3584
▁connexion	-12.3584
▁coutume	-12.3584
▁détruit	-12.3584
▁exemplaire	-12.3584
▁favorable	-12.3584
▁girafe	-12.3584
▁hamburger	-12.3584
▁massacre	-12.3584
▁navigue	-12.3584
▁pommier	-12.3584
▁privilégie	-12.3584
▁protégé	-12.3584
▁prédécesseur	-12.3584
▁pyramide	-12.3584
▁recopie	-12.3584
▁remarquable	-12.3584
▁réprimande	-12.3584
▁souterrain	-12.3584
▁sévère	-12.3584
▁vignoble	-12.3584
▁élaboré	-12.3584
▁gâté	-12.3584
▁hanche	-12.3584
▁marionnette	-12.3584
▁musculat	-12.3584
▁trempe	-12.3584
▁isolé	-12.3584
domestique	-12.3584
attestation	-12.3584
armu	-12.3584
▁allumé	-12.3584
▁jarre	-12.3584
▁conclusion	-12.3584
▁clip	-12.3584
▁minorit	-12.3584
affronte	-12.3584
▁partagé	-12.3584
▁dégât	-12.3584
basti	-12.3584
▁promis	-12.3584
▁fusill	-12.3584
▁formatrice	-12.3584
▁compost	-12.3584
▁assuré	-12.3584
▁mettons	-12.3584
▁nappe	-12.3584
niversité	-12.3585
▁reverra	-12.3585
▁loterie	-12.3585
▁maillot	-12.3585
▁préférence	-12.3585
▁menuis	-12.3585
▁torch	-12.3585
triche	-12.3586
▁chauffage	-12.3586
▁présentateur	-12.3586
▁colonis	-12.3586
▁Ganz	-12.3587
▁franco	-12.3588
▁bretonne	-12.3588
▁Louvre	-12.3588
Arabe	-12.3588
▁Japan	-12.3589
▁réaliste	-12.359
▁favorisé	-12.359
▁identifier	-12.3591
▁entraîneur	-12.3591
affirme	-12.3591
Laurent	-12.3592
▁tarte	-12.3593
écher	-12.3594
▁bricol	-12.3595
▁Anne	-12.3595
▁Lille	-12.3597
▁plaquette	-12.3597
▁cardin	-12.3598
▁Colomb	-12.3603
ouk	-12.3604
joint	-12.3604
▁puit	-12.3605
ancêtre	-12.3605
▁capitalis	-12.3606
▁orphelin	-12.3608
pail	-12.3613
▁industrielle	-12.3614
imez	-12.3619
▁flotte	-12.3619
▁Gall	-12.3621
▁sourd	-12.3623
▁guid	-12.3623
▁oblige	-12.3626
▁latino	-12.3628
▁ignore	-12.3628
▁introducti	-12.3628
▁alterna	-12.3635
ydn	-12.3636
▁exerce	-12.3636
▁délicat	-12.3637
▁race	-12.3643
▁lyonnais	-12.3646
▁abonnement	-12.3649
▁coach	-12.3663
dormir	-12.3666
▁xx	-12.3667
▁incident	-12.3669
Angle	-12.3671
▁libéral	-12.3679
▁soutenu	-12.3681
ennuie	-12.3689
▁parrain	-12.3696
▁colombien	-12.3702
▁édition	-12.3703
entraîne	-12.3722
▁Inter	-12.3725
▁disc	-12.3725
▁représent	-12.3744
▁paiement	-12.3746
idan	-12.3758
Iv	-12.3759
aza	-12.3764
atation	-12.3768
harpe	-12.3773
mpire	-12.3775
▁addition	-12.3778
expo	-12.3792
stie	-12.38
▁provoque	-12.3801
▁immerg	-12.3804
Abkhaz	-12.3814
ebis	-12.3825
▁levée	-12.3828
▁précédente	-12.3836
▁Chan	-12.3838
▁impose	-12.3841
▁ressource	-12.3842
▁gramme	-12.3847
▁dispute	-12.3847
▁rencontr	-12.3851
agir	-12.3913
▁civil	-12.3932
aérien	-12.3943
établir	-12.396
▁Pu	-12.3967
▁recevai	-12.3972
▁log	-12.3979
moin	-12.3986
▁Ri	-12.3999
▁finisse	-12.4012
édition	-12.4014
absence	-12.4015
horreur	-12.4015
employe	-12.4015
Irland	-12.4016
électronique	-12.4016
énergie	-12.4016
adaptation	-12.4016
bougie	-12.4016
enlève	-12.4016
indépendan	-12.4017
échelle	-12.4017
barre	-12.4017
accessible	-12.4017
animal	-12.4017
amitié	-12.4017
opposition	-12.4017
cimetière	-12.4017
japonais	-12.4017
France	-12.4018
lettre	-12.4019
attacher	-12.402
tourisme	-12.4025
▁retien	-12.4033
accident	-12.4034
▁garanti	-12.4056
rvic	-12.4062
affirmation	-12.4063
etta	-12.4067
azar	-12.407
feu	-12.408
accompagner	-12.4081
▁conseille	-12.4089
èvre	-12.4089
▁glisse	-12.4096
économi	-12.4096
indul	-12.4106
▁viendrai	-12.4106
▁saura	-12.4122
▁manif	-12.4124
mentale	-12.4129
▁fondamenta	-12.4131
▁devr	-12.4132
▁régul	-12.4137
▁grat	-12.4139
▁drama	-12.4139
Aligoté	-12.4139
mannequin	-12.4139
▁Général	-12.4139
▁blouson	-12.4139
▁brocante	-12.4139
▁charretier	-12.4139
▁collaborateur	-12.4139
▁compréhensible	-12.4139
▁confrérie	-12.4139
▁consultant	-12.4139
▁consulter	-12.4139
▁convaincr	-12.4139
▁couturière	-12.4139
▁disponibilité	-12.4139
▁défavorisé	-12.4139
▁dégueulasse	-12.4139
▁déprimé	-12.4139
▁existé	-12.4139
▁interrogé	-12.4139
▁légende	-12.4139
▁mystère	-12.4139
▁négative	-12.4139
▁politesse	-12.4139
▁prolonge	-12.4139
▁promenade	-12.4139
▁prétexte	-12.4139
▁renforce	-12.4139
▁rythmique	-12.4139
▁rénové	-12.4139
▁résolu	-12.4139
▁résumé	-12.4139
▁scandale	-12.4139
▁validation	-12.4139
▁végétarien	-12.4139
▁épouvantable	-12.4139
▁équilibré	-12.4139
orfèvre	-12.4139
▁Disney	-12.4139
▁ampoule	-12.4139
▁cabane	-12.4139
▁chiffon	-12.4139
▁constitutionnel	-12.4139
▁déplacé	-12.4139
▁orienté	-12.4139
▁râteau	-12.4139
▁skate	-12.4139
cardiaque	-12.4139
▁wagon	-12.4139
▁caravan	-12.4139
abbé	-12.4139
▁familier	-12.4139
▁rôti	-12.4139
▁tapisserie	-12.4139
▁abricot	-12.4139
▁concret	-12.4139
▁poirier	-12.4139
▁mafia	-12.4139
▁fusion	-12.4139
▁méditerranéen	-12.4139
altitude	-12.4139
▁accueillant	-12.414
▁marteau	-12.414
▁brioche	-12.414
▁compense	-12.414
▁volley	-12.414
ILF	-12.414
▁relâche	-12.414
▁tenez	-12.414
▁créneau	-12.414
▁odeur	-12.414
▁poumon	-12.414
▁plâtre	-12.414
▁promotion	-12.414
▁esclave	-12.414
▁prioritaire	-12.414
▁piqué	-12.414
▁lingerie	-12.414
▁considérable	-12.414
▁qualifie	-12.414
▁côtoy	-12.4141
▁merveilleuse	-12.4141
▁coussin	-12.4141
▁fric	-12.4141
▁humorist	-12.4141
▁Notre	-12.4142
▁pavé	-12.4142
▁serviette	-12.4142
Biron	-12.4143
▁pull	-12.4143
▁BD	-12.4144
▁label	-12.4144
▁roulé	-12.4146
▁aménagements	-12.4146
▁Tha	-12.4147
▁hip	-12.4147
▁dalle	-12.4147
▁championne	-12.4149
▁fondamentale	-12.415
▁hélicoptère	-12.415
▁rit	-12.4157
▁employeur	-12.4158
▁fière	-12.4159
sédi	-12.4159
▁constant	-12.416
▁appelez	-12.416
▁weekend	-12.4161
neau	-12.4162
▁sexe	-12.4164
▁exporte	-12.4164
savonner	-12.4165
▁Sor	-12.4169
▁recour	-12.4171
▁horloge	-12.4172
▁inconvénient	-12.4172
▁dominant	-12.4175
ock	-12.4175
▁rému	-12.4176
▁passionne	-12.4178
déshabille	-12.4178
▁estimez	-12.4181
▁Sev	-12.4187
▁éléphant	-12.4193
▁artisanat	-12.4194
▁hém	-12.4195
▁fidèle	-12.4201
▁rapprochement	-12.4202
▁drame	-12.4207
▁libéré	-12.4208
▁vibr	-12.4214
▁rappelé	-12.4214
▁wou	-12.4222
Nicolas	-12.4229
▁initiative	-12.423
DC	-12.423
▁frappée	-12.4231
▁obligation	-12.4237
▁définit	-12.4237
▁appliqué	-12.4243
▁préparai	-12.4255
agrandi	-12.4255
Ang	-12.427
▁Irland	-12.427
▁pli	-12.4271
▁repéré	-12.4281
▁pair	-12.4282
▁observation	-12.431
▁Sta	-12.4314
omme	-12.4323
valent	-12.4325
▁ramen	-12.4328
bouche	-12.4329
▁ficelle	-12.4348
▁gori	-12.4352
option	-12.4362
trave	-12.4374
unami	-12.438
▁Mél	-12.4386
▁vou	-12.4389
sans	-12.4394
lore	-12.4395
▁En	-12.4403
▁remont	-12.4403
implant	-12.4406
▁moissonne	-12.4412
chou	-12.4414
tomber	-12.4436
▁idéale	-12.4438
articulation	-12.4438
férer	-12.444
ping	-12.4443
▁apparaît	-12.4446
étie	-12.4452
chat	-12.4453
anda	-12.4498
▁Fu	-12.4501
▁chip	-12.4514
▁radi	-12.4521
enfuir	-12.4557
accroche	-12.4559
logie	-12.4567
▁retrait	-12.4583
édér	-12.4583
▁roseau	-12.4602
▁civi	-12.4603
gramme	-12.4603
raquette	-12.4603
secondaire	-12.4604
froid	-12.4606
président	-12.4606
ingénieur	-12.4607
combien	-12.4612
quart	-12.4613
▁travailleur	-12.4624
▁rég	-12.4625
itoyen	-12.4635
athé	-12.4641
adapte	-12.4649
▁jalou	-12.4651
Di	-12.4654
hôte	-12.4658
pie	-12.466
▁respecté	-12.4663
écrive	-12.4666
▁prendra	-12.4666
olland	-12.467
oriente	-12.4673
▁Port	-12.4674
▁inconscie	-12.4678
▁buff	-12.4679
urice	-12.4688
▁corp	-12.4704
▁projecti	-12.4708
▁associati	-12.4709
▁indé	-12.4714
▁viendra	-12.4718
▁décli	-12.472
▁réhabilit	-12.4725
Expo	-12.4726
▁impuls	-12.4726
cepter	-12.4727
Australie	-12.4728
abbaye	-12.4728
effectif	-12.4728
exclame	-12.4728
occitan	-12.4728
▁annoncé	-12.4728
▁archéologi	-12.4728
▁arraché	-12.4728
▁bigouden	-12.4728
▁bénédiction	-12.4728
▁caractérise	-12.4728
▁collocation	-12.4728
▁comprimé	-12.4728
▁compétent	-12.4728
▁céramique	-12.4728
▁distribué	-12.4728
▁facilite	-12.4728
▁frambois	-12.4728
▁félicitation	-12.4728
▁maquillage	-12.4728
▁monastère	-12.4728
▁naturalis	-12.4728
▁nickel	-12.4728
▁rapproché	-12.4728
▁renvoyé	-12.4728
▁réfugié	-12.4728
▁réservoir	-12.4728
▁rêvé	-12.4728
▁sollicité	-12.4728
▁vétérinaire	-12.4728
▁égoutter	-12.4728
ardonna	-12.4728
▁allusion	-12.4728
▁caricatur	-12.4728
▁fécond	-12.4728
▁grenier	-12.4728
▁peign	-12.4728
▁proportion	-12.4728
▁reflét	-12.4728
▁conseillère	-12.4728
▁junior	-12.4728
▁manège	-12.4728
▁pertinen	-12.4728
acifique	-12.4728
▁monogam	-12.4728
aspirateur	-12.4728
▁tisser	-12.4728
▁écharpe	-12.4728
▁sauvé	-12.4728
▁vélib	-12.4728
cadré	-12.4728
▁émigré	-12.4728
▁paramètre	-12.4728
▁promenai	-12.4728
▁radiateur	-12.4728
▁bascule	-12.4728
▁garni	-12.4728
▁revendique	-12.4728
▁argile	-12.4728
▁écaille	-12.4728
▁Sham	-12.4729
èze	-12.4729
▁enterré	-12.4729
▁Rouge	-12.4729
héberge	-12.4729
▁pouvons	-12.473
▁rétro	-12.4731
cire	-12.4732
▁abordé	-12.4732
▁remplisse	-12.4732
▁Télé	-12.4733
▁séquence	-12.4733
immobilier	-12.4733
▁charme	-12.4733
▁détri	-12.4734
▁charpent	-12.4734
▁texto	-12.4735
▁communiste	-12.4739
▁techn	-12.474
▁signaler	-12.4741
▁Cler	-12.4742
▁trap	-12.4742
▁apte	-12.4743
▁phonologi	-12.4743
▁tenté	-12.4744
▁imaginez	-12.4746
▁arrêtez	-12.4747
▁intervenu	-12.475
▁Madr	-12.4751
lada	-12.4752
ureau	-12.4752
▁solf	-12.4756
ETA	-12.4756
▁remette	-12.4757
ween	-12.4759
▁Beaux	-12.4759
▁souche	-12.4766
▁manager	-12.4768
▁voyelle	-12.477
présidence	-12.4773
▁mmm	-12.4775
▁Claude	-12.4777
▁assume	-12.4778
▁Desc	-12.4778
uffet	-12.478
▁Star	-12.4792
▁héritage	-12.4793
▁royale	-12.4794
▁berceau	-12.4796
▁orage	-12.4799
erreur	-12.48
▁hypothèse	-12.4801
▁balad	-12.4803
▁humid	-12.4806
▁dirigeant	-12.4807
▁intermédiaire	-12.4808
▁retenue	-12.4809
ango	-12.4811
▁réalis	-12.4814
▁acoustique	-12.4816
uche	-12.482
▁Proven	-12.4821
▁prouver	-12.4823
PAC	-12.4825
▁portrait	-12.4826
▁excellente	-12.4837
▁Inde	-12.4839
▁instituteur	-12.4839
▁pop	-12.484
▁bancaire	-12.4841
resser	-12.4852
▁Ele	-12.4863
▁goûté	-12.4869
mou	-12.4883
osé	-12.4885
▁tolér	-12.4889
▁axé	-12.4894
▁cherchez	-12.4894
▁réserver	-12.4895
▁attachée	-12.4898
utiste	-12.4914
chaud	-12.4922
▁appartienne	-12.4926
impose	-12.4928
interface	-12.493
▁confond	-12.4945
quin	-12.4971
▁bav	-12.4982
▁bouill	-12.4983
hamps	-12.4987
▁triple	-12.4991
landais	-12.5026
nteuse	-12.503
gressiste	-12.5037
▁commercialis	-12.5041
▁transp	-12.5042
▁parfumer	-12.5042
▁gratuite	-12.5059
▁démissionne	-12.5071
urez	-12.5085
ssions	-12.5103
oudre	-12.5104
wl	-12.512
▁future	-12.5124
implique	-12.5128
▁viru	-12.5134
erfs	-12.5135
issue	-12.5142
▁accompagne	-12.5151
hom	-12.5159
iffe	-12.5161
NT	-12.5188
hol	-12.5189
▁étudie	-12.5189
▁toilette	-12.5199
export	-12.5204
▁entrai	-12.5209
▁Pau	-12.521
▁rejoue	-12.5213
culturel	-12.5224
oblige	-12.5228
soignant	-12.5228
intellectuelle	-12.5229
familial	-12.5229
opinion	-12.523
colère	-12.523
instrument	-12.5231
horizon	-12.5231
annonce	-12.5231
quarante	-12.5231
CF	-12.5232
ajuster	-12.5236
▁remporte	-12.5238
aucun	-12.5239
accusé	-12.5242
beau	-12.5243
▁import	-12.5244
▁royal	-12.5283
▁débarqu	-12.5284
▁spécia	-12.5292
▁dépose	-12.5294
▁creuse	-12.5297
ône	-12.5301
▁Cli	-12.531
▁réalisée	-12.5317
étudier	-12.533
▁fatig	-12.5334
adorai	-12.5337
▁mensuel	-12.534
oindre	-12.5342
▁exige	-12.5345
ramel	-12.5348
objectiv	-12.535
attribu	-12.5351
/	-12.5351
▁préparat	-12.5351
Joseph	-12.5353
apparence	-12.5353
couvercle	-12.5353
intègre	-12.5353
▁John	-12.5353
▁Martigny	-12.5353
▁agressé	-12.5353
▁amusé	-12.5353
▁aménagé	-12.5353
▁autocollant	-12.5353
▁cymbale	-12.5353
▁débouché	-12.5353
▁délégation	-12.5353
▁emporté	-12.5353
▁envisagé	-12.5353
▁grizzli	-12.5353
▁jungle	-12.5353
▁kiwi	-12.5353
▁linguiste	-12.5353
▁mélodie	-12.5353
▁nitrate	-12.5353
▁ordinaire	-12.5353
▁parapluie	-12.5353
▁pathologie	-12.5353
▁paupière	-12.5353
▁pilotage	-12.5353
▁poignée	-12.5353
▁procédur	-12.5353
▁prélèvement	-12.5353
▁pèlerin	-12.5353
▁renommé	-12.5353
▁scénario	-12.5353
▁soulevé	-12.5353
▁steak	-12.5353
▁structuré	-12.5353
▁vôtre	-12.5353
▁Liban	-12.5353
▁apparu	-12.5353
▁génie	-12.5353
▁intensif	-12.5353
▁penché	-12.5353
assistance	-12.5353
▁baby	-12.5353
▁serrure	-12.5353
▁venge	-12.5353
dynamis	-12.5353
▁mijot	-12.5353
▁poursuivi	-12.5353
▁aplati	-12.5353
▁Toulouse	-12.5353
▁poney	-12.5353
▁délimit	-12.5353
▁manipule	-12.5353
▁retravaille	-12.5353
▁caserne	-12.5353
▁attaqué	-12.5353
attribution	-12.5353
▁refle	-12.5353
▁raclette	-12.5353
▁moustique	-12.5353
▁tablier	-12.5353
▁scout	-12.5353
▁alerte	-12.5353
▁Psych	-12.5353
▁graci	-12.5353
▁spécialisation	-12.5353
▁farce	-12.5354
▁flic	-12.5354
croît	-12.5354
▁varié	-12.5354
▁fiscal	-12.5354
▁psychanalys	-12.5354
Express	-12.5355
▁Bourg	-12.5355
▁abouti	-12.5355
▁crapa	-12.5355
▁correspondance	-12.5355
▁kot	-12.5355
▁rhum	-12.5356
▁digne	-12.5356
▁marquant	-12.5356
▁prime	-12.5356
▁république	-12.5356
▁parano	-12.5356
▁Parti	-12.5357
▁Gob	-12.536
▁chaudière	-12.536
▁tapé	-12.536
▁fast	-12.5361
Martin	-12.5361
▁contré	-12.5361
agère	-12.5361
▁boum	-12.5361
▁macro	-12.5362
▁The	-12.5362
opposé	-12.5363
▁Pou	-12.5363
▁confine	-12.5363
▁coton	-12.5364
▁DE	-12.5365
▁délibération	-12.5365
averne	-12.5366
▁descente	-12.5366
▁Algérien	-12.5369
▁périphérique	-12.537
▁Parisienne	-12.5371
engueuler	-12.5371
▁multiplie	-12.5373
▁36	-12.5376
▁Champign	-12.5377
▁scie	-12.5377
▁puni	-12.5378
▁mèche	-12.5378
▁imaginé	-12.5379
▁éleveur	-12.538
▁chope	-12.5383
alousie	-12.5386
▁obscur	-12.5389
alence	-12.5391
▁Boul	-12.5391
rousse	-12.5392
▁départementale	-12.5392
jama	-12.5393
▁poison	-12.5393
▁rajouté	-12.5393
▁ambition	-12.5398
▁employ	-12.5399
▁confirmer	-12.5408
▁cancer	-12.5415
▁coupure	-12.542
écoule	-12.5421
étang	-12.5422
▁chantant	-12.5425
▁Max	-12.5425
▁sortez	-12.5437
ançon	-12.544
▁logé	-12.5442
▁coupable	-12.5446
énerv	-12.545
inho	-12.5453
alter	-12.5454
▁accouch	-12.5455
▁niche	-12.5458
tube	-12.5461
▁agite	-12.5472
▁pendul	-12.5478
anana	-12.5481
▁représenté	-12.5483
abond	-12.5486
ouri	-12.5486
▁émi	-12.5495
▁dégoûté	-12.5496
▁drag	-12.5496
écoutai	-12.5502
▁capte	-12.5507
▁Bran	-12.5522
▁atterri	-12.5523
▁Gou	-12.5526
▁concernée	-12.5531
▁viol	-12.5537
▁baro	-12.5537
▁vic	-12.5553
ugu	-12.556
▁lancée	-12.5566
▁écoss	-12.5569
AD	-12.5571
▁boit	-12.5595
▁vertig	-12.5631
dad	-12.566
grippe	-12.5673
▁caresse	-12.568
▁néan	-12.569
▁dévi	-12.5709
▁salé	-12.5718
evan	-12.5752
▁toc	-12.5788
magn	-12.5801
▁prospecti	-12.5814
nder	-12.582
apporte	-12.5834
rôle	-12.5837
▁colombie	-12.587
assemblée	-12.5873
▁violet	-12.5874
érité	-12.5879
▁souven	-12.5884
spirer	-12.5889
▁ressorti	-12.5892
aîné	-12.5893
bancaire	-12.5894
▁Pan	-12.5895
instituteur	-12.5895
observatoire	-12.5896
autorité	-12.5896
déchet	-12.5897
peintre	-12.5897
chôm	-12.5897
poésie	-12.5897
guerre	-12.5898
▁coordonne	-12.59
▁éprouv	-12.5901
neige	-12.5901
Aix	-12.5902
▁stresse	-12.5917
santé	-12.5918
fille	-12.5925
alisation	-12.5928
install	-12.593
crois	-12.5943
▁compléte	-12.5947
Inde	-12.5949
lact	-12.5976
▁vér	-12.5977
▁plaint	-12.5978
igny	-12.5993
abandon	-12.5996
▁bouc	-12.6
assassin	-12.6002
▁suspend	-12.6005
accumul	-12.6012
immédiat	-12.6016
▁suspens	-12.6017
encontre	-12.6019
Christ	-12.6019
éditerranée	-12.6019
augmentati	-12.6019
vraisemblable	-12.6019
▁Radio	-12.6019
alphabet	-12.6019
connecté	-12.6019
interférence	-12.6019
pharyng	-12.6019
raccourci	-12.6019
▁Christoph	-12.6019
▁cadavre	-12.6019
▁catastrophique	-12.6019
▁cauchemar	-12.6019
▁chronique	-12.6019
▁cuisinière	-12.6019
▁déclaré	-12.6019
▁embauché	-12.6019
▁enrichissant	-12.6019
▁escargot	-12.6019
▁flippe	-12.6019
▁flûtiste	-12.6019
▁glissé	-12.6019
▁gonflé	-12.6019
▁hiragana	-12.6019
▁katakana	-12.6019
▁lâché	-12.6019
▁manipulation	-12.6019
▁manuscrit	-12.6019
▁moustache	-12.6019
▁offrande	-12.6019
▁possède	-12.6019
▁prairie	-12.6019
▁ressemblai	-12.6019
▁ronfle	-12.6019
▁réduction	-12.6019
▁réservation	-12.6019
▁révision	-12.6019
▁slalom	-12.6019
▁tentative	-12.6019
▁trafic	-12.6019
▁zibeline	-12.6019
euchâtel	-12.6019
nnovation	-12.6019
▁Bayonne	-12.6019
▁Brésil	-12.6019
▁Château	-12.6019
▁croyant	-12.6019
▁relatif	-12.6019
intitul	-12.6019
▁Folie	-12.6019
▁Jack	-12.6019
▁accrédit	-12.6019
▁baraquement	-12.6019
▁gitan	-12.6019
▁phare	-12.6019
▁rincer	-12.6019
▁sanction	-12.6019
▁sensibilité	-12.6019
▁épousé	-12.6019
biberon	-12.6019
▁fût	-12.6019
affinité	-12.6019
▁augmenté	-12.6019
▁démocratique	-12.6019
▁ajouté	-12.6019
▁christ	-12.6019
Julien	-12.6019
▁ultra	-12.6019
▁victoire	-12.6019
improvise	-12.6019
▁paroisse	-12.6019
▁isra	-12.6019
▁Blanche	-12.6019
▁crevé	-12.6019
▁rampe	-12.6019
▁poulain	-12.6019
▁hongr	-12.602
▁check	-12.602
▁décalé	-12.602
▁Nouvel	-12.602
▁griffe	-12.602
▁punition	-12.602
▁dépôt	-12.602
▁décharge	-12.602
▁curieuse	-12.602
enfonce	-12.602
▁semelle	-12.602
▁fluid	-12.602
▁snob	-12.602
▁préoccupation	-12.602
▁thermique	-12.602
▁distinction	-12.602
ôtel	-12.602
morph	-12.602
titré	-12.602
▁quota	-12.6021
▁infect	-12.6022
▁renonce	-12.6022
▁tsar	-12.6022
▁galér	-12.6022
amusai	-12.6023
▁Gal	-12.6023
▁envisager	-12.6024
▁qualificati	-12.6024
▁comique	-12.6024
▁poterie	-12.6025
▁Butte	-12.6026
▁veste	-12.6026
▁lointain	-12.6027
ight	-12.6027
▁déforme	-12.6027
▁modeste	-12.6027
▁Tob	-12.6027
▁filtre	-12.6029
▁frappant	-12.6029
▁habituelle	-12.603
apéro	-12.603
▁protocole	-12.6031
▁franchise	-12.6034
oeuf	-12.6035
▁Rousse	-12.6035
▁proie	-12.6038
▁poussette	-12.6039
▁emballe	-12.6042
▁tapai	-12.6043
▁correcteur	-12.6044
▁Lila	-12.6044
▁Mire	-12.6047
télé	-12.6047
▁Andr	-12.6051
▁tranchée	-12.6055
louis	-12.6056
▁artisanal	-12.6058
▁choux	-12.6067
▁vapeur	-12.6067
▁distinguer	-12.6073
itié	-12.6073
odin	-12.6076
TT	-12.6077
▁aboutir	-12.6085
▁documentation	-12.6091
▁Canadien	-12.6092
▁musulmane	-12.6103
▁contemporaine	-12.6112
▁accompagnante	-12.6113
bois	-12.6114
ample	-12.6115
▁syn	-12.6122
ctive	-12.6125
▁retraité	-12.6128
euh	-12.6131
insiste	-12.6134
▁géré	-12.6139
▁conservé	-12.614
éviden	-12.6141
▁réveill	-12.6144
▁traversée	-12.6151
▁brûl	-12.6169
▁appren	-12.6181
▁cuis	-12.6196
mberg	-12.6207
FR	-12.6213
agneau	-12.6222
portait	-12.6227
ouette	-12.623
IP	-12.6245
▁mondialis	-12.6245
▁couru	-12.6247
▁repense	-12.6248
▁avancée	-12.6262
▁vérifi	-12.6262
rden	-12.6268
▁vietnamien	-12.6275
▁Pass	-12.6284
important	-12.6295
fumeur	-12.6298
sommeil	-12.6299
▁retranscri	-12.63
▁souhaiterai	-12.6303
▁discutai	-12.6307
IN	-12.6308
ennui	-12.6309
géné	-12.6311
▁suffisai	-12.6333
vaissel	-12.6338
▁abatt	-12.6338
Marne	-12.6346
soif	-12.6358
▁articul	-12.6365
motiv	-12.637
▁circul	-12.6378
embour	-12.6381
expliquai	-12.6392
allon	-12.6395
lui	-12.6419
▁dispose	-12.6429
ook	-12.643
▁Bur	-12.6432
▁galope	-12.645
▁conserv	-12.6454
▁vietnam	-12.6466
réal	-12.6468
ood	-12.6509
▁Mexic	-12.6525
▁invit	-12.6536
éren	-12.6546
ugo	-12.6546
▁chouc	-12.6561
▁domin	-12.6569
▁milliard	-12.6595
oso	-12.6606
mobilier	-12.6606
obligation	-12.6608
RA	-12.6609
pension	-12.6609
handicap	-12.6609
appartien	-12.661
automn	-12.661
grec	-12.661
impact	-12.661
arrondissement	-12.6611
immigré	-12.6611
aquarium	-12.6611
brise	-12.6611
Jean	-12.6611
plastique	-12.6612
franche	-12.6612
aventure	-12.6612
service	-12.6612
obten	-12.662
▁surveill	-12.6624
offrir	-12.6633
▁comprendrai	-12.6635
▁préférai	-12.6635
arbitre	-12.6641
▁bataill	-12.6646
▁brésil	-12.6652
▁productiv	-12.6655
introduir	-12.6655
▁délicate	-12.6661
▁Sam	-12.6665
▁réjoui	-12.6676
▁reviendra	-12.6684
▁accordé	-12.6686
▁quarant	-12.6691
chimique	-12.6705
ST	-12.6707
erbie	-12.6716
▁fonc	-12.6722
▁rattrap	-12.6722
▁coloc	-12.6723
inistère	-12.6726
▁sculpt	-12.6731
efface	-12.6733
▁refroidi	-12.6733
emporte	-12.6733
ignote	-12.6733
▁cylindr	-12.6734
improvisation	-12.6734
éducatif	-12.6734
▁Maghrébin	-12.6734
▁assoiffé	-12.6734
▁bourgmestre	-12.6734
▁condamné	-12.6734
▁contrôlé	-12.6734
▁cordonnier	-12.6734
▁côtoie	-12.6734
▁dauphin	-12.6734
▁embrassé	-12.6734
▁empêché	-12.6734
▁ergothérapeute	-12.6734
▁fabricant	-12.6734
▁faveur	-12.6734
▁instance	-12.6734
▁institutrice	-12.6734
▁insuffisant	-12.6734
▁kangourou	-12.6734
▁mitraillette	-12.6734
▁mécanisme	-12.6734
▁nuisance	-12.6734
▁paralysé	-12.6734
▁peluche	-12.6734
▁privilège	-12.6734
▁précaire	-12.6734
▁pénétr	-12.6734
▁rembourser	-12.6734
▁salarial	-12.6734
▁sorcier	-12.6734
▁spaghetti	-12.6734
▁surprenant	-12.6734
▁susceptible	-12.6734
▁tempéré	-12.6734
▁toxique	-12.6734
▁téléspectateur	-12.6734
▁témoigne	-12.6734
▁vigilan	-12.6734
▁émerge	-12.6734
▁conquér	-12.6734
▁débile	-12.6734
▁opéré	-12.6734
▁posséd	-12.6734
▁rempart	-12.6734
▁Baudel	-12.6734
▁cliché	-12.6734
▁colloque	-12.6734
▁funéra	-12.6734
▁indifférent	-12.6734
▁variable	-12.6734
▁échauffement	-12.6734
▁adorable	-12.6734
▁chorale	-12.6734
▁manqué	-12.6734
▁bachel	-12.6734
▁doctorat	-12.6734
▁massif	-12.6734
▁mangue	-12.6734
▁ballerine	-12.6734
▁renouvellement	-12.6734
▁macaron	-12.6734
spatia	-12.6734
▁mistralien	-12.6734
▁bidon	-12.6734
▁devinette	-12.6734
▁Moyen	-12.6734
▁sorcière	-12.6734
▁black	-12.6734
▁marron	-12.6734
▁logopédi	-12.6734
▁Super	-12.6734
▁rigid	-12.6734
▁kiné	-12.6734
▁relié	-12.6734
métallique	-12.6734
▁devons	-12.6734
▁Juif	-12.6734
▁classé	-12.6734
▁créateur	-12.6734
▁indication	-12.6735
▁Mitter	-12.6735
▁coordination	-12.6735
▁poétique	-12.6735
andem	-12.6735
▁servante	-12.6735
▁architectural	-12.6735
▁Perr	-12.6736
▁vendeuse	-12.6736
▁Mick	-12.6736
▁imaginaire	-12.6736
riomphe	-12.6736
▁adhérent	-12.6736
▁cuisse	-12.6736
▁picard	-12.6736
▁marchandise	-12.6736
▁figue	-12.6736
▁suspension	-12.6736
▁auditeur	-12.6737
▁restant	-12.6738
heim	-12.6738
▁explosion	-12.6738
▁syntaxique	-12.6738
▁infini	-12.6739
▁comptable	-12.6739
▁climatique	-12.6739
▁March	-12.674
▁étale	-12.674
▁gardienne	-12.6741
▁caillou	-12.6741
▁dépendance	-12.6741
▁nommer	-12.6741
▁citerne	-12.6742
▁boue	-12.6742
épaisseur	-12.6743
▁Baby	-12.6743
▁Dj	-12.6743
▁chirurgien	-12.6745
▁collant	-12.6746
mencer	-12.6748
▁suspendu	-12.6748
▁Polo	-12.675
▁certification	-12.675
▁valoriser	-12.675
▁pois	-12.6751
citron	-12.6753
▁boulette	-12.6754
▁môme	-12.676
▁laboure	-12.6761
▁vivez	-12.6761
▁Lab	-12.6763
▁saoul	-12.6763
vill	-12.6767
Domini	-12.6768
▁virer	-12.6768
âtre	-12.6769
▁posez	-12.6771
▁Moli	-12.6773
echt	-12.6775
▁voilée	-12.6776
▁dense	-12.6776
▁soliste	-12.6777
▁Rem	-12.6779
volcan	-12.6793
▁confirmé	-12.6796
▁concertation	-12.68
▁urbaine	-12.6806
▁publie	-12.6807
▁sign	-12.6807
▁inha	-12.6809
▁brésilien	-12.6816
▁Breton	-12.682
▁fabriqu	-12.6846
▁chauff	-12.6859
épile	-12.6861
▁roche	-12.6872
▁Blo	-12.6874
▁Dub	-12.6888
▁retombe	-12.6945
cuit	-12.6958
apprenant	-12.6959
▁souvien	-12.6972
▁équi	-12.7002
▁Jame	-12.7015
oulever	-12.7027
▁nettoyé	-12.7041
arche	-12.7044
Aub	-12.7067
▁flot	-12.7077
▁brill	-12.7096
▁exécut	-12.7107
arot	-12.7108
▁trouv	-12.7127
DT	-12.7128
arraine	-12.713
▁discut	-12.7162
thèque	-12.7198
▁confirme	-12.7203
▁légal	-12.7223
baisser	-12.7225
▁recommenc	-12.723
accompagne	-12.724
▁légitim	-12.7244
▁trembl	-12.7251
▁forc	-12.7252
sibilité	-12.7266
▁gramm	-12.7284
▁remerci	-12.7287
attache	-12.7303
excuse	-12.7311
▁réalise	-12.7314
▁déroul	-12.7352
▁musical	-12.7365
emme	-12.7374
Proven	-12.7378
incident	-12.7378
emmène	-12.7378
visuel	-12.7379
musicale	-12.7379
affichage	-12.7379
initiative	-12.7379
Michel	-12.7379
portrait	-12.7379
académie	-12.7379
émargement	-12.7379
historique	-12.738
acquis	-12.7381
habitant	-12.7381
extraordinaire	-12.7381
crit	-12.7386
éléments	-12.7387
invente	-12.7397
institution	-12.7401
▁indépenda	-12.7402
évang	-12.7403
ommunauté	-12.7412
suis	-12.742
emplacement	-12.7424
▁distingue	-12.7441
envole	-12.7442
taxi	-12.7443
dication	-12.7445
▁gratte	-12.745
▁teint	-12.7458
▁norma	-12.7467
kan	-12.7482
lfe	-12.7485
massage	-12.7487
music	-12.7493
apoléon	-12.7493
▁serre	-12.7495
▁décolle	-12.7502
▁success	-12.7502
assimil	-12.7502
▁Blanc	-12.7503
Auxerre	-12.7503
interrogation	-12.7503
ocrate	-12.7503
psychiatri	-12.7503
▁Marseillais	-12.7503
▁bombardement	-12.7503
▁bouleverse	-12.7503
▁cambriol	-12.7503
▁canadien	-12.7503
▁cascade	-12.7503
▁chagrin	-12.7503
▁convoqué	-12.7503
▁crevette	-12.7503
▁différencie	-12.7503
▁dignit	-12.7503
▁divorcé	-12.7503
▁flagrant	-12.7503
▁fragment	-12.7503
▁graffiti	-12.7503
▁illimité	-12.7503
▁justifier	-12.7503
▁majuscule	-12.7503
▁marollien	-12.7503
▁monarchi	-12.7503
▁mygale	-12.7503
▁mythologie	-12.7503
▁ordonné	-12.7503
▁perçoi	-12.7503
▁pingouin	-12.7503
▁précipité	-12.7503
▁psychiatre	-12.7503
▁péjorati	-12.7503
▁recrée	-12.7503
▁reproduir	-12.7503
▁souffrant	-12.7503
▁stupide	-12.7503
▁sénégal	-12.7503
▁tempérament	-12.7503
▁trimestre	-12.7503
ashington	-12.7503
▁McDo	-12.7503
▁creusé	-12.7503
▁dépanne	-12.7503
▁déshabillé	-12.7503
▁folk	-12.7503
▁perpétue	-12.7503
▁sphère	-12.7503
▁tartine	-12.7503
▁fourgon	-12.7503
▁grappe	-12.7503
▁inquiétude	-12.7503
▁souffrance	-12.7503
▁subjectiv	-12.7503
erstal	-12.7503
▁manoeuvre	-12.7503
▁mutation	-12.7503
▁recouvert	-12.7503
▁valaisan	-12.7503
communautaire	-12.7503
▁Premi	-12.7503
▁senior	-12.7503
▁stationnement	-12.7503
appartenance	-12.7503
▁ballade	-12.7503
▁autorisé	-12.7503
▁sonorité	-12.7503
▁martia	-12.7503
▁expir	-12.7503
▁râl	-12.7503
▁polonais	-12.7503
▁dédié	-12.7503
▁financé	-12.7503
▁signifie	-12.7503
▁abonné	-12.7503
▁toast	-12.7503
▁passionnant	-12.7503
▁rebondi	-12.7503
▁divin	-12.7503
▁anticip	-12.7503
▁égypt	-12.7503
▁roquefort	-12.7503
offens	-12.7503
éthique	-12.7503
▁vierge	-12.7503
▁contraste	-12.7503
▁lavage	-12.7503
▁gestionnaire	-12.7504
▁aurore	-12.7504
▁diffusion	-12.7504
▁Gamb	-12.7504
redresse	-12.7504
▁Borin	-12.7504
▁raccroche	-12.7504
▁implanté	-12.7504
▁côtelette	-12.7504
▁liaison	-12.7504
▁BEP	-12.7504
glaive	-12.7505
▁comprom	-12.7505
▁salut	-12.7505
▁ruine	-12.7505
▁comble	-12.7505
▁chaudron	-12.7506
▁relire	-12.7506
▁poudre	-12.7506
▁tournant	-12.7506
▁fring	-12.7506
▁majoritaire	-12.7507
escence	-12.7507
▁réinscri	-12.7508
implantation	-12.7509
▁crête	-12.7509
▁Pha	-12.751
▁combattant	-12.751
▁considération	-12.7511
▁Basse	-12.7511
▁lamentable	-12.7511
▁flou	-12.7514
▁appartenai	-12.7515
Maupr	-12.7516
arguer	-12.7516
▁ponctuelle	-12.7518
▁Land	-12.7518
abyl	-12.7518
▁résist	-12.7518
▁Antill	-12.7518
▁pleuré	-12.7519
▁amant	-12.752
▁Lorie	-12.7521
▁fréquentation	-12.7521
▁affolé	-12.7523
▁séch	-12.7524
▁finalité	-12.7535
▁identifi	-12.7535
▁contraction	-12.7536
▁répété	-12.754
mark	-12.7543
▁voisinage	-12.7551
▁diffusé	-12.7552
▁évalue	-12.7553
illard	-12.7557
▁hache	-12.7567
▁recherché	-12.757
élib	-12.7572
▁électrode	-12.7576
▁impressionné	-12.7579
▁conseillé	-12.7585
▁reprenai	-12.759
▁jardinier	-12.7596
scendance	-12.7599
▁bisou	-12.7612
errer	-12.7614
gueur	-12.7638
▁Gia	-12.7645
emprunter	-12.7658
grégation	-12.7663
▁cachai	-12.7665
▁atten	-12.7672
▁rectora	-12.7673
▁ik	-12.7678
foresti	-12.7687
égout	-12.7694
▁publication	-12.7694
ator	-12.7703
Méri	-12.7744
avel	-12.776
▁terri	-12.7768
▁transf	-12.7773
▁transfér	-12.7782
anini	-12.7785
exagérer	-12.7796
éclate	-12.7823
▁régn	-12.7833
adopti	-12.7837
secour	-12.7843
iseaux	-12.7847
bout	-12.7857
ease	-12.786
▁poteau	-12.7883
▁repar	-12.7892
▁suc	-12.7904
tanique	-12.7908
▁partisan	-12.7939
Maur	-12.7944
stitution	-12.7951
ambulance	-12.7969
▁flor	-12.7972
gueule	-12.8001
▁produc	-12.8015
▁endormi	-12.8016
écré	-12.8025
▁Mada	-12.8026
lanter	-12.8033
▁Jam	-12.8034
▁chaussure	-12.804
▁dérive	-12.8065
▁amélioré	-12.8106
▁préci	-12.8146
▁conven	-12.8147
▁dégoût	-12.8147
enverra	-12.8147
▁carbo	-12.8152
▁grimp	-12.8155
▁mortel	-12.8164
écri	-12.818
▁vertical	-12.8181
▁chut	-12.8181
▁flanc	-12.8197
▁racont	-12.8202
ouillé	-12.8206
acoustique	-12.8211
restreint	-12.8212
évolue	-12.8212
évoque	-12.8212
aéroport	-12.8212
agenda	-12.8213
électrique	-12.8213
autonomie	-12.8213
administratif	-12.8213
armoire	-12.8213
enveloppe	-12.8213
▁enseign	-12.8214
température	-12.8214
étoile	-12.8214
balade	-12.8214
incendie	-12.8214
adulte	-12.8214
frère	-12.8215
▁rouleau	-12.8217
épée	-12.8217
prêt	-12.822
commode	-12.8224
morte	-12.8228
égalité	-12.8229
presse	-12.8232
PA	-12.8237
allonge	-12.8246
▁urbain	-12.8252
igue	-12.8263
essaierai	-12.8275
▁respire	-12.8276
▁retire	-12.8277
essayai	-12.8283
raser	-12.8288
gypt	-12.831
▁phon	-12.8316
▁irré	-12.8327
▁précéd	-12.8329
udrait	-12.8329
▁broche	-12.8332
tiliser	-12.8334
efficac	-12.8335
▁résili	-12.8335
hallucin	-12.8336
▁maturation	-12.8336
▁répercu	-12.8336
▁Dragon	-12.8336
▁arrondi	-12.8336
▁déborde	-12.8336
▁mâchoire	-12.8336
▁restructur	-12.8336
emballage	-12.8336
erviétois	-12.8336
glomérat	-12.8336
gouffre	-12.8336
ruption	-12.8336
énigme	-12.8336
▁Fontenay	-12.8336
▁Libé	-12.8336
▁Pakistan	-12.8336
▁Perpignan	-12.8336
▁Théâtr	-12.8336
▁annul	-12.8336
▁banlieusard	-12.8336
▁biscuits	-12.8336
▁blog	-12.8336
▁bûche	-12.8336
▁cafetière	-12.8336
▁chausson	-12.8336
▁consigne	-12.8336
▁conçu	-12.8336
▁corrigé	-12.8336
▁disparaisse	-12.8336
▁distingué	-12.8336
▁enjambe	-12.8336
▁expérimente	-12.8336
▁faubourg	-12.8336
▁hardcore	-12.8336
▁homogène	-12.8336
▁intense	-12.8336
▁livré	-12.8336
▁paradoxal	-12.8336
▁pistache	-12.8336
▁policière	-12.8336
▁provision	-12.8336
▁périmètre	-12.8336
▁randonnée	-12.8336
▁reconstitue	-12.8336
▁refuge	-12.8336
▁remplaçant	-12.8336
▁renseigné	-12.8336
▁roller	-12.8336
▁rotation	-12.8336
▁sourcil	-12.8336
▁symbolis	-12.8336
▁traînai	-12.8336
▁élimine	-12.8336
Rhône	-12.8336
▁Neuilly	-12.8336
▁couturier	-12.8336
▁cristal	-12.8336
▁dévoile	-12.8336
▁gagnai	-12.8336
▁informé	-12.8336
▁rassuré	-12.8336
▁reconstrui	-12.8336
▁similaire	-12.8336
nuclé	-12.8336
▁forfait	-12.8336
▁relationnel	-12.8336
▁rédige	-12.8336
▁réfère	-12.8336
▁sauvegarde	-12.8336
▁lorrain	-12.8336
▁multiple	-12.8336
▁transcription	-12.8336
▁optique	-12.8336
▁réclame	-12.8336
humanitaire	-12.8336
▁caissier	-12.8336
▁emménag	-12.8336
▁ethnique	-12.8336
▁approprié	-12.8336
enoble	-12.8336
▁Indi	-12.8336
▁roca	-12.8336
▁contradiction	-12.8336
▁normand	-12.8336
▁borne	-12.8336
▁condescendan	-12.8336
▁Serre	-12.8336
▁soudain	-12.8336
▁Berne	-12.8336
appéti	-12.8336
instinct	-12.8337
▁ciblé	-12.8337
▁moquai	-12.8337
▁péché	-12.8337
▁détente	-12.8337
▁acclam	-12.8337
frug	-12.8337
▁solidaire	-12.8337
interpelle	-12.8337
▁édité	-12.8337
Christine	-12.8337
▁créatif	-12.8337
ketch	-12.8337
pénalis	-12.8337
▁heurte	-12.8337
▁hand	-12.8337
▁carrosse	-12.8337
▁compensation	-12.8337
intensi	-12.8337
▁soulign	-12.8337
▁impliqué	-12.8337
ASS	-12.8337
▁routin	-12.8338
▁Espagnol	-12.8338
▁réutiliser	-12.8338
pâques	-12.8338
▁cumul	-12.8338
▁dépêche	-12.8339
▁avouer	-12.8339
▁plaisante	-12.8339
IL	-12.8339
Charlotte	-12.8339
▁observé	-12.8339
▁opérationnel	-12.834
▁rappelez	-12.834
▁grue	-12.834
▁broderie	-12.8341
▁artificielle	-12.8341
▁menacé	-12.8341
▁régulier	-12.8341
▁stabil	-12.8341
▁faiblesse	-12.8341
▁Suk	-12.8342
▁réparation	-12.8342
▁pratiquant	-12.8345
▁cygne	-12.8345
▁Corée	-12.8346
▁résister	-12.8346
▁exigeant	-12.8347
▁Luca	-12.8349
▁tenant	-12.8349
▁méthodologi	-12.8349
shor	-12.835
▁pouf	-12.835
▁déplor	-12.8351
▁entité	-12.8351
▁culte	-12.8352
isole	-12.8352
▁mensuelle	-12.8353
ducation	-12.8358
▁spéc	-12.8359
▁puissiez	-12.836
cataire	-12.8367
alable	-12.8369
▁compact	-12.8372
▁vanne	-12.8376
▁pochette	-12.8376
édale	-12.8377
zah	-12.838
toye	-12.8383
uyère	-12.8384
▁retournai	-12.8386
▁galette	-12.8387
agace	-12.8389
bec	-12.8395
arôme	-12.8399
▁Bress	-12.8401
référentiel	-12.8416
intervien	-12.8429
▁squat	-12.8434
Arc	-12.844
▁déver	-12.8465
donner	-12.8473
ésar	-12.8477
éprouve	-12.8488
▁brouss	-12.8489
▁hoc	-12.8502
Af	-12.8504
▁viré	-12.8507
▁répar	-12.8509
▁barbu	-12.851
appellerai	-12.8543
elet	-12.8549
▁cata	-12.8568
xcel	-12.8585
▁contourne	-12.8594
▁obtien	-12.8605
accessi	-12.8613
afar	-12.863
lire	-12.8636
▁parfumé	-12.8639
épha	-12.8641
▁programmé	-12.8644
othèque	-12.8678
Amb	-12.8695
▁décid	-12.8725
demoiselle	-12.874
flotta	-12.877
▁poursuit	-12.8818
▁viendr	-12.883
▁Marra	-12.8843
alér	-12.8856
uste	-12.8871
▁provoqu	-12.8873
▁rentab	-12.8886
▁Corto	-12.8909
botani	-12.8938
▁cépage	-12.8944
▁retrouv	-12.8957
▁trot	-12.8987
▁naiss	-12.8998
▁plain	-12.902
▁physio	-12.9027
▁finissai	-12.9043
plein	-12.9082
sucer	-12.9084
graphique	-12.9088
oke	-12.9093
▁Nicola	-12.9098
▁intim	-12.9115
emprunt	-12.9118
intermédiaire	-12.912
acquér	-12.9121
intonation	-12.9121
investissement	-12.9121
urgence	-12.9121
éducateur	-12.9122
croix	-12.9122
immense	-12.9123
bloque	-12.9123
album	-12.9123
million	-12.9123
pompier	-12.9123
énorme	-12.9123
contrôle	-12.9123
intéressant	-12.9123
rouge	-12.9127
▁factur	-12.9128
occupation	-12.9131
rcière	-12.9135
pondre	-12.9138
allée	-12.9138
▁sacri	-12.9147
poule	-12.9149
asino	-12.9156
titre	-12.9163
envoyez	-12.9193
▁Gill	-12.9199
contact	-12.9202
▁inaugur	-12.9216
▁examin	-12.9237
▁deviendra	-12.9241
uze	-12.9242
égion	-12.9244
▁Prin	-12.9244
▁sympt	-12.9245
▁fréquem	-12.9245
imprégn	-12.9245
▁approximati	-12.9245
▁craign	-12.9245
▁goudron	-12.9245
▁néglige	-12.9245
▁optimis	-12.9245
▁paramétr	-12.9245
▁primitif	-12.9245
▁revenons	-12.9245
Benoît	-12.9245
Emmanuel	-12.9245
héritier	-12.9245
orchestration	-12.9245
projecteur	-12.9245
▁Bastelica	-12.9245
▁Européen	-12.9245
▁Flandre	-12.9245
▁Normale	-12.9245
▁Nuits	-12.9245
▁Sénégal	-12.9245
▁affamé	-12.9245
▁angoissé	-12.9245
▁bronzé	-12.9245
▁brouillon	-12.9245
▁choquant	-12.9245
▁combinaison	-12.9245
▁conçoi	-12.9245
▁cycliste	-12.9245
▁dégrade	-12.9245
▁dérangé	-12.9245
▁désinfect	-12.9245
▁entrepôt	-12.9245
▁exercé	-12.9245
▁expédition	-12.9245
▁gigantesque	-12.9245
▁initial	-12.9245
▁introduit	-12.9245
▁jargon	-12.9245
▁locuteur	-12.9245
▁martini	-12.9245
▁millimètre	-12.9245
▁mutuelle	-12.9245
▁mythe	-12.9245
▁mécontent	-12.9245
▁neuropsycholog	-12.9245
▁paradoxe	-12.9245
▁performant	-12.9245
▁pollué	-12.9245
▁provisoire	-12.9245
▁qualifiant	-12.9245
▁regroupé	-12.9245
▁renforcé	-12.9245
▁retombé	-12.9245
▁récap	-12.9245
▁symbole	-12.9245
▁temporaire	-12.9245
▁théâtral	-12.9245
▁titulaire	-12.9245
▁trébuche	-12.9245
▁Montpelli	-12.9245
▁adéquat	-12.9245
▁amphithéâtre	-12.9245
▁diesel	-12.9245
▁flexib	-12.9245
▁paisible	-12.9245
▁rayure	-12.9245
▁variante	-12.9245
▁écrasé	-12.9245
strophe	-12.9245
▁Science	-12.9245
▁adressé	-12.9245
▁esthétique	-12.9245
▁obséd	-12.9245
▁souverain	-12.9245
▁terroir	-12.9245
▁street	-12.9245
▁écurie	-12.9245
▁étrangl	-12.9245
▁dépays	-12.9245
▁hériss	-12.9245
▁propéd	-12.9245
▁Malien	-12.9245
▁nageoire	-12.9245
▁configuration	-12.9245
▁prévisionnel	-12.9245
▁ému	-12.9245
▁germanique	-12.9245
▁container	-12.9245
▁retiré	-12.9245
▁synthétique	-12.9245
▁Sonac	-12.9245
essuie	-12.9245
▁grenad	-12.9245
Charente	-12.9245
▁irlandais	-12.9245
▁patate	-12.9245
▁Costa	-12.9246
▁colorier	-12.9246
▁induit	-12.9246
▁griot	-12.9246
▁procéder	-12.9246
▁renfort	-12.9246
îme	-12.9246
▁sécheresse	-12.9246
▁tatata	-12.9246
automatisme	-12.9246
▁Bruno	-12.9246
incinér	-12.9246
▁motiver	-12.9246
▁judicieu	-12.9246
▁contribution	-12.9246
▁successive	-12.9246
emblée	-12.9246
lican	-12.9246
▁soulage	-12.9246
▁tracé	-12.9246
▁téléphonique	-12.9246
▁autocar	-12.9246
▁Daniel	-12.9246
biza	-12.9246
▁Milan	-12.9246
yphe	-12.9246
▁initié	-12.9247
▁habilité	-12.9247
▁desservi	-12.9247
Argent	-12.9247
▁banni	-12.9247
▁nuance	-12.9248
icket	-12.9248
▁confiture	-12.9248
▁DDE	-12.9249
▁Bang	-12.9249
▁panique	-12.9249
▁ralenti	-12.9249
▁foulée	-12.9249
▁Tara	-12.9249
▁abstrait	-12.9249
▁Latin	-12.925
▁racis	-12.925
▁pétard	-12.925
ribourg	-12.925
▁Norv	-12.925
étalon	-12.925
▁Iran	-12.925
▁taillé	-12.925
CS	-12.9251
individualisé	-12.9251
▁Troi	-12.9251
▁manip	-12.9251
▁réhabilitation	-12.9251
▁respectueu	-12.9251
▁sonnerie	-12.9252
▁engin	-12.9252
Isra	-12.9253
▁biper	-12.9253
lamand	-12.9254
▁payant	-12.9256
▁Pyr	-12.9256
▁stockage	-12.9257
▁instantané	-12.9258
▁régent	-12.9258
picot	-12.9258
▁DS	-12.9259
▁rentabili	-12.9259
▁répandu	-12.926
Aigu	-12.926
▁doté	-12.9261
▁vif	-12.9261
habitat	-12.9262
▁clan	-12.9262
▁brisé	-12.9262
entraide	-12.9263
▁Tim	-12.9263
▁Cens	-12.9267
▁Spi	-12.9268
▁exceptionnelle	-12.9271
▁argentine	-12.9274
baigne	-12.9275
▁Park	-12.9276
rapace	-12.9278
▁progress	-12.9279
▁réussisse	-12.9279
▁Freudi	-12.9284
▁Pomm	-12.9285
▁défendu	-12.9288
Ama	-12.9294
▁mime	-12.9299
▁traiteur	-12.93
venue	-12.9301
wing	-12.9303
▁Masso	-12.9316
atti	-12.9316
DD	-12.9319
▁Ball	-12.9324
Gilles	-12.9325
▁redescendu	-12.9334
▁disparaît	-12.9348
▁fasciné	-12.9365
▁formalis	-12.9376
arza	-12.9383
entrepreneur	-12.9386
▁Mag	-12.9389
Libre	-12.9412
▁nationa	-12.9421
exploiter	-12.9434
▁Montm	-12.9442
▁enchaîn	-12.9465
back	-12.9491
échi	-12.9503
▁reculé	-12.9508
▁Nap	-12.951
▁déchir	-12.9513
▁conform	-12.9522
▁recoupe	-12.9524
Bic	-12.954
▁jumel	-12.957
avaro	-12.9586
▁marqu	-12.9614
salmo	-12.9637
acid	-12.9641
ctrice	-12.9652
▁perm	-12.9665
béli	-12.9697
appuy	-12.9715
interpr	-12.9767
servent	-12.9787
▁attir	-12.98
▁enlev	-12.9813
▁coch	-12.9835
▁fréquen	-12.9849
équita	-12.9909
▁incr	-12.9914
classe	-12.9921
▁accouche	-12.9956
▁frit	-12.9963
septi	-12.9979
▁décroch	-12.9984
▁zu	-12.9995
commande	-12.9997
vul	-12.9997
▁universel	-13.0007
▁coordinat	-13.0021
chim	-13.0024
▁sembla	-13.0042
émie	-13.0058
chang	-13.0065
enseigne	-13.0067
▁fascin	-13.0115
▁Pomp	-13.0115
▁costum	-13.0115
résident	-13.0118
▁blan	-13.012
hypothèse	-13.012
humanité	-13.0121
groupe	-13.0121
interlocuteur	-13.0121
abonnement	-13.0121
▁verron	-13.0121
excellent	-13.0121
araignée	-13.0121
Africain	-13.0122
attraction	-13.0122
Inter	-13.0122
honnête	-13.0122
apprenne	-13.0122
inspecteur	-13.0122
frigo	-13.0122
Bret	-13.0122
américain	-13.0122
PL	-13.0123
événement	-13.0123
ministre	-13.0123
animateur	-13.0123
compagnie	-13.0123
couleur	-13.0123
télévision	-13.0123
trente	-13.0124
tomate	-13.0124
famille	-13.0125
écrivain	-13.0132
maman	-13.0132
boire	-13.0137
▁entrepris	-13.0164
espoir	-13.0168
assoc	-13.0173
assiste	-13.0179
hésitai	-13.019
Colombe	-13.0208
arbitr	-13.0216
▁romp	-13.0225
▁ponctuel	-13.0225
ociété	-13.0226
▁habituel	-13.023
▁therm	-13.0233
ongez	-13.0236
▁Région	-13.0244
préhension	-13.0245
▁décomp	-13.0245
Catherine	-13.0245
Sophie	-13.0245
ambigu	-13.0245
locution	-13.0245
relâché	-13.0245
éclipse	-13.0245
épanoui	-13.0245
▁Comédie	-13.0245
▁LLCE	-13.0245
▁abominable	-13.0245
▁académicien	-13.0245
▁alpiniste	-13.0245
▁aléatoire	-13.0245
▁ambassade	-13.0245
▁annuelle	-13.0245
▁archéologue	-13.0245
▁arrangé	-13.0245
▁bouddh	-13.0245
▁bouffé	-13.0245
▁calcaire	-13.0245
▁communiqué	-13.0245
▁concurrent	-13.0245
▁congélateur	-13.0245
▁démonstration	-13.0245
▁dénudé	-13.0245
▁enfoncé	-13.0245
▁francophoni	-13.0245
▁friandise	-13.0245
▁glaçon	-13.0245
▁grammaticale	-13.0245
▁gymnastique	-13.0245
▁gênai	-13.0245
▁incontestable	-13.0245
▁injecte	-13.0245
▁inquiétant	-13.0245
▁kebab	-13.0245
▁marginal	-13.0245
▁maternité	-13.0245
▁multimédia	-13.0245
▁performance	-13.0245
▁perpignanais	-13.0245
▁qualitative	-13.0245
▁québécois	-13.0245
▁requalification	-13.0245
▁restriction	-13.0245
▁récurrent	-13.0245
▁saxophone	-13.0245
▁souffrir	-13.0245
▁splendide	-13.0245
▁susciter	-13.0245
▁suédois	-13.0245
▁ultérieure	-13.0245
▁électeur	-13.0245
Stéphan	-13.0245
▁douloureu	-13.0245
▁minéral	-13.0245
▁méfian	-13.0245
▁navette	-13.0245
▁record	-13.0245
▁révélé	-13.0245
▁subsidi	-13.0245
▁vulgari	-13.0245
▁échangé	-13.0245
Mononke	-13.0245
expansi	-13.0245
éclecti	-13.0245
▁Maldi	-13.0245
▁animatrice	-13.0245
▁caissière	-13.0245
▁composant	-13.0245
▁dialectolog	-13.0245
▁ghetto	-13.0245
▁hébergé	-13.0245
▁proclam	-13.0245
▁randonneur	-13.0245
▁rejoign	-13.0245
▁qualifié	-13.0245
▁superficiel	-13.0245
▁tourterelle	-13.0245
▁acceptable	-13.0245
▁basculé	-13.0245
▁frange	-13.0245
▁impérati	-13.0245
▁quimper	-13.0245
▁zappe	-13.0245
▁vexé	-13.0245
invasion	-13.0245
▁bidule	-13.0245
▁cerisier	-13.0245
▁renversé	-13.0245
▁hallucinant	-13.0245
▁traumatisme	-13.0245
▁découpé	-13.0245
▁généalogiste	-13.0245
▁technologique	-13.0245
▁Mamy	-13.0245
▁bourre	-13.0245
▁firme	-13.0245
▁Maghr	-13.0245
▁authentique	-13.0245
▁prescri	-13.0245
▁canari	-13.0245
▁Master	-13.0245
▁aimable	-13.0245
▁concentrer	-13.0245
▁idéologique	-13.0245
▁pépin	-13.0245
▁signalétique	-13.0245
▁chauve	-13.0246
▁Musé	-13.0246
beek	-13.0246
Fabrice	-13.0246
équipier	-13.0246
▁saturé	-13.0246
▁thermos	-13.0246
▁horizontal	-13.0246
▁rabot	-13.0246
▁révélat	-13.0246
▁kena	-13.0246
Pirette	-13.0246
▁réalisateur	-13.0246
▁écume	-13.0246
▁corporel	-13.0246
▁moulage	-13.0246
▁tordu	-13.0246
▁débrouillé	-13.0246
▁muet	-13.0246
mptin	-13.0246
▁calci	-13.0246
▁rallonge	-13.0246
▁refroidisse	-13.0246
▁désistement	-13.0246
▁coiffeuse	-13.0246
▁tactique	-13.0247
génit	-13.0247
▁entraîné	-13.0247
▁Mister	-13.0247
assembl	-13.0247
▁définitif	-13.0247
ilingue	-13.0247
▁avéré	-13.0247
▁Poste	-13.0247
george	-13.0247
▁Martini	-13.0247
▁vigneron	-13.0247
▁haché	-13.0248
rovençal	-13.0248
▁José	-13.0248
▁Auch	-13.0248
▁attribué	-13.0248
▁surréaliste	-13.0249
▁électorale	-13.0249
istoire	-13.0249
▁fuite	-13.0249
▁germa	-13.025
▁rectifier	-13.025
▁minime	-13.025
▁serbe	-13.025
▁Munic	-13.025
▁démerd	-13.025
▁nounou	-13.0251
▁Gér	-13.0252
▁referme	-13.0252
▁nomade	-13.0253
▁grasse	-13.0253
▁piétonne	-13.0255
▁dangereuse	-13.0255
▁formulation	-13.0256
▁décontract	-13.0257
▁sénateur	-13.0258
sanguin	-13.026
▁ging	-13.0262
▁capot	-13.0263
▁presta	-13.0263
▁désordre	-13.0264
▁collation	-13.0264
▁Bata	-13.0264
▁tirage	-13.0266
▁trousse	-13.0267
▁Floren	-13.0267
▁nationaliste	-13.0267
▁Bonne	-13.0269
▁Mira	-13.0269
▁empoisonné	-13.0269
▁Long	-13.027
▁confondu	-13.0273
▁stagn	-13.0276
▁rassemblé	-13.0283
▁dédui	-13.0284
oppose	-13.0284
▁recondui	-13.0294
▁saign	-13.0299
entente	-13.0301
socia	-13.0319
▁constitué	-13.032
▁redeven	-13.032
adj	-13.033
▁rattache	-13.034
oquefort	-13.0353
nker	-13.0381
▁vén	-13.0382
fruitier	-13.0387
▁spécialise	-13.0389
▁renvoi	-13.04
roissant	-13.0403
▁intervienne	-13.0458
alk	-13.0462
astel	-13.05
▁fédé	-13.0511
▁Dran	-13.0519
Clo	-13.0531
▁fâche	-13.0549
▁roulai	-13.0556
▁prospect	-13.0566
déj	-13.0571
lyn	-13.0587
ppellation	-13.0592
▁risqu	-13.0624
▁abîm	-13.0636
kok	-13.0644
▁conti	-13.065
▁prévien	-13.0664
exam	-13.0664
▁bip	-13.0673
▁Amo	-13.0689
▁promet	-13.069
▁cession	-13.071
asile	-13.0725
migration	-13.0726
ivor	-13.075
zoo	-13.0765
olta	-13.0801
▁intrigu	-13.0805
▁glan	-13.0807
buste	-13.0869
ME	-13.0918
uniformis	-13.0958
▁balay	-13.0972
▁échou	-13.0973
metti	-13.1002
agrég	-13.1041
▁craquel	-13.105
atterriss	-13.1053
ASE	-13.106
▁indiqu	-13.1067
▁arros	-13.1095
excit	-13.1109
admet	-13.1125
▁captiv	-13.1127
issons	-13.1128
Jos	-13.1142
accentue	-13.1153
▁accompagnant	-13.1204
▁renseigne	-13.1212
élection	-13.1214
artisan	-13.123
héritage	-13.1231
fidèle	-13.1231
seigneur	-13.1232
tunnel	-13.1232
alimentaire	-13.1233
assistante	-13.1233
annexe	-13.1233
aveugle	-13.1233
blessure	-13.1233
atteindr	-13.1234
épaule	-13.1234
camping	-13.1234
anneau	-13.1234
horaire	-13.1234
élaboration	-13.1234
internat	-13.1234
chinois	-13.1234
situation	-13.1234
espèce	-13.1235
cras	-13.1235
soeur	-13.1242
céder	-13.125
▁Limo	-13.1269
▁plongé	-13.1274
pillar	-13.1288
identifie	-13.1295
▁allume	-13.1297
▁Morie	-13.1299
glace	-13.13
▁toilett	-13.1316
lourd	-13.1324
▁croche	-13.1331
humidi	-13.1337
maçon	-13.134
▁mécha	-13.1344
ographie	-13.135
▁artificiel	-13.135
▁délibér	-13.1351
▁Triom	-13.1352
résor	-13.1353
▁peint	-13.1353
preneur	-13.1355
▁recueil	-13.1356
euple	-13.1356
ietnam	-13.1356
▁royau	-13.1356
lastique	-13.1356
▁compéti	-13.1356
▁beignets	-13.1356
▁atteign	-13.1356
▁cafèt	-13.1356
▁judiciaire	-13.1356
▁périodique	-13.1356
▁recouvre	-13.1356
▁soulève	-13.1356
▁viticult	-13.1356
Lambert	-13.1356
Thomas	-13.1356
annibal	-13.1356
apparition	-13.1356
auxiliaire	-13.1356
briefing	-13.1356
dinosaure	-13.1356
embouteill	-13.1356
gymnasiale	-13.1356
scandinave	-13.1356
éboueur	-13.1356
éditorial	-13.1356
▁Christian	-13.1356
▁RMI	-13.1356
▁RTB	-13.1356
▁adopté	-13.1356
▁affirmé	-13.1356
▁amazon	-13.1356
▁anglo	-13.1356
▁ardoise	-13.1356
▁bourguignon	-13.1356
▁braderie	-13.1356
▁britannique	-13.1356
▁bénéfique	-13.1356
▁complication	-13.1356
▁consommé	-13.1356
▁coordonnée	-13.1356
▁culpabilis	-13.1356
▁demandons	-13.1356
▁débrouillai	-13.1356
▁découpage	-13.1356
▁décourage	-13.1356
▁dénasalis	-13.1356
▁flash	-13.1356
▁fougère	-13.1356
▁gothique	-13.1356
▁habile	-13.1356
▁hommage	-13.1356
▁hostile	-13.1356
▁instauré	-13.1356
▁libère	-13.1356
▁maquillée	-13.1356
▁mensonge	-13.1356
▁ménagère	-13.1356
▁métaphore	-13.1356
▁néolibéral	-13.1356
▁pakistan	-13.1356
▁paragraphe	-13.1356
▁pessimis	-13.1356
▁prescription	-13.1356
▁procédé	-13.1356
▁préjugé	-13.1356
▁pédiatr	-13.1356
▁recharge	-13.1356
▁recruté	-13.1356
▁redressé	-13.1356
▁représentatif	-13.1356
▁restrictif	-13.1356
▁secrète	-13.1356
▁sophistiqué	-13.1356
▁soupçon	-13.1356
▁spectaculaire	-13.1356
▁spiritu	-13.1356
▁statistique	-13.1356
▁torrent	-13.1356
▁tronçon	-13.1356
▁vaccin	-13.1356
▁vinaigre	-13.1356
▁végétal	-13.1356
▁véhiculaire	-13.1356
exclusi	-13.1356
▁chariot	-13.1356
▁chronométr	-13.1356
▁consulté	-13.1356
▁ellip	-13.1356
▁génétique	-13.1356
▁mortuaire	-13.1356
▁rigoureu	-13.1356
▁réconfort	-13.1356
▁sublim	-13.1356
migrant	-13.1356
échéance	-13.1356
▁achevé	-13.1356
▁diffère	-13.1356
▁polygam	-13.1356
▁rectang	-13.1356
▁régressi	-13.1356
lexandr	-13.1356
lexicographi	-13.1356
▁réglementation	-13.1356
▁tampon	-13.1356
▁traîné	-13.1356
▁promené	-13.1356
▁Stra	-13.1356
▁basketteur	-13.1356
▁monitor	-13.1356
▁Sèvres	-13.1356
▁concessionnaire	-13.1356
▁clignote	-13.1356
▁ludique	-13.1356
▁racket	-13.1356
▁Adani	-13.1356
▁ferrure	-13.1356
Anderl	-13.1356
▁immers	-13.1356
▁Jeunes	-13.1356
énoncé	-13.1356
▁fluo	-13.1356
▁norv	-13.1356
▁échappé	-13.1356
▁professionnalis	-13.1356
▁Polonais	-13.1356
▁calmé	-13.1356
▁consistan	-13.1356
▁interrompu	-13.1356
rnade	-13.1357
▁charrue	-13.1357
▁rhinocér	-13.1357
olluwé	-13.1357
▁Malte	-13.1357
▁empile	-13.1357
▁déficit	-13.1357
uchini	-13.1357
▁excessive	-13.1357
▁farci	-13.1357
▁précieuse	-13.1357
▁dotation	-13.1357
▁greffe	-13.1357
▁dépassai	-13.1357
▁reviendron	-13.1357
▁charbonnage	-13.1357
▁fonctionnalité	-13.1357
anarchi	-13.1357
remédi	-13.1357
▁plateforme	-13.1357
▁tract	-13.1357
▁foncière	-13.1357
▁savoureu	-13.1357
▁recueilli	-13.1357
▁plaisanterie	-13.1357
Epina	-13.1357
▁minable	-13.1357
▁organisateur	-13.1357
▁uniforme	-13.1357
effondre	-13.1357
▁éparpillé	-13.1357
▁percé	-13.1357
plane	-13.1358
▁crabe	-13.1358
immatriculation	-13.1358
▁Borain	-13.1358
▁racl	-13.1358
▁chassé	-13.1358
plana	-13.1358
▁work	-13.1358
▁Fred	-13.1358
▁agenouill	-13.1358
▁blouse	-13.1358
▁Régional	-13.1359
▁sensationnel	-13.1359
autorise	-13.1359
▁décolleté	-13.1359
▁Leuv	-13.1359
affection	-13.1359
alpag	-13.1359
▁Carlo	-13.136
▁élémentaire	-13.136
▁Daum	-13.136
▁Auro	-13.136
▁Charli	-13.136
▁rachète	-13.1361
otra	-13.1361
▁objective	-13.1361
▁trotteur	-13.1361
ffilée	-13.1362
▁photocopieuse	-13.1362
écile	-13.1362
▁Moulin	-13.1364
▁allure	-13.1366
▁SMI	-13.1366
▁sédui	-13.1367
thermal	-13.1368
▁Pino	-13.1369
rême	-13.1369
vitale	-13.1371
NAC	-13.1372
inédi	-13.1374
▁tiendr	-13.1378
Léon	-13.1381
▁prétention	-13.1382
TP	-13.1383
liqué	-13.1388
▁déterminant	-13.139
Egypt	-13.1391
▁Lang	-13.1391
▁vesti	-13.1391
rmative	-13.1392
▁rompu	-13.1396
▁palier	-13.1396
▁CLA	-13.1396
génère	-13.14
▁Dieg	-13.1404
olly	-13.1405
▁tutoie	-13.143
extension	-13.1434
▁quittai	-13.1438
hras	-13.1443
ecôte	-13.1449
▁Fête	-13.145
couver	-13.1454
solaire	-13.1456
▁beig	-13.1459
estampill	-13.1465
▁chapiteau	-13.147
AJ	-13.1518
réf	-13.1521
▁maîtris	-13.1527
▁Gaul	-13.1543
▁fich	-13.1545
▁Sara	-13.1554
▁jongl	-13.1557
▁nasal	-13.1583
loupe	-13.1587
▁succéd	-13.1676
▁ponc	-13.1683
▁Mexi	-13.1697
▁espéran	-13.1758
murale	-13.1759
▁barré	-13.1772
▁confirm	-13.1778
▁redemand	-13.1791
AI	-13.1824
▁photocopieu	-13.1853
▁démissionn	-13.1904
▁appliqu	-13.191
▁étudi	-13.1912
▁perfor	-13.1928
▁évolu	-13.194
ebdo	-13.1946
▁épin	-13.1973
frique	-13.1983
▁reviendrai	-13.1988
▁origina	-13.2069
▁laissai	-13.2086
fossil	-13.2151
▁ennuy	-13.2175
▁repens	-13.2183
civile	-13.2257
▁oppos	-13.2259
▁Jardi	-13.2324
▁strict	-13.2333
▁évalu	-13.2364
▁écha	-13.2369
▁cartouche	-13.2419
▁superpose	-13.2432
établi	-13.2441
cycl	-13.2481
éléphant	-13.2481
artisanat	-13.2481
océan	-13.2482
exerce	-13.2482
apprenai	-13.2482
anecdote	-13.2483
exigence	-13.2483
grenouille	-13.2483
assiette	-13.2484
moteur	-13.2484
fromage	-13.2484
financement	-13.2484
évidem	-13.2485
première	-13.2485
français	-13.2485
langue	-13.2485
cercle	-13.2485
envoyai	-13.2486
version	-13.2486
▁cohéren	-13.2487
russe	-13.2492
alterna	-13.2496
▁émett	-13.2496
Antoin	-13.2498
▁palm	-13.2499
▁bott	-13.25
▁présid	-13.25
ortement	-13.2506
xécutif	-13.2509
associe	-13.2541
améliore	-13.2545
▁débarrasse	-13.2545
anesthési	-13.2557
▁éduqu	-13.2562
▁soixant	-13.2564
▁attracti	-13.2565
nstitut	-13.2565
▁périphéri	-13.2571
▁familia	-13.2584
▁municipa	-13.2586
archiv	-13.2591
▁boulang	-13.2597
▁détermin	-13.2602
▁Louv	-13.2603
▁gouvern	-13.2605
disciplin	-13.2605
ougoslav	-13.2606
proprié	-13.2606
▁licencie	-13.2606
▁reloge	-13.2606
éteign	-13.2606
▁controvers	-13.2606
▁déclenche	-13.2606
▁pseudo	-13.2606
▁sommaire	-13.2606
Grégoire	-13.2606
nombrable	-13.2606
vivipare	-13.2606
échevin	-13.2606
▁Brabant	-13.2606
▁affiché	-13.2606
▁agressiv	-13.2606
▁bambou	-13.2606
▁bibliographie	-13.2606
▁bibliothécaire	-13.2606
▁blindé	-13.2606
▁cacahuète	-13.2606
▁conquête	-13.2606
▁constructeur	-13.2606
▁contradictoire	-13.2606
▁costard	-13.2606
▁critiqué	-13.2606
▁culpabilité	-13.2606
▁didacti	-13.2606
▁déconseill	-13.2606
▁déformation	-13.2606
▁dégradé	-13.2606
▁désastre	-13.2606
▁effrayé	-13.2606
▁embarrassé	-13.2606
▁encouragé	-13.2606
▁englobe	-13.2606
▁excellence	-13.2606
▁funérarium	-13.2606
▁graphie	-13.2606
▁hamster	-13.2606
▁imposant	-13.2606
▁imprimé	-13.2606
▁incidence	-13.2606
▁inspiré	-13.2606
▁jurassien	-13.2606
▁justification	-13.2606
▁karaoké	-13.2606
▁langagière	-13.2606
▁lieutenant	-13.2606
▁législati	-13.2606
▁mobylette	-13.2606
▁modéré	-13.2606
▁morphologie	-13.2606
▁nutrition	-13.2606
▁organique	-13.2606
▁personnalisé	-13.2606
▁pitbull	-13.2606
▁procureur	-13.2606
▁provocation	-13.2606
▁puzzle	-13.2606
▁qualitatif	-13.2606
▁racaille	-13.2606
▁rattaché	-13.2606
▁remboursé	-13.2606
▁retrace	-13.2606
▁revendication	-13.2606
▁ruban	-13.2606
▁réplique	-13.2606
▁révolte	-13.2606
▁révèle	-13.2606
▁silhouette	-13.2606
▁stérile	-13.2606
▁supposé	-13.2606
▁sédentaire	-13.2606
▁tabouret	-13.2606
▁tigre	-13.2606
▁traumatisé	-13.2606
▁vocable	-13.2606
▁échelon	-13.2606
accroupi	-13.2606
▁Fédération	-13.2606
▁appréhend	-13.2606
▁bêche	-13.2606
▁certifié	-13.2606
▁corbeille	-13.2606
▁hobb	-13.2606
▁hospitalisé	-13.2606
▁phyto	-13.2606
▁pianiste	-13.2606
▁précipita	-13.2606
▁républicain	-13.2606
▁solliciter	-13.2606
▁suggér	-13.2606
▁tragique	-13.2606
efforce	-13.2606
expatri	-13.2606
imparfait	-13.2606
▁Baptist	-13.2606
▁DESS	-13.2606
▁Fantas	-13.2606
▁clandestin	-13.2606
▁disposé	-13.2606
▁mandala	-13.2606
▁ventilateur	-13.2606
crypte	-13.2606
▁métropole	-13.2606
▁compensé	-13.2606
▁notice	-13.2606
▁neurone	-13.2606
▁sacrifié	-13.2606
▁anglophone	-13.2606
Pasteur	-13.2606
▁discothèque	-13.2606
▁verdure	-13.2606
uatre	-13.2606
▁Cologn	-13.2606
▁symptôme	-13.2606
blabla	-13.2606
▁voûte	-13.2606
ercing	-13.2606
incompréhensi	-13.2606
agrément	-13.2606
▁sexuali	-13.2606
econde	-13.2606
épouille	-13.2606
▁docker	-13.2606
▁déclare	-13.2606
▁meublé	-13.2606
allocation	-13.2607
▁vêtu	-13.2607
▁combine	-13.2607
▁yougoslave	-13.2607
hétéro	-13.2607
▁Doub	-13.2607
▁blue	-13.2607
▁germe	-13.2607
▁regagn	-13.2607
▁veine	-13.2607
▁fantais	-13.2607
▁décompose	-13.2607
▁variation	-13.2607
▁vélomoteur	-13.2607
▁abordable	-13.2607
▁rallie	-13.2607
▁bijoutier	-13.2607
anatomi	-13.2607
éronique	-13.2607
▁jeûne	-13.2607
▁biennale	-13.2607
Alfort	-13.2607
▁Fabien	-13.2607
▁Libert	-13.2607
▁touchai	-13.2607
▁assimilé	-13.2607
pirate	-13.2607
▁atroce	-13.2607
▁détendu	-13.2607
Auvergn	-13.2607
▁spee	-13.2607
▁périp	-13.2608
▁Point	-13.2608
▁burin	-13.2608
▁Poko	-13.2608
▁intact	-13.2608
▁rituel	-13.2608
▁trahi	-13.2608
▁brume	-13.2608
achève	-13.2608
▁visual	-13.2608
▁Phoe	-13.2609
▁Forest	-13.2609
▁yaourtière	-13.2609
▁Templ	-13.2609
▁frileu	-13.2609
martine	-13.2609
▁doyen	-13.2609
▁garée	-13.2609
▁bienfaisan	-13.2609
▁torse	-13.2609
▁chiot	-13.2609
▁familiaris	-13.2609
▁crotte	-13.2609
▁Mathi	-13.261
▁urne	-13.261
oku	-13.261
▁cardio	-13.261
▁parachutis	-13.2611
▁tunisien	-13.2611
▁pensionna	-13.2611
▁bugg	-13.2612
croûte	-13.2612
▁virtuel	-13.2612
biographie	-13.2612
▁palmier	-13.2612
▁brochette	-13.2614
▁tournaisien	-13.2614
empresse	-13.2614
▁polype	-13.2615
▁perver	-13.2616
niale	-13.2617
▁réorient	-13.2619
▁raciste	-13.2619
terrestre	-13.2619
▁modal	-13.2619
power	-13.262
▁noyau	-13.2623
câlin	-13.2635
▁redevien	-13.2637
▁gerb	-13.2642
▁Robe	-13.2644
bourgeoise	-13.2645
▁pérenn	-13.2649
Simon	-13.2653
▁roubl	-13.2678
Arago	-13.2684
papa	-13.2685
accroch	-13.2688
ajor	-13.269
▁magnéto	-13.2694
Sév	-13.2701
mordu	-13.2702
Chalon	-13.2702
jadis	-13.272
uisson	-13.2725
▁rétabli	-13.2728
orbe	-13.2752
▁mériterai	-13.278
cartouches	-13.2798
capital	-13.2805
▁désist	-13.2869
éret	-13.2899
▁dégueu	-13.2905
attaqu	-13.2937
▁malsain	-13.2948
réanimation	-13.2956
connaissons	-13.2969
arak	-13.2988
▁Ista	-13.2998
frir	-13.3
▁palli	-13.3024
échapp	-13.3089
ergère	-13.3144
uniform	-13.3182
▁provien	-13.3217
▁pratiqu	-13.3249
▁malpoli	-13.3358
foo	-13.3372
▁cloch	-13.3482
▁recherch	-13.3644
ensuit	-13.3655
▁entreprend	-13.368
parleur	-13.3681
▁capita	-13.3741
EDE	-13.3775
▁désesp	-13.3777
affole	-13.3788
▁design	-13.3808
introducti	-13.3872
▁fêt	-13.3874
▁adapt	-13.3898
Claude	-13.391
assume	-13.391
ignore	-13.391
étouffe	-13.391
étonné	-13.3911
existant	-13.3911
effectue	-13.3911
interprète	-13.3911
masculin	-13.3912
atmosph	-13.3912
bronze	-13.3912
fontaine	-13.3912
plume	-13.3912
allumer	-13.3913
africain	-13.3913
guitare	-13.3913
possibilité	-13.3913
retraite	-13.3913
apercev	-13.3913
fenêtre	-13.3914
two	-13.3918
▁méthod	-13.3923
▁anecdot	-13.3928
fixe	-13.3942
▁répét	-13.3956
▁bouché	-13.3965
ennuye	-13.3973
▁modifie	-13.3974
enfui	-13.3979
▁pizz	-13.3983
▁garag	-13.3989
▁répétiti	-13.4003
▁internationa	-13.401
▁déjeun	-13.4027
▁éventuel	-13.4028
ribuna	-13.4031
horizo	-13.4032
▁Commun	-13.4033
▁compensat	-13.4033
esclav	-13.4033
éparpill	-13.4033
▁object	-13.4034
luwé	-13.4035
▁Denfert	-13.4035
▁indirecte	-13.4035
▁revaloris	-13.4035
▁rhéto	-13.4035
Belgicismes	-13.4035
Fanny	-13.4035
empaillé	-13.4035
ethnocentri	-13.4035
expérimentation	-13.4035
hémorragie	-13.4035
illustration	-13.4035
intérim	-13.4035
symétrique	-13.4035
sérigraphie	-13.4035
vasculaire	-13.4035
écureuil	-13.4035
épiderme	-13.4035
▁Arménie	-13.4035
▁Audois	-13.4035
▁Bergo	-13.4035
▁Chevènement	-13.4035
▁Marollien	-13.4035
▁Naruto	-13.4035
▁Ronald	-13.4035
▁aberrant	-13.4035
▁aligné	-13.4035
▁autrichien	-13.4035
▁bagnole	-13.4035
▁benjamine	-13.4035
▁challenge	-13.4035
▁clôturé	-13.4035
▁comparable	-13.4035
▁connotation	-13.4035
▁contemple	-13.4035
▁disquaire	-13.4035
▁dissertation	-13.4035
▁divertissement	-13.4035
▁décennie	-13.4035
▁déclinaison	-13.4035
▁défavorable	-13.4035
▁dégringol	-13.4035
▁déguisé	-13.4035
▁démocratis	-13.4035
▁détresse	-13.4035
▁effacé	-13.4035
▁engueulé	-13.4035
▁exaspéra	-13.4035
▁exigé	-13.4035
▁fainéant	-13.4035
▁fermière	-13.4035
▁fâché	-13.4035
▁gastronomie	-13.4035
▁hangar	-13.4035
▁haricot	-13.4035
▁homosexuel	-13.4035
▁huître	-13.4035
▁incorpor	-13.4035
▁incorrect	-13.4035
▁inévitable	-13.4035
▁marécha	-13.4035
▁millième	-13.4035
▁multinationale	-13.4035
▁mythique	-13.4035
▁norvégien	-13.4035
▁pieuvre	-13.4035
▁praline	-13.4035
▁prostituée	-13.4035
▁prototype	-13.4035
▁préservé	-13.4035
▁quantitative	-13.4035
▁réciproque	-13.4035
▁rédacteur	-13.4035
▁réticent	-13.4035
▁révolté	-13.4035
▁révéler	-13.4035
▁saoûl	-13.4035
▁soprano	-13.4035
▁stimule	-13.4035
▁symbio	-13.4035
▁textile	-13.4035
▁torsade	-13.4035
▁trajectoire	-13.4035
▁transversal	-13.4035
▁téléchargé	-13.4035
▁utopi	-13.4035
▁vidange	-13.4035
▁épidémi	-13.4035
▁évacué	-13.4035
amalgame	-13.4035
hypno	-13.4035
▁cameroun	-13.4035
▁déchiffr	-13.4035
▁dépensé	-13.4035
▁emprisonn	-13.4035
▁intensive	-13.4035
▁knedli	-13.4035
▁modernité	-13.4035
▁nostalgi	-13.4035
▁protège	-13.4035
▁pulsion	-13.4035
Brigitte	-13.4035
algérien	-13.4035
antiquaire	-13.4035
▁affectif	-13.4035
▁complique	-13.4035
▁consistai	-13.4035
▁culinaire	-13.4035
▁diamant	-13.4035
▁endogène	-13.4035
▁gîte	-13.4035
▁homard	-13.4035
▁récif	-13.4035
▁slogan	-13.4035
▁stoemp	-13.4035
▁sérén	-13.4035
▁épicé	-13.4035
▁booste	-13.4035
▁tobog	-13.4035
▁compliment	-13.4035
▁truite	-13.4035
▁verrière	-13.4035
▁caniche	-13.4035
▁dénatur	-13.4035
▁flân	-13.4035
▁traumatise	-13.4035
ambodg	-13.4035
▁fourrure	-13.4035
▁navire	-13.4035
▁rongé	-13.4035
▁souffrai	-13.4035
aptitude	-13.4035
▁Pink	-13.4035
▁trimbal	-13.4035
▁émouv	-13.4035
mpathi	-13.4035
▁gastro	-13.4035
▁absorbé	-13.4035
▁bourré	-13.4035
▁brusque	-13.4035
▁Messie	-13.4035
▁rando	-13.4035
mêlée	-13.4035
▁lyrique	-13.4035
▁cuisiné	-13.4035
maritime	-13.4035
▁mordille	-13.4035
▁Ecoss	-13.4035
matérialis	-13.4035
▁injuste	-13.4035
▁papy	-13.4035
▁confrère	-13.4035
▁Full	-13.4035
▁brasserie	-13.4035
▁innocent	-13.4035
▁surnom	-13.4035
encaisse	-13.4035
▁virtuos	-13.4035
▁inju	-13.4035
▁successif	-13.4035
▁crash	-13.4035
avènement	-13.4035
▁Barthe	-13.4035
▁arcane	-13.4035
▁lustre	-13.4035
▁lipide	-13.4036
▁gifl	-13.4036
▁enclo	-13.4036
prononça	-13.4036
▁secoué	-13.4036
nvocation	-13.4036
▁faîte	-13.4036
▁résidentiel	-13.4036
▁souviendr	-13.4036
▁tropicale	-13.4036
weet	-13.4036
ougou	-13.4036
▁institutionnel	-13.4036
▁plantation	-13.4036
▁dénominat	-13.4036
lymp	-13.4036
▁referai	-13.4036
▁canot	-13.4037
▁latéral	-13.4037
ù	-15.8533
