de 58913
c'est 45548
euh 45465
que 40184
et 39603
je 38148
le 38053
la 34920
pas 32553
les 31367
à 30396
ça 29889
un 28225
il 27896
on 26924
des 25662
qui 23987
a 23310
en 23293
mais 22221
tu 19142
une 15886
dans 15542
pour 15151
vous 13817
est 12732
fait 12516
ce 12426
y 12364
j'ai 11629
oui 11523
donc 11277
plus 11231
du 11216
tout 10929
ils 10523
parce 10493
non 10039
là 10018
ouais 9187
quand 9172
si 9026
elle 8971
moi 8721
au 8646
comme 8484
bien 8125
avec 8112
ou 7612
bon 7598
même 7411
sur 7377
hein 7205
quoi 6908
par 6858
c'était 6722
ben 6626
alors 6584
me 6537
faire 6476
NNAAMMEE 6039
se 6019
peu 5871
qu'on 5846
qu'il 5731
sont 5711
enfin 5680
nous 5635
sais 5593
très 5368
avait 5241
puis 5158
va 5148
ah 4866
aussi 4857
dit 4763
suis 4506
ont 4502
dire 4403
ne 4359
deux 4102
était 4089
lui 4081
après 4074
où 4000
faut 3743
beaucoup 3702
voilà 3581
mon 3482
gens 3461
as 3449
peut 3264
vraiment 3264
tous 3160
cette 3009
vrai 2901
fois 2899
son 2891
temps 2793
vois 2733
toujours 2724
petit 2704
te 2693
été 2633
encore 2557
être 2546
trop 2545
ma 2494
crois 2456
eu 2438
pense 2370
déjà 2363
comment 2353
leur 2335
chose 2334
maintenant 2330
vais 2321
voir 2304
peut-être 2265
qu'ils 2261
ans 2257
trois 2193
moins 2064
avez 2039
j'avais 2031
veux 1977
rien 1943
ces 1935
sa 1928
vu 1892
français 1882
aux 1811
choses 1788
est-ce 1776
peux 1775
d'un 1753
jamais 1727
mes 1727
oh 1723
aller 1714
avoir 1713
ici 1689
d'accord 1686
s'est 1662
j'étais 1661
dis 1620
fais 1599
quelque 1594
parler 1564
mal 1552
soit 1551
toi 1532
chez 1524
m'a 1509
toute 1508
avant 1475
qu'elle 1465
heures 1463
ses 1433
moment 1424
autre 1409
assez 1399
cours 1398
entre 1388
côté 1384
es 1371
exemple 1367
sûr 1332
truc 1329
trouve 1317
parle 1298
sans 1263
qu'est-ce 1261
juste 1246
d'une 1233
monde 1225
hum 1223
bah 1211
mois 1211
toutes 1207
coup 1205
jour 1183
travail 1176
étaient 1173
ai 1165
enfants 1162
pendant 1154
quatre 1154
vie 1145
veut 1134
votre 1123
elles 1061
prendre 1061
plutôt 1057
cinq 1054
problème 1052
n'a 1049
souvent 1049
autres 1045
eux 1045
depuis 1037
genre 1030
quartier 1024
contre 1022
mettre 1022
notre 1017
Paris 1015
personne 1013
j'en 1011
ton 1011
personnes 1003
vont 992
font 989
d'autres 988
niveau 988
c'est-à-dire 986
n'est 982
mieux 978
l'autre 968
petite 968
jours 963
justement 961
doit 956
partie 943
faisait 933
pourquoi 921
surtout 919
rapport 911
trucs 902
chaque 885
pris 883
parents 874
première 870
maison 863
année 862
part 862
façon 849
fin 841
place 840
question 839
dix 834
l'ai 832
passe 831
rue 826
eh 823
êtes 820
mis 807
partir 804
langue 793
petits 792
quelqu'un 788
puisque 785
passer 784
semaine 783
grand 781
France 775
quelques 774
l'école 773
plein 768
mère 759
d'ailleurs 750
j'aime 749
avaient 748
vas 747
mh 744
premier 744
savoir 742
ville 733
voit 730
envie 726
cas 724
ait 715
hm 715
passé 714
tellement 713
sinon 711
sera 708
vingt 708
père 705
travailler 705
s 704
allez 699
cent 695
connais 693
là-bas 692
sait 689
amorce 688
d'@@ 688
serait 686
soir 685
six 683
pays 679
d'avoir 676
cet 674
femme 673
pouvoir 670
nos 668
famille 665
sens 661
compte 660
près 660
matin 659
ta 659
accent 653
bonne 645
vient 640
jeunes 638
vers 636
dernière 634
l'année 622
pareil 621
donné 617
loin 617
début 614
caetera 613
trouver 611
pu 610
donner 609
l'a 608
parlent 608
l'@@ 604
mm 604
d'être 602
arrive 599
allait 598
super 592
mille 591
ceux 589
jusqu'à 589
années 586
tes 585
j'y 578
leurs 576
devant 573
voiture 572
point 569
gros 568
reste 567
musique 565
jeune 564
disons 561
donne 561
forcément 561
fille 558
besoin 557
tant 554
général 545
s'il 545
commencé 544
ensuite 543
pff 542
difficile 540
huit 538
deuxième 537
mots 535
demande 532
bout 530
prend 526
quel 526
l'impression 522
tête 521
grande 520
suite 520
beau 519
dirais 518
seul 516
vite 514
fallait 511
avais 510
plusieurs 508
région 504
finalement 501
trente 500
monsieur 499
parlé 497
manger 496
vacances 495
l'heure 494
journée 491
derrière 490
certains 489
disait 485
aujourd'hui 480
sept 479
longtemps 477
train 477
celui 474
droit 472
problèmes 472
dois 468
vos 468
travaille 467
venir 467
chercher 466
prof 466
d'abord 465
nom 465
dû 461
amis 460
arrivé 459
formation 458
heure 456
dont 455
met 455
minutes 453
possible 452
effectivement 448
l'accent 447
aura 446
wallon 445
syllabes 444
voyez 444
aurait 441
euros 441
sous 441
important 440
s'en 440
cher 439
peur 439
voulez 439
suites 438
essayer 434
allé 432
regarde 432
porte 431
études 431
l'époque 430
viennent 430
milieu 429
petites 429
ni 428
quinze 427
combien 426
commence 426
intéressant 426
seule 422
peuvent 418
pourrait 417
trouvé 414
qu'en 412
parfois 411
évidemment 410
d'aller 408
vieux 408
groupe 405
mets 404
savez 404
certain 400
voulais 400
demander 399
jouer 396
faudrait 395
qu'à 394
j'aurais 393
mot 393
parti 393
cinquante 391
attends 386
prends 386
demandé 383
sortir 383
ensemble 381
avons 379
fond 379
re@@ 379
facile 378
film 378
manière 378
quelle 377
nuit 376
disais 375
avis 374
nombre 374
dès 373
vivre 371
fils 370
fort 369
prix 368
s'appelle 368
l'on 365
classe 364
dessus 364
pouvait 363
lieu 362
neuf 362
voulait 362
clair 361
disent 360
allée 359
faites 358
autour 353
entendu 352
dur 351
lycée 351
merci 351
mêmes 349
histoire 348
fini 346
m'en 346
métier 345
salle 345
viens 345
dernier 344
an 343
collège 341
haut 341
troisième 339
j'aimerais 338
qu'un 335
anglais 334
presque 332
complètement 331
main 329
franchement 328
marché 328
marche 326
certaines 323
partout 323
chance 322
exactement 322
nouveau 322
sympa 319
appris 318
mort 318
n'importe 318
madame 317
rester 317
tard 317
terre 316
cela 312
demain 311
long 311
pied 311
l'eau 310
vue 310
comprendre 309
chacun 308
dépend 307
maman 306
normalement 305
compris 304
simplement 303
belle 302
devait 302
départ 302
pouvez 302
village 302
cents 301
apprendre 300
j'allais 300
veulent 300
arriver 299
carte 299
service 298
culture 296
regarder 296
filles 295
grands 295
également 295
m'@@ 294
rentrer 294
roi 294
sauf 294
moment-là 293
connu 292
autant 291
limite 291
japonais 290
parlait 290
l'instant 287
mètres 287
questions 287
semaines 287
sport 287
dedans 286
faisais 286
bas 285
face 284
française 283
comprends 282
projet 282
seulement 282
bé 281
appelle 280
écoute 279
fac 278
homme 278
base 277
changé 276
dehors 276
aient 275
n'ont 275
public 273
écrit 273
centre 272
l' 272
permet 271
tel 271
n'ai 270
n'y 270
tiens 270
cheval 268
hier 268
jeu 268
l'air 268
souviens 267
incompréhensibles 266
école 266
endroit 265
quarante 265
voulu 265
douze 264
qu'une 264
étudiants 264
Belgique 263
choix 263
fasse 263
m'ont 263
connaît 262
différents 262
changer 261
grandes 260
Japon 259
élèves 259
lire 257
langues 256
machin 256
différentes 255
m'avait 255
travaillé 255
Français 253
obligé 252
raison 252
chambre 251
laisse 251
politique 251
société 251
tour 251
attention 249
différent 249
frère 249
celle 248
café 247
langage 246
soeur 246
venu 246
pièce 245
essayé 244
disant 243
sorte 242
l'histoire 241
mer 241
rentre 241
rappelle 240
revenir 240
savais 240
week-end 240
cuisine 239
regardé 239
absolument 238
bizarre 238
vécu 238
mari 237
étais 237
étant 237
boulot 235
demi 234
plaisir 233
bureau 232
fonction 232
l'argent 232
livre 232
n'en 232
- 231
coin 231
existe 231
j'arrive 231
l'université 230
laisser 230
là-dessus 229
métro 229
semble 229
Bruxelles 227
bonjour 227
films 227
guerre 227
doivent 226
simple 226
numéro 225
payer 225
profs 225
évident 225
enfant 224
femmes 224
coeur 223
normal 223
plan 223
sommes 223
t'@@ 223
celui-là 221
type 221
arrivée 220
gauche 220
prochaine 220
samedi 220
bons 219
s'@@ 219
certaine 218
idée 218
joue 218
m 218
l'intérieur 217
copains 216
dé@@ 216
téléphone 216
moyens 215
rôle 215
soixante 215
dimanche 214
forme 214
gars 214
grave 214
ami 213
hommes 213
sort 212
mmh 211
acheté 210
bois 210
dix-huit 210
espèce 210
pourtant 210
recherche 210
voix 210
commencer 209
peine 209
qu' 209
jeux 208
poser 208
propre 208
qualité 208
d'autre 207
faisaient 207
réussi 207
aucun 206
perdu 206
dites 205
faudra 205
livres 205
internet 204
acheter 202
cause 202
chaud 202
points 202
différence 201
lendemain 201
quatorze 201
grosse 200
mains 200
quartiers 200
bord 199
pourrais 199
é 199
nan 198
francs 197
Dieu 196
directement 196
mise 196
photo 196
change 195
ent 195
l'homme 195
n'avait 195
n'avez 195
professeur 195
route 195
mesure 194
plaît 194
vachement 194
vingt-cinq 194
aime 193
communication 193
fête 193
système 193
table 193
voyage 193
ée 193
c'étaient 192
pensais 192
retrouver 192
aimé 191
contact 191
partis 191
savent 191
sujet 191
âge 191
énormément 190
j'@@ 189
particulier 189
pieds 189
devrait 188
l'occasion 188
qu'elles 188
voudrais 188
écoles 188
mec 187
ouvert 187
puisse 187
situation 187
vendredi 187
dossier 186
papier 186
compliqué 185
doute 185
pose 185
autrement 184
s'ils 184
site 184
boire 183
droite 183
in@@ 183
pratique 183
bus 182
lit 182
lorsque 182
montrer 182
nouvelles 182
tableau 182
-@@ 181
l'idée 181
ligne 181
rendre 181
d' 180
fera 180
ok 180
revoir 180
bac 179
décidé 179
force 179
mettent 179
photos 179
retrouve 179
vaut 179
arrivent 178
magasin 178
Marseille 177
Montreuil 177
commerce 177
groupes 177
jusqu'au 177
sent 177
d'en 176
endroits 176
notamment 176
écrire 176
aucune 175
corps 175
manque 175
reprendre 175
suivi 175
marqué 174
monter 174
pouvais 174
yeux 174
Noël 173
certainement 173
courant 173
domaine 173
venait 173
vin 173
midi 172
théâtre 172
ais 171
passait 171
pensez 171
répondre 171
bonnes 170
contraire 170
resté 170
stage 170
terrain 170
plupart 169
sert 169
treize 169
venue 169
concours 168
montagne 168
paraît 168
principe 168
seize 168
technique 168
bruxellois 167
garde 167
n'était 167
soient 167
style 167
terme 167
kilomètres 166
période 166
cinéma 165
moyen 165
n'@@ 165
onze 165
population 165
sorti 165
suivre 165
texte 165
voyait 165
blanc 164
date 164
grand-mère 164
pardon 164
t 164
car 163
papa 163
pire 163
ailleurs 162
cadre 162
tomber 162
touche 162
radio 161
restaurant 161
dommage 160
l'anglais 160
moitié 160
s'était 160
savait 160
telle 160
activités 159
chemin 159
pourra 159
prononciation 159
réunion 159
campagne 158
familles 158
j'espère 158
verra 158
ainsi 157
facilement 157
l'as 157
préfère 157
télé 157
écoutez 157
OK 156
agréable 156
c 156
mangé 156
allés 155
appartement 155
garder 155
noir 155
primaire 155
qu'@@ 155
scène 155
suffit 155
cetera 154
choisi 154
horrible 154
lundi 154
nouvelle 154
rencontre 154
revient 154
reçu 154
journal 153
lequel 153
ré@@ 153
zéro 153
ant 152
dix-sept 152
entend 152
jardin 152
malgré 152
qu'est 152
soirée 152
souvenirs 152
ées 152
A 151
expliquer 151
mariage 151
marrant 151
professeurs 151
rapidement 151
sociale 151
tas 151
villes 151
és 151
étiez 151
fou 150
pain 150
clients 149
commerçants 149
connaissais 149
d'où 149
énorme 149
apparemment 148
arrêté 148
but 148
personnel 148
pratiquement 148
réponse 148
continuer 147
e 147
habite 147
l'un 147
oublié 147
passent 147
connaître 146
conseil 146
d'argent 146
produit 146
putain 146
devient 145
mairie 145
passée 145
penser 145
poste 145
premiers 145
selon 145
souvenir 145
communauté 144
quart 144
repas 144
vieille 144
arrivés 143
copain 143
l'NNAAMMEE 143
connaissez 142
marcher 142
n'est-ce 142
parlaient 142
quatrième 142
rend 141
viande 141
difficultés 140
mauvais 140
raconter 140
rencontré 140
tendance 140
commune 139
devais 139
générale 139
génération 139
j'imagine 139
prennent 139
uniquement 139
banlieue 138
continue 138
créer 138
juin 138
l'ensemble 138
rentrée 138
sortie 138
vélo 138
patois 137
penses 137
retour 137
social 137
t'en 137
x 137
d'accent 136
l 136
lu 136
pensé 136
travaux 136
actuellement 135
d'ici 135
feu 135
passage 135
pièces 135
septième 135
tandis 135
vocabulaire 135
aviez 134
copine 134
court 134
d'y 134
ferme 134
fêtes 134
mange 134
t'ai 134
C 133
drôle 133
jusque 133
l'aise 133
là-dedans 133
su 133
dame 132
envoyé 132
guillemets 132
j'aimais 132
mode 132
totalement 132
travers 132
choisir 131
demie 131
essaie 131
nature 131
parlais 131
phrases 131
rendez-vous 131
ceci 130
fleurs 130
laissé 130
m'as 130
maisons 130
parole 130
permis 130
posé 130
projets 130
voyais 130
chanson 129
d 129
devenu 129
direction 129
meilleur 129
notes 129
or 129
parles 129
régions 129
soleil 129
t'a 129
tenir 129
éventuellement 129
apprend 128
carrément 128
d'années 128
entreprise 128
garçon 128
logement 128
matière 128
moments 128
page 128
rire 128
risque 128
seront 128
tombe 128
télévision 128
cherche 127
expérience 127
lui-même 127
p 127
qu'au 127
repris 127
vendre 127
bras 126
joli 126
premières 126
s'appelait 126
vingt-quatre 126
attendre 125
au-dessus 125
collègues 125
confiance 125
courses 125
d'eau 125
froid 125
garçons 125
j'adore 125
malade 125
né 125
parcours 125
programme 125
sûre 125
amie 124
chef 124
lettres 124
ons 124
produits 124
préparer 124
venaient 124
allaient 123
bar 123
comprend 123
maître 123
rouge 123
semestre 123
venus 123
voisins 123
client 122
concert 122
cool 122
gagner 122
idées 122
solution 122
sud 122
après-midi 121
content 121
ez 121
fautes 121
flamand 121
prévu 121
spectacle 121
titre 121
vent 121
chevaux 120
coûte 120
d'études 120
danse 120
janvier 120
loi 120
quasiment 120
retourner 120
série 120
classes 119
connaissance 119
contente 119
dossiers 119
informations 119
l'âge 119
o 119
pauvre 119
vit 119
La 118
aider 118
devenir 118
fer 118
fil 118
linguistique 118
pierre 118
prise 118
régulièrement 118
suivant 118
tient 118
tranquille 118
tôt 118
S 117
coups 117
devoir 117
feuille 117
finir 117
gardé 117
joué 117
mercredi 117
voitures 117
état 117
boîte 116
bruit 116
hasard 116
résultats 116
époque 116
cartes 115
fermé 115
généralement 115
jeudi 115
l'été 115
lié 115
sûrement 115
vivent 115
écouter 115
contrat 114
couleur 114
gamins 114
laquelle 114
malheureusement 114
position 114
proche 114
raconte 114
sac 114
valeur 114
celle-là 113
club 113
concerne 113
disaient 113
extrêmement 113
génial 113
i 113
lettre 113
liste 113
mai 113
rues 113
sachant 113
accents 112
bientôt 112
cheveux 112
château 112
extraordinaire 112
grâce 112
j 112
matériel 112
obligée 112
pars 112
diplôme 111
dormir 111
entreprises 111
l'avais 111
l'extérieur 111
m'est 111
m'intéresse 111
magnifique 111
peinture 111
phrase 111
septembre 111
équipe 111
dessous 110
entendre 110
présenter 110
président 110
refaire 110
retrouvé 110
secteur 110
vis 110
donnait 109
aiment 108
appelé 108
ballon 108
commerces 108
discuter 108
l'habitude 108
lecture 108
là-haut 108
mémoire 108
parmi 108
qu'après 108
aide 107
bref 107
cité 107
dos 107
j' 107
l'avait 107
lumière 107
mélange 107
particulièrement 107
piano 107
pis 107
retraite 107
s'y 107
visiter 107
chien 106
dix-neuf 106
fromage 106
grosses 106
heureusement 106
histoires 106
lors 106
monte 106
nouveaux 106
présent 106
servir 106
voie 106
Suisse 105
arrives 105
façons 105
forêt 105
frais 105
hé 105
master 105
montre 105
raisons 105
remarqué 105
rendu 105
s'occupe 105
souci 105
termes 105
té 105
-là 104
Liège 104
allemand 104
animaux 104
bâtiment 104
charge 104
chiens 104
l'enseignement 104
l'esprit 104
licence 104
m'avez 104
message 104
mettait 104
monté 104
note 104
poissons 104
politiques 104
pouvaient 104
propres 104
quelquefois 104
scolaire 104
seconde 104
uns 104
al 103
connaissait 103
d'après 103
d'heure 103
devoirs 103
maximum 103
permettre 103
remettre 103
rencontrer 103
spécialement 103
travaillait 103
affaires 102
croire 102
era 102
expliqué 102
faite 102
hors 102
l'avez 102
mardi 102
parc 102
personnellement 102
professionnelle 102
siècle 102
vingtième 102
vraie 102
attend 101
cour 101
d'origine 101
dictionnaire 101
directeur 101
faits 101
faute 101
l'après-midi 101
l'enfant 101
moi-même 101
moyenne 101
musée 101
noms 101
proposé 101
sors 101
sécurité 101
trouvais 101
Charleroi 100
c' 100
demandes 100
différences 100
expressions 100
j'essaie 100
lis 100
mail 100
payé 100
police 100
propose 100
regardes 100
responsable 100
revenu 100
sixième 100
zone 100
affaire 99
compter 99
foi 99
gare 99
gérer 99
plat 99
rends 99
résultat 99
sang 99
sol 99
thème 99
actuelle 98
bouche 98
création 98
donnent 98
espace 98
serais 98
vert 98
couleurs 97
dise 97
effet 97
gestion 97
juillet 97
l'équipe 97
soi 97
tourner 97
découvrir 96
l'ont 96
logique 96
morceau 96
mur 96
perdre 96
quelles 96
rare 96
rentré 96
réalité 96
récupérer 96
textes 96
beaux 95
envoyer 95
espagnol 95
fiche 95
l'avenir 95
l'étranger 95
née 95
relations 95
sentiment 95
seuls 95
arrivait 94
arrête 94
atelier 94
l'hôpital 94
parlant 94
parlez 94
personnage 94
portes 94
professionnel 94
puisqu'on 94
relativement 94
répondu 94
sciences 94
services 94
tombé 94
activité 93
allons 93
association 93
bateau 93
chat 93
ciel 93
dirait 93
en@@ 93
fallu 93
jeunesse 93
lieux 93
médecin 93
poisson 93
prêt 93
réunions 93
terrible 93
travaillent 93
bibliothèque 92
conscience 92
continué 92
dieu 92
discours 92
er 92
gentil 92
imagines 92
ira 92
j'aurai 92
j'entends 92
lien 92
raconté 92
restée 92
soeurs 92
trente-cinq 92
utiliser 92
contacts 91
différente 91
document 91
marchand 91
merde 91
modèle 91
morceaux 91
s@@ 91
vente 91
verre 91
éléments 91
aimes 90
chambres 90
changement 90
débat 90
f 90
gamin 90
goût 90
hop 90
local 90
longue 90
machine 90
nourriture 90
prenait 90
profession 90
re 90
terminé 90
étudiant 90
budget 89
construit 89
l'entreprise 89
marque 89
papiers 89
possibilité 89
reconnaître 89
relation 89
retard 89
réfléchir 89
rêve 89
actions 88
calme 88
coupe 88
courrier 88
développement 88
l'immeuble 88
lait 88
libre 88
maîtrise 88
quels 88
tirer 88
T@@ 87
août 87
appeler 87
comité 87
commun 87
démarche 87
examens 87
feuilles 87
fonctionne 87
foot 87
frères 87
habitent 87
partait 87
patron 87
porter 87
presse 87
utilise 87
âgées 87
arrêter 86
carrière 86
chinois 86
conditions 86
connaissent 86
couper 86
d'apprendre 86
envoie 86
falloir 86
grammaire 86
médias 86
paroles 86
parties 86
santé 86
sentir 86
élève 86
assis 85
bouger 85
cherché 85
crise 85
créé 85
faisant 85
faux 85
final 85
formations 85
mars 85
présente 85
sites 85
travaillais 85
voulaient 85
vouloir 85
E 84
Le 84
belles 84
bête 84
capable 84
d'or 84
environ 84
fruits 84
nord 84
riche 84
s'expriment 84
serai 84
voient 84
A@@ 83
B@@ 83
S@@ 83
Saint-Ouen 83
action 83
aille 83
auraient 83
demandent 83
dessin 83
documents 83
double 83
j'habite 83
l'avoir 83
l'évolution 83
nombreux 83
reviens 83
s'agit 83
salles 83
salon 83
venez 83
M@@ 82
ante 82
commission 82
construire 82
difficulté 82
décembre 82
gagné 82
guitare 82
image 82
l'é@@ 82
morts 82
ouvrir 82
piscine 82
plage 82
puisqu'il 82
sortent 82
voyages 82
économique 82
Aix 81
accès 81
boulevard 81
commençait 81
essentiellement 81
meilleure 81
oiseaux 81
ordinateur 81
restent 81
trouves 81
anciens 80
attendez 80
avions 80
classique 80
définir 80
eurs 80
gouvernement 80
journaux 80
lourd 80
mauvaise 80
millions 80
organisé 80
parfait 80
sérieux 80
ateliers 79
banque 79
blanche 79
croyais 79
d'enfants 79
derniers 79
dernières 79
dure 79
maths 79
n 79
précis 79
s- 79
tableaux 79
université 79
visite 79
auprès 78
concerts 78
g@@ 78
gueule 78
jure 78
maire 78
os 78
ouh 78
qu'avant 78
remplir 78
éviter 78
Espagne 77
chansons 77
chanter 77
d'habitude 77
horaires 77
im@@ 77
l'ordre 77
littérature 77
magasins 77
maternelle 77
préparation 77
recevoir 77
saurais 77
surface 77
techniques 77
temps-là 77
toucher 77
traduction 77
P@@ 76
direct 76
données 76
frontière 76
l'état 76
personnages 76
r@@ 76
s'exprimer 76
secondes 76
senti 76
tenu 76
transports 76
vidéo 76
communiquer 75
con 75
enseignants 75
hyper 75
imaginer 75
importante 75
journaliste 75
journalistes 75
l'endroit 75
l'objectif 75
l'église 75
légumes 75
nécessaire 75
prenez 75
quatre-vingt 75
remarque 75
restait 75
réseau 75
suppose 75
vache 75
vingt-deux 75
age 74
chocolat 74
co@@ 74
connaissances 74
copines 74
courir 74
dirai 74
gagne 74
in 74
l'environnement 74
novembre 74
nul 74
objectif 74
pré@@ 74
retourne 74
soirées 74
vérifier 74
Angleterre 73
C@@ 73
D 73
Londres 73
Namur 73
allais 73
apporter 73
billet 73
carré 73
contrôle 73
d'heures 73
devaient 73
fous 73
grands-parents 73
l'oral 73
minimum 73
ministre 73
montré 73
murs 73
prochain 73
présence 73
quitter 73
rappeler 73
responsabilité 73
réussir 73
scolarité 73
soirs 73
sorties 73
tante 73
vas-y 73
veille 73
aurais 72
belge 72
contexte 72
entends 72
fenêtre 72
habitants 72
l'est 72
m'arrive 72
proches 72
proposer 72
quarante-cinq 72
refait 72
regardez 72
soucis 72
sympathique 72
ti@@ 72
tourne 72
vi@@ 72
Corse 71
ation 71
bouteille 71
chaussures 71
commercial 71
con@@ 71
désert 71
emploi 71
enfance 71
faim 71
formateur 71
impressionnant 71
nez 71
néerlandais 71
places 71
ter 71
v 71
-ce 70
Nord 70
T 70
chômage 70
collègue 70
erai 70
exprès 70
heureux 70
jouent 70
l'entrée 70
l'origine 70
large 70
m'énerve 70
maladie 70
milieux 70
mourir 70
mouvement 70
national 70
prince 70
propos 70
représente 70
règles 70
ski 70
sons 70
suffisamment 70
territoire 70
trouvait 70
villages 70
vins 70
voisin 70
volonté 70
B 69
E@@ 69
F@@ 69
L@@ 69
Saint 69
auras 69
cinquième 69
d'école 69
descendre 69
découvert 69
fur 69
habitait 69
jouait 69
l'image 69
locaux 69
logements 69
majorité 69
marre 69
match 69
passes 69
princesse 69
professionnels 69
s'arrête 69
sein 69
utilisé 69
Internet 68
U 68
associations 68
cru 68
d'anglais 68
devrais 68
guide 68
l'hiver 68
liens 68
métiers 68
onzième 68
pages 68
pause 68
paye 68
quitté 68
regardait 68
secrétaire 68
seizième 68
voire 68
vêtements 68
appel 67
cafés 67
communes 67
département 67
ferai 67
février 67
interdit 67
intérêt 67
j'irai 67
l'allemand 67
m'y 67
meilleurs 67
objectifs 67
paie 67
pauvres 67
per@@ 67
peuple 67
physique 67
privé 67
quatre-vingts 67
r 67
soixante-dix 67
tuer 67
CV 66
I 66
L 66
P 66
R 66
avance 66
bébé 66
chante 66
commande 66
correctement 66
côtés 66
dangereux 66
ouverte 66
pi@@ 66
pierres 66
plateau 66
plu 66
quotidien 66
religion 66
respect 66
régional 66
sois 66
étage 66
Tokyo 65
accepté 65
ants 65
arbres 65
bouge 65
correspond 65
disparu 65
informatique 65
intéresse 65
j'essaye 65
jaune 65
l'an 65
participer 65
portable 65
propriétaire 65
qu'avec 65
règle 65
sociales 65
sortes 65
taille 65
taper 65
triste 65
2 64
besoins 64
cave 64
chouette 64
clientèle 64
compagnie 64
descend 64
dessins 64
diction 64
dérange 64
gêne 64
l'amour 64
li@@ 64
morte 64
n@@ 64
naissance 64
niveaux 64
passés 64
pleine 64
pot 64
poussé 64
restés 64
s'occuper 64
trouvent 64
tés 64
vision 64
vivant 64
vus 64
vérité 64
émission 64
étrangers 64
D@@ 63
Sud 63
camp 63
centre-ville 63
coins 63
compétences 63
contents 63
d'NNAAMMEE 63
entier 63
eux-mêmes 63
francophones 63
instrument 63
l'éducation 63
mariée 63
passion 63
probablement 63
remonter 63
référent 63
souhaite 63
tombée 63
vide 63
vis-à-vis 63
étudiante 63
F 62
batterie 62
bosser 62
carrés 62
construction 62
d'elle 62
d'é@@ 62
développer 62
générations 62
habité 62
impossible 62
jour-là 62
l'appartement 62
l'association 62
l'avion 62
l'oeil 62
noirs 62
palais 62
perd 62
reine 62
sache 62
tait 62
tapis 62
types 62
u 62
Nancy 61
acquis 61
aimait 61
amené 61
ar@@ 61
blancs 61
bouquins 61
c@@ 61
chier 61
comprenez 61
d'essayer 61
davantage 61
devez 61
dira 61
définition 61
enlever 61
essaye 61
eur 61
francophone 61
grand-père 61
j'habitais 61
jambes 61
l'exemple 61
l'intérêt 61
levé 61
mission 61
naturel 61
norme 61
parisienne 61
profiter 61
quoique 61
rapide 61
rive 61
riz 61
rythme 61
structure 61
t'es 61
Etats-Unis 60
G@@ 60
adultes 60
bande 60
chers 60
code 60
d'année 60
d'autant 60
doigt 60
ement 60
ex@@ 60
gras 60
intéressé 60
italien 60
journées 60
l'avenue 60
l'espace 60
l'in@@ 60
oeuvre 60
peau 60
remercie 60
signer 60
toilettes 60
treizième 60
trou 60
Lyon 59
M 59
able 59
avril 59
b 59
b@@ 59
bleu 59
celles 59
conversation 59
corse 59
culturel 59
d'accueil 59
d'arriver 59
debout 59
exemples 59
ferait 59
goûter 59
l'art 59
l@@ 59
latin 59
lever 59
naturellement 59
octobre 59
oreilles 59
partent 59
qu'ici 59
quatre-vingt-dix 59
ressemble 59
tiré 59
version 59
vingt-trois 59
visité 59
étudier 59
Chine 58
Italie 58
arabe 58
ations 58
caractère 58
commencent 58
connus 58
d'amis 58
dîner 58
euse 58
formateurs 58
foutre 58
gâteaux 58
humain 58
marié 58
musiques 58
ménage 58
neige 58
parfaitement 58
prononcer 58
provençal 58
quitte 58
reçoit 58
réaliser 58
tent 58
tourisme 58
Allemagne 57
antes 57
appelait 57
au-delà 57
chaos 57
couple 57
dizaine 57
duré 57
entrer 57
fameux 57
fiches 57
habiter 57
hôtel 57
infos 57
lesquelles 57
loyer 57
marchés 57
mettez 57
médecine 57
obligés 57
oublier 57
populaire 57
pourraient 57
privée 57
promener 57
regard 57
remonte 57
seraient 57
sortait 57
t@@ 57
vigne 57
échange 57
étions 57
ambiance 56
ancien 56
ayant 56
complet 56
concernant 56
course 56
d'histoire 56
demi-heure 56
formes 56
forte 56
gosses 56
images 56
l'emploi 56
l'inverse 56
l'une 56
lance 56
mouais 56
outil 56
outils 56
revue 56
ri@@ 56
saison 56
signe 56
stagiaires 56
tables 56
touché 56
vingt-huit 56
CD 55
aimer 55
apporté 55
arrêt 55
bu 55
cadeau 55
comprennent 55
cuire 55
d@@ 55
di@@ 55
doigts 55
déplacer 55
erais 55
explique 55
fonctionnement 55
four 55
gens-là 55
incroyable 55
inter@@ 55
l'accueil 55
l'herbe 55
l'ordinateur 55
lesquels 55
marchait 55
notion 55
nécessairement 55
oeuvres 55
pousser 55
rajouter 55
remarques 55
scolaires 55
servi 55
sourire 55
sur@@ 55
taux 55
total 55
trouvez 55
vienne 55
voici 55
Japonais 54
acteurs 54
amener 54
amène 54
chasse 54
cultures 54
d'eux 54
d'in@@ 54
doucement 54
erait 54
ferais 54
former 54
gâteau 54
l'armée 54
longues 54
messieurs 54
n'avaient 54
n'existe 54
o@@ 54
oeufs 54
plats 54
pointe 54
pourrai 54
pro@@ 54
pub 54
rap 54
rouges 54
scientifique 54
succès 54
suivante 54
visage 54
élevé 54
H@@ 53
Wallonie 53
ale 53
bi@@ 53
celui-ci 53
ci 53
cimetière 53
climat 53
clou 53
connue 53
conservatoire 53
côte 53
d'entreprise 53
d'offres 53
dents 53
dix-huitième 53
eau 53
elle-même 53
examen 53
formidable 53
h@@ 53
haute 53
immeuble 53
influence 53
intéressante 53
l'avance 53
lignes 53
magique 53
militaire 53
niveau-là 53
objets 53
po@@ 53
poche 53
pratiques 53
préféré 53
prête 53
raté 53
regardais 53
repartir 53
retourné 53
rigolo 53
sentez 53
tenait 53
ts 53
vieilles 53
véhicule 53
épouse 53
Belges 52
Bruxellois 52
Chinois 52
appartements 52
bases 52
cahier 52
changements 52
considère 52
critères 52
d'emploi 52
dictionnaires 52
discussion 52
impression 52
j'arrivais 52
mètre 52
nationale 52
ouvre 52
personnelle 52
présenté 52
rarement 52
réflexion 52
soixante-huit 52
structures 52
sujets 52
touristes 52
tradition 52
travailles 52
universitaire 52
accident 51
aurez 51
boule 51
boutique 51
bêtes 51
centimètres 51
chaîne 51
chiffre 51
collection 51
conseiller 51
dix-neuvième 51
effort 51
fixe 51
flûte 51
hauteur 51
importants 51
information 51
j'aille 51
j'appelle 51
l'expérience 51
liberté 51
loisirs 51
lève 51
machins 51
mangas 51
mette 51
pensent 51
pigeons 51
principal 51
pâtes 51
rappelles 51
reprend 51
resto 51
récemment 51
sable 51
savaient 51
sentait 51
t'avais 51
tente 51
tourné 51
v@@ 51
vendu 51
voudrait 51
élus 51
étude 51
Facebook 50
ages 50
apprennent 50
camping 50
casser 50
champs 50
chasseur 50
chiant 50
circulation 50
corne 50
coupé 50
d'entrée 50
degrés 50
demandait 50
dé 50
esprit 50
exercices 50
importe 50
installé 50
intervenir 50
jeter 50
lancer 50
lorsqu'on 50
marier 50
membres 50
montagnes 50
n'empêche 50
particulière 50
pensait 50
pf 50
phonétique 50
pommes 50
pont 50
pédagogique 50
pêche 50
restes 50
rouler 50
réponses 50
second 50
sociétés 50
thé 50
verrez 50
Maroc 49
Parisiens 49
adulte 49
art 49
auriez 49
avancer 49
balle 49
bâtiments 49
clairement 49
contrats 49
convient 49
corriger 49
dessiner 49
devraient 49
différemment 49
discuté 49
expression 49
f@@ 49
fout 49
grandi 49
grille 49
interne 49
k@@ 49
l'ambiance 49
l'information 49
l'objet 49
n'étaient 49
par@@ 49
processus 49
préparé 49
publics 49
remis 49
rose 49
réalisé 49
répond 49
s'arrêter 49
section 49
soupe 49
spécial 49
tissu 49
tours 49
vaches 49
vous-même 49
*@@ 48
Afrique 48
ap@@ 48
beurre 48
bosse 48
catastrophe 48
citer 48
cousin 48
domicile 48
durant 48
enlève 48
enseigner 48
euro 48
excusez-moi 48
galère 48
goutte 48
gris 48
honte 48
i@@ 48
immeubles 48
jus 48
l'aide 48
ler 48
marques 48
mettais 48
mien 48
musiciens 48
musées 48
méchant 48
neutre 48
noter 48
plaisait 48
priori 48
propositions 48
prêts 48
rock 48
sauce 48
sou@@ 48
séjour 48
taient 48
thèmes 48
théorie 48
vol 48
é@@ 48
K@@ 47
N@@ 47
O 47
Pays 47
a@@ 47
avion 47
branche 47
capitale 47
cas-là 47
chiffres 47
chèque 47
copie 47
danger 47
disposition 47
décision 47
existait 47
fermer 47
festival 47
foyer 47
immigrés 47
instruments 47
jusqu'en 47
l'A@@ 47
l'hôtel 47
l'île 47
librairie 47
m'étais 47
mariés 47
mecs 47
mignon 47
minuit 47
nettoyer 47
noté 47
obligatoire 47
ordre 47
ouvriers 47
paix 47
parisien 47
pensée 47
pleins 47
pousse 47
prenne 47
présentation 47
publique 47
puissent 47
rencontres 47
salaire 47
sentais 47
si@@ 47
suisse 47
tort 47
traduire 47
universités 47
verras 47
verts 47
violence 47
Bastille 46
aperçu 46
articles 46
attendu 46
auront 46
bière 46
bonheur 46
caisse 46
ch@@ 46
chats 46
coût 46
difficiles 46
distance 46
enterrements 46
etc 46
grève 46
j'avoue 46
japonaise 46
joueur 46
l'ANPE 46
logiciel 46
léger 46
mouvements 46
noire 46
obtenir 46
oeil 46
phénomène 46
pleurer 46
port 46
positif 46
potes 46
prenais 46
prépare 46
publicité 46
rentrent 46
rentres 46
restaurants 46
secours 46
sers 46
souvenez 46
utile 46
ères 46
évolué 46
R@@ 45
attendant 45
automatiquement 45
barre 45
beauté 45
bougé 45
boulangerie 45
c'~ 45
cassé 45
concurrence 45
conduire 45
corbeau 45
corbeaux 45
croix 45
crée 45
d'action 45
dates 45
donnes 45
détail 45
espèces 45
est-à-dire 45
fier 45
figure 45
finit 45
longs 45
maintenir 45
moindre 45
montée 45
offert 45
oncle 45
poids 45
possibilités 45
postes 45
prises 45
proximité 45
prévoir 45
rat 45
recommencer 45
reconnu 45
rigoler 45
ser 45
sociaux 45
solutions 45
stages 45
suit 45
supporte 45
séries 45
titres 45
tribunal 45
tées 45
unique 45
ve 45
voler 45
vrais 45
véritable 45
étrangère 45
Parisien 44
amour 44
amoureux 44
appareil 44
appellent 44
apporte 44
avenue 44
billets 44
boules 44
bouteilles 44
car@@ 44
central 44
chaleur 44
chant 44
clé 44
compréhension 44
conseils 44
cou@@ 44
couteau 44
d'avant 44
douzième 44
existent 44
finis 44
habitués 44
hiver 44
instant 44
is 44
jolie 44
juge 44
justice 44
l'Est 44
l'ancien 44
lancé 44
m'avais 44
malades 44
nationalité 44
nés 44
occupé 44
origines 44
pression 44
prie 44
principale 44
production 44
province 44
ramené 44
responsables 44
reviennent 44
sauter 44
supporter 44
tue 44
vend 44
vidéos 44
évoluer 44
ac@@ 43
afin 43
anniversaire 43
artistes 43
balles 43
bel 43
belle-mère 43
bouquin 43
bureaux 43
c'@@ 43
ceux-là 43
clous 43
condition 43
convention 43
crème 43
défendre 43
el 43
facilité 43
frappe 43
immense 43
l'apprentissage 43
longueur 43
moteur 43
méthode 43
paquet 43
particuliers 43
patrimoine 43
programmes 43
protéger 43
ramener 43
rapports 43
robe 43
roman 43
récupère 43
référence 43
sculpture 43
seras 43
studio 43
su@@ 43
surpris 43
tiers 43
trottoir 43
tué 43
u@@ 43
venant 43
verte 43
vignes 43
vivait 43
Bretagne 42
Jean 42
Seine 42
aire 42
allant 42
an@@ 42
arbre 42
arrière 42
article 42
bain 42
combat 42
comprenais 42
concrètement 42
croyez 42
d'information 42
d'écrire 42
disparaître 42
droits 42
déménagé 42
em@@ 42
entendez 42
er@@ 42
fonds 42
grand-chose 42
l'action 42
l'arbre 42
laver 42
m'appelle 42
mangent 42
marquer 42
mauvaises 42
mises 42
n'êtes 42
net 42
offre 42
opération 42
ou@@ 42
partager 42
pen@@ 42
personnalité 42
perçu 42
plantes 42
policiers 42
pote 42
pourriez 42
recherches 42
réaction 42
réellement 42
satisfaction 42
saute 42
science 42
soutien 42
traditions 42
tri@@ 42
vallée 42
vingt-sept 42
voile 42
économiques 42
émargements 42
Canada 41
V 41
Vincennes 41
aides 41
argent 41
aspect 41
bilan 41
bourse 41
capacité 41
celle-ci 41
certificat 41
cherchent 41
chèvre 41
contenu 41
courage 41
critique 41
demandez 41
dix-septième 41
fassent 41
imagine 41
importantes 41
inscrit 41
intéressants 41
j'écoute 41
l'Europe 41
l'escalier 41
leçons 41
louer 41
mangeait 41
nouvel 41
option 41
permettent 41
pluie 41
preuve 41
pâte 41
quant 41
re-@@ 41
recettes 41
respecter 41
sale 41
secrétariat 41
secteurs 41
semble-t-il 41
silence 41
sortis 41
séance 41
toit 41
trajet 41
ventre 41
éducation 41
époque-là 41
*ANON* 40
PC 40
a- 40
achète 40
ag@@ 40
aimez 40
amusant 40
ancienne 40
appart 40
ard 40
cabinet 40
cadeaux 40
choque 40
coiffure 40
colère 40
com 40
congé 40
cuit 40
d'A@@ 40
d'esprit 40
descends 40
douche 40
familial 40
forts 40
h 40
horreur 40
ie 40
immédiatement 40
ingénieur 40
installés 40
international 40
judo 40
l'Allemagne 40
l'affaire 40
l'arabe 40
l'occurrence 40
l'économie 40
loup 40
m'occupe 40
meubles 40
mo@@ 40
moto 40
n'arrive 40
n'avais 40
nes 40
nourrir 40
objet 40
oral 40
originaire 40
pa@@ 40
phase 40
pile 40
plans 40
pourcent 40
précisément 40
prénom 40
recette 40
renseignements 40
rentrait 40
rentrés 40
riches 40
richesse 40
s'exprime 40
salade 40
soi-même 40
source 40
statut 40
sucre 40
traditionnel 40
traverser 40
ç 40
étudié 40
île 40
Conseil 39
Luxembourg 39
Monsieur 39
N 39
RER 39
République 39
a-t-il 39
alentours 39
arrivaient 39
astor 39
ateur 39
boîtes 39
cerveau 39
che 39
civilisation 39
d'entendre 39
danser 39
discute 39
docteur 39
domaines 39
donnée 39
décide 39
décider 39
employé 39
entretien 39
entrée 39
espaces 39
est-il 39
fut 39
intéressantes 39
jardins 39
l'avantage 39
l'essentiel 39
l'étude 39
laissent 39
largement 39
leçon 39
limites 39
lot 39
machines 39
mademoiselle 39
mettaient 39
moderne 39
méthodes 39
n'aurait 39
nt 39
numéros 39
organiser 39
pro 39
retenir 39
revenue 39
rond 39
sanitaires 39
septante 39
serré 39
signes 39
situations 39
supprimer 39
surprise 39
tera 39
tire 39
tr@@ 39
traiter 39
typiquement 39
tée 39
vitesse 39
voies 39
équipes 39
Europe 38
Finn 38
I@@ 38
New 38
V@@ 38
ables 38
accepter 38
aidé 38
amies 38
attendait 38
bars 38
blague 38
bleue 38
bè 38
bêtises 38
canton 38
catégories 38
chargé 38
cirque 38
commerçant 38
conflit 38
correct 38
cr@@ 38
d'août 38
d'étudiants 38
demandais 38
dirais-je 38
démarches 38
déteste 38
ette 38
fauteuil 38
fax 38
grec 38
habitaient 38
historique 38
invité 38
kilos 38
l'ouest 38
littéraire 38
miel 38
minute 38
n'aime 38
na 38
or@@ 38
p@@ 38
patient 38
philosophie 38
plongée 38
pompiers 38
puissance 38
ques 38
racines 38
racontait 38
regrette 38
rejoindre 38
restauration 38
revenus 38
régime 38
sel 38
somme 38
sse 38
supérieur 38
sympas 38
traitement 38
tranche 38
travaillaient 38
tu@@ 38
typique 38
utilisent 38
vingt-et-un 38
États-Unis 38
émissions 38
étranger 38
Basque 37
Bourgogne 37
accompagner 37
adresse 37
al@@ 37
anciennes 37
attaché 37
auparavant 37
baguette 37
br@@ 37
branches 37
bu@@ 37
carton 37
champ 37
chanteur 37
clés 37
confort 37
coucher 37
courte 37
côté-là 37
d'affaires 37
d'aujourd'hui 37
d'entre 37
dialecte 37
désolée 37
e@@ 37
emplois 37
fi@@ 37
fois-ci 37
futur 37
g 37
globalement 37
invités 37
j'écris 37
jambon 37
k 37
l'activité 37
l'aspect 37
l'opération 37
l'organisation 37
l'écriture 37
laboratoire 37
matières 37
monnaie 37
nombreuses 37
normale 37
parking 37
passaient 37
porc 37
prononcé 37
pétanque 37
queue 37
ramène 37
regardent 37
reçois 37
rigole 37
répète 37
spécifique 37
stade 37
stagiaire 37
superbe 37
terminale 37
terrasse 37
test 37
tienne 37
toile 37
trait 37
têtes 37
verres 37
vingt-six 37
voyager 37
voyagé 37
écouté 37
élections 37
élément 37
étonnant 37
* 36
De 36
G 36
Tunisie 36
accueillir 36
ai@@ 36
aimerait 36
ales 36
américains 36
approche 36
at@@ 36
battre 36
censé 36
changent 36
charges 36
chaude 36
choisit 36
cités 36
col 36
commences 36
comportement 36
conférence 36
couche 36
couloir 36
cour@@ 36
curieux 36
d'amour 36
d'élèves 36
de@@ 36
dent 36
dormi 36
douleur 36
défaut 36
enseignant 36
faible 36
fenêtres 36
frappé 36
gentiment 36
grain 36
guerriers 36
invite 36
joues 36
l'appel 36
marketing 36
masse 36
médecins 36
n'as 36
nulle 36
on@@ 36
opérations 36
passez 36
permanence 36
qu 36
quelqu' 36
quelques-uns 36
rattraper 36
rejoint 36
rencontrés 36
reprise 36
ressources 36
rigueur 36
s-@@ 36
serait-ce 36
simples 36
support 36
tions 36
trompe 36
vendent 36
zones 36
Algérie 35
Jacques 35
O@@ 35
Poitiers 35
ab@@ 35
accepte 35
agence 35
aires 35
auquel 35
balader 35
basket 35
bataille 35
bloc 35
boissons 35
boutiques 35
brûlé 35
ca 35
capacités 35
catégorie 35
chances 35
chantait 35
comptes 35
couscous 35
d'entreprises 35
d'étude 35
divers 35
durée 35
erreur 35
erreurs 35
faculté 35
foire 35
forces 35
foutu 35
fu@@ 35
humaines 35
impeccable 35
importance 35
irait 35
l'Afrique 35
l'agence 35
l'écoute 35
matins 35
ment 35
mentalité 35
mesures 35
mousse 35
n'avons 35
ni@@ 35
occuper 35
parcs 35
passages 35
possibles 35
pourrez 35
psychologie 35
quinzaine 35
rares 35
recul 35
remplacer 35
responsabilités 35
roule 35
réussite 35
s'entend 35
s-là 35
stratégie 35
vingtaine 35
vote 35
voter 35
week-ends 35
HLM 34
Hélène 34
Jean-Pierre 34
Job 34
Paul 34
York 34
alliez 34
améliorer 34
analyse 34
approché 34
apprécié 34
arrivant 34
at 34
aussitôt 34
babouches 34
bordel 34
boxe 34
c'-~ 34
centres 34
ch 34
championnat 34
chercheurs 34
co 34
commerciale 34
conduit 34
connerie 34
cou 34
crédit 34
crédits 34
d'activité 34
d'expérience 34
d'éducation 34
dames 34
diriez 34
dis@@ 34
donnera 34
drogue 34
déchets 34
e-là 34
els 34
entièrement 34
environnement 34
ers 34
es-là 34
essayait 34
financier 34
fleur 34
fonctions 34
garage 34
gentils 34
glace 34
géographie 34
habitant 34
habitudes 34
installer 34
intégrer 34
jazz 34
jeté 34
joueurs 34
l'Etat 34
l'en@@ 34
l'enterrement 34
l'écrit 34
lent 34
lycées 34
m@@ 34
manifestations 34
marquée 34
meurt 34
micro 34
nana 34
ouf 34
partenaires 34
participation 34
permettait 34
porté 34
poulet 34
progrès 34
précise 34
rez-de-chaussée 34
ridicule 34
rivière 34
réagir 34
réputation 34
réviser 34
semblait 34
sensible 34
signé 34
sous-@@ 34
sports 34
terminer 34
thèse 34
tiennent 34
tortue 34
traditionnelle 34
traversé 34
téléphoné 34
ue 34
vanille 34
vaste 34
villa 34
volume 34
vulgaire 34
écrivent 34
Toulon 33
administratif 33
allemands 33
allez-y 33
américaine 33
arrivez 33
aspects 33
bar@@ 33
bol 33
chère 33
cigarette 33
classiques 33
communal 33
complète 33
conneries 33
considéré 33
corde 33
crayon 33
d'art 33
d'importance 33
d'étudiant 33
diable 33
disponible 33
donnaient 33
efforts 33
el@@ 33
employer 33
enquête 33
enterrement 33
escaliers 33
euses 33
excellent 33
exister 33
fumer 33
ge 33
habits 33
handicapés 33
indicateurs 33
intervention 33
j'achète 33
j'attends 33
j'irais 33
l'administration 33
l'entretien 33
lac 33
lion 33
litre 33
lo@@ 33
malheur 33
malheureux 33
man@@ 33
manquait 33
manteau 33
maîtres 33
mettant 33
miroir 33
musicien 33
opinion 33
ouvrier 33
participé 33
perte 33
placer 33
portugais 33
posée 33
prison 33
préciser 33
pur 33
périodes 33
qualités 33
retrouvent 33
rou@@ 33
récent 33
répéter 33
s'adresse 33
s'étaient 33
secondaire 33
st@@ 33
suivait 33
traces 33
traite 33
trans@@ 33
traverse 33
trouvée 33
venais 33
écrite 33
étages 33
étape 33
Belge 32
Bernard 32
Chambre 32
Flamands 32
J@@ 32
Jésus 32
Kremlin 32
Les 32
Mac 32
Russie 32
académique 32
aies 32
apprenait 32
arrondissement 32
au@@ 32
avocat 32
belges 32
bouffe 32
carnet 32
cases 32
casse 32
chacune 32
chaise 32
chemins 32
croit 32
câble 32
d'aide 32
d'attente 32
d'informations 32
discipline 32
discussions 32
donnez 32
désir 32
entière 32
entourage 32
ettes 32
eue 32
exercice 32
facteurs 32
fichier 32
folie 32
gardes 32
gaz 32
honnêtement 32
incapable 32
internationale 32
kanji 32
l'ex@@ 32
l'expression 32
l'or 32
l'ouverture 32
lois 32
lune 32
m- 32
mesdames 32
metteur 32
mince 32
montage 32
médicaments 32
notions 32
occupée 32
parliez 32
parlons 32
plait 32
puisqu'ils 32
qu'a 32
quantité 32
remise 32
reprends 32
représentants 32
res 32
ressenti 32
revenait 32
risques 32
rupture 32
réel 32
réfléchi 32
réfléchis 32
s'installer 32
sacs 32
secret 32
seules 32
syntaxe 32
tennis 32
toi-même 32
tons 32
viendra 32
vues 32
âgés 32
èrent 32
écrits 32
élu 32
H 31
Hamois 31
Maman 31
accord 31
accueil 31
actuel 31
air 31
allées 31
analyser 31
ance 31
armes 31
assure 31
av@@ 31
bassin 31
bizarres 31
boucher 31
cacher 31
camion 31
chanté 31
chefs 31
ches 31
choc 31
ci@@ 31
codes 31
colle 31
collectif 31
com@@ 31
commandes 31
compétition 31
connaissaient 31
contacter 31
croissance 31
cul 31
culturelle 31
d'E@@ 31
d'acheter 31
descendu 31
disiez 31
douce 31
découvre 31
essaient 31
exact 31
excuse-moi 31
exposition 31
fatiguée 31
foie 31
fortement 31
gar@@ 31
gosse 31
habitué 31
intervient 31
juger 31
l'accès 31
l'alcool 31
l'autoroute 31
l'imprimerie 31
l'oreille 31
l'orthographe 31
lots 31
merveilleux 31
messages 31
messe 31
montait 31
mélangé 31
nous-mêmes 31
nuits 31
occupe 31
organise 31
paire 31
partage 31
paysans 31
placé 31
pleut 31
populations 31
posait 31
pourras 31
pourront 31
poésie 31
pratiquer 31
prenant 31
produire 31
propriétaires 31
prépa 31
purée 31
quatorzième 31
quatre-vingt-treize 31
ra 31
reconnais 31
registre 31
remarquer 31
rempli 31
renvoyer 31
ressort 31
revois 31
sec 31
servait 31
siège 31
sommet 31
souffert 31
square 31
synthèse 31
temple 31
termine 31
théorique 31
tournait 31
traits 31
transport 31
vagues 31
valeurs 31
volet 31
vérifie 31
» 31
échanges 31
étrangères 31
événements 31
DVD 30
Freud 30
Raymondin 30
Réunion 30
TDB 30
Terre 30
achètes 30
ad@@ 30
animal 30
appartient 30
apprends 30
assise 30
auteurs 30
caméra 30
capables 30
charte 30
cherchais 30
choses-là 30
chères 30
circuit 30
complexe 30
congés 30
conserver 30
consiste 30
continuent 30
contrairement 30
d'air 30
d'avion 30
d'ouvrage 30
d'à 30
d'âge 30
diagnostic 30
dingue 30
don 30
dons 30
décisions 30
défense 30
es@@ 30
exposé 30
extérieur 30
faisons 30
fermée 30
feux 30
filet 30
gn@@ 30
intéressée 30
italiens 30
l'UCL 30
l'adresse 30
l'ancienne 30
l'arrivée 30
l'atelier 30
lecteurs 30
lu@@ 30
mar@@ 30
marge 30
meilleures 30
mienne 30
milliers 30
mineure 30
motivation 30
mous 30
mé@@ 30
n'allez 30
noeud 30
normes 30
négatif 30
ouest 30
parallèle 30
parlera 30
pattes 30
pensez-vous 30
piste 30
pistes 30
portée 30
printemps 30
proposition 30
pédagogie 30
pénible 30
qu'effectivement 30
ramasser 30
rel@@ 30
remet 30
renseigner 30
retournée 30
réponds 30
réserve 30
s'inscrire 30
schéma 30
score 30
sentent 30
situe 30
souffle 30
tape 30
terrains 30
tou@@ 30
trentaine 30
unités 30
ver@@ 30
vo@@ 30
âgée 30
évolution 30
événement 30
Bordeaux 29
Marouf 29
Montparnasse 29
Québec 29
Valais 29
achètent 29
agent 29
agréables 29
am@@ 29
animation 29
asiatiques 29
atteindre 29
autrefois 29
ba@@ 29
beh 29
bou@@ 29
cage 29
camarades 29
case 29
cellule 29
centaines 29
chair 29
chemise 29
compléter 29
considérer 29
crier 29
d'enfance 29
d'idées 29
degré 29
devenue 29
donnant 29
débit 29
débrouiller 29
découverte 29
décrire 29
déjeuner 29
déplacements 29
détails 29
développé 29
ements 29
emmener 29
en-dessous 29
enseignement 29
entré 29
escalier 29
européenne 29
failli 29
fantastique 29
format 29
françaises 29
fromages 29
féminin 29
gardien 29
genres 29
gestes 29
humaine 29
il@@ 29
ines 29
iste 29
jambe 29
l'entends 29
l'État 29
l'émission 29
l- 29
loué 29
m'étonnes 29
mal@@ 29
manga 29
maîtresse 29
membre 29
moche 29
métal 29
n' 29
oiseau 29
partez 29
participe 29
passées 29
paysages 29
peintre 29
philo 29
pilote 29
plages 29
plaindre 29
portait 29
pourcentage 29
prestations 29
puisqu'elle 29
purement 29
pêcher 29
qu'ailleurs 29
quais 29
racheté 29
racontent 29
rechercher 29
recommence 29
rendent 29
reparti 29
représentation 29
ressortir 29
retenu 29
retrouvée 29
royaume 29
ré 29
récupéré 29
rée 29
réforme 29
serpent 29
spéciale 29
spécifiques 29
station 29
surveiller 29
séances 29
séparer 29
tantôt 29
us 29
vague 29
valable 29
victime 29
visites 29
époux 29
étoiles 29
'@@ 28
Africains 28
Bagnolet 28
CAPES 28
Saint-@@ 28
accessible 28
adapté 28
apprentissage 28
arts 28
attendent 28
attrapé 28
avocats 28
baguettes 28
balcon 28
barrière 28
bourgeois 28
ca@@ 28
catholique 28
collèges 28
commentaire 28
commençais 28
conception 28
cursus 28
d'activités 28
d'endroits 28
dialectes 28
dialogue 28
diplômes 28
doublé 28
dégueulasse 28
enregistré 28
eraient 28
familiale 28
financement 28
frites 28
gamme 28
geste 28
global 28
gratuit 28
gênant 28
humains 28
indiens 28
indiqué 28
intelligent 28
iser 28
j- 28
jette 28
l'aime 28
l'angle 28
l'anniversaire 28
l'espagnol 28
l'examen 28
lecteur 28
lisent 28
location 28
lorsqu'il 28
mener 28
mor@@ 28
municipalité 28
mérite 28
nonante 28
parte 28
petits-enfants 28
pigeon 28
pleuré 28
poils 28
posent 28
programmation 28
quer 28
ra@@ 28
radios 28
raisin 28
représenter 28
rugby 28
réalisation 28
s'approche 28
sal@@ 28
salsa 28
soigner 28
soixante-cinq 28
solfège 28
supplémentaire 28
surfaces 28
sélection 28
t'explique 28
t'ont 28
tais 28
totale 28
touristique 28
tournent 28
traîner 28
trous 28
téléphoner 28
universitaires 28
voisine 28
voté 28
ère 28
écris 28
énormes 28
ô 28
1 27
Canet 27
François 27
Mar@@ 27
Martinet 27
Philippe 27
Roosevelt 27
TD 27
Tournai 27
U@@ 27
abandonné 27
administration 27
aimerais 27
assiette 27
assister 27
augmente 27
balade 27
biais 27
bouton 27
brevet 27
bri@@ 27
caché 27
can@@ 27
chaises 27
char 27
chaînes 27
chi@@ 27
choisis 27
châteaux 27
commissions 27
communale 27
comparer 27
coq 27
courait 27
cycle 27
devenus 27
durer 27
défauts 27
déposer 27
efficace 27
employés 27
enlevé 27
ens 27
entendait 27
européen 27
expériences 27
f- 27
facture 27
fasses 27
flammes 27
fleuve 27
fournir 27
frapper 27
fric 27
fédération 27
galerie 27
garer 27
grossier 27
gu@@ 27
géographique 27
influencé 27
interview 27
joie 27
jolies 27
l'appelle 27
l'importance 27
l'opéra 27
lunettes 27
mais-ce 27
marbre 27
marches 27
maîtriser 27
mendiant 27
mi@@ 27
montes 27
nettement 27
offrir 27
ois 27
op@@ 27
organisation 27
partant 27
patience 27
patients 27
plante 27
plastique 27
premièrement 27
prononce 27
pété 27
quotidienne 27
qué 27
raisins 27
rajoute 27
religieux 27
repasser 27
restos 27
réception 27
régionaux 27
s'occupait 27
sauté 27
sauver 27
situer 27
sortant 27
ss@@ 27
suivent 27
t'inquiète 27
température 27
tranquillement 27
trêve 27
verrais 27
ves 27
via 27
viendrait 27
vingt-neuf 27
visiblement 27
électronique 27
Barcelone 26
Ch@@ 26
Ro@@ 26
TV 26
adapter 26
angle 26
animations 26
animés 26
as@@ 26
ateurs 26
avancé 26
avantages 26
basse 26
beau-père 26
bibliothèques 26
boh 26
certes 26
champagne 26
chanteurs 26
chauffer 26
choqué 26
communautés 26
composition 26
contrainte 26
contrôles 26
copies 26
cor@@ 26
cordes 26
coté 26
coûter 26
crèche 26
d'identité 26
d'écouter 26
demi-@@ 26
dors 26
emmené 26
eront 26
essentiel 26
ex 26
financièrement 26
forum 26
fumée 26
ha 26
héros 26
hésité 26
imprimer 26
indispensable 26
istes 26
l'Espagne 26
l'article 26
l'ascenseur 26
l'assurance 26
l'enregistrement 26
l'essence 26
l'huile 26
l'intention 26
l'utilisation 26
l'être 26
le@@ 26
linge 26
m' 26
m'intéressait 26
mettra 26
mon@@ 26
moniteur 26
montrent 26
mâle 26
ner 26
nôtre 26
ob@@ 26
occasion 26
ouverture 26
ouvrages 26
patte 26
paysage 26
physiquement 26
plairait 26
plaque 26
pomme 26
prisonniers 26
profité 26
profond 26
progresser 26
progression 26
proprement 26
propriété 26
proviseur 26
présents 26
publiques 26
qu'aujourd'hui 26
quarante-deux 26
quinzième 26
ranger 26
reconnaît 26
relais 26
relevé 26
rem@@ 26
ren@@ 26
repart 26
repasse 26
retirer 26
revues 26
régler 26
révolution 26
s'occupent 26
salut 26
saumon 26
ser@@ 26
spectacles 26
stop 26
sympathiques 26
systématiquement 26
sé 26
technologie 26
telles 26
teur 26
tombent 26
tournée 26
tâches 26
variété 26
verlan 26
volontiers 26
vouliez 26
écrivait 26
étapes 26
-~ 25
0 25
Allemands 25
Américains 25
CE 25
Centre 25
Jura 25
Nation 25
New-York 25
Toulouse 25
accompagné 25
aillent 25
allemande 25
amoureuse 25
américain 25
appels 25
aquarium 25
bazar 25
bonbons 25
bonhomme 25
boudin 25
boulanger 25
bouts 25
bruits 25
cal@@ 25
chantier 25
chapelle 25
charbon 25
chauffeur 25
cheminée 25
ché 25
commandé 25
compétence 25
comte 25
cons 25
consommation 25
continuait 25
contrôler 25
critère 25
d'ouvrir 25
d'été 25
dait 25
dernièrement 25
démarrer 25
dépasse 25
dépenses 25
dés 25
emploie 25
emploient 25
empêcher 25
enregistrer 25
ent@@ 25
environs 25
eras 25
espagnols 25
essayez 25
exprimer 25
ez-vous 25
farine 25
fatigué 25
fermeture 25
fixé 25
fonctionner 25
fruit 25
garantie 25
gentille 25
grains 25
ier 25
ies 25
individuel 25
intéresser 25
intérieur 25
isé 25
j'arrête 25
j'envoie 25
l'appareil 25
l'écran 25
labo 25
limité 25
loger 25
mails 25
marchent 25
marseillais 25
matinée 25
mettrais 25
municipal 25
mé 25
noël 25
nécessité 25
original 25
osé 25
ouverts 25
pains 25
pente 25
perdue 25
poil 25
pour@@ 25
poème 25
prendra 25
profondeur 25
pâtisserie 25
ras 25
rattrapage 25
rentrais 25
repos 25
reprises 25
revu 25
routes 25
réactions 25
rés 25
réservé 25
s'aperçoit 25
sandwich 25
scènes 25
session 25
sociologie 25
sportifs 25
supprimé 25
tapé 25
tests 25
tez 25
th@@ 25
théâtres 25
top 25
trajets 25
transformé 25
travaillant 25
trente-deux 25
tri 25
vaisselle 25
validé 25
virgule 25
visible 25
voyant 25
w@@ 25
échelle 25
églises 25
ANPE 24
Carrefour 24
Fontaine 24
Frodo 24
Gap 24
Invalides 24
J 24
McDo 24
Rosny 24
Voltaire 24
accompagnement 24
africaine 24
africains 24
agricole 24
alisation 24
apparaître 24
appareils 24
appelée 24
appliquer 24
artiste 24
artistique 24
baisse 24
bandes 24
blanches 24
bon@@ 24
breton 24
cache 24
caves 24
centrale 24
cercle 24
chants 24
cherchait 24
cinquante-huit 24
claire 24
comprenait 24
concept 24
coupes 24
couverture 24
craint 24
croise 24
cépages 24
d'Afrique 24
d'appel 24
d'arrêter 24
d'espagnol 24
d'office 24
d'olive 24
d'ordre 24
der 24
di 24
dimension 24
dynamique 24
débarrasser 24
décor 24
dépasser 24
dépenser 24
déplacement 24
effets 24
enseigné 24
entouré 24
etcetera 24
eu@@ 24
exceptionnel 24
exigences 24
extraordinaires 24
fabrication 24
faisiez 24
fan 24
fidélité 24
fil@@ 24
fine 24
fins 24
fonctionné 24
frigo 24
gi@@ 24
gr@@ 24
grosso 24
gym 24
huiles 24
inventer 24
j'oublie 24
j@@ 24
jouaient 24
jouais 24
jusqu'aux 24
l'Amérique 24
l'aménagement 24
l'effet 24
l'enquête 24
l'envers 24
l'im@@ 24
l'italien 24
l'usage 24
l'utilise 24
l'écouter 24
laisses 24
linguistiques 24
liquide 24
loto 24
m'aider 24
mamans 24
manières 24
mettons 24
mine 24
mixte 24
modifier 24
modo 24
mène 24
om@@ 24
paraître 24
pareils 24
partais 24
passais 24
passant 24
passera 24
passionné 24
patrons 24
pension 24
perdent 24
planté 24
positions 24
prenaient 24
profil 24
qu'eux 24
quarts 24
rapprocher 24
regardant 24
rer 24
retrouves 24
retrouvés 24
rocher 24
roues 24
rédaction 24
rées 24
saura 24
sens-là 24
soins 24
soldat 24
sombre 24
souris 24
sportif 24
spécialité 24
stress 24
sée 24
taire 24
tempête 24
tester 24
tor@@ 24
transformer 24
transmettre 24
trente-trois 24
univers 24
ver 24
viandes 24
vieillard 24
épaules 24
BD 23
CP 23
Constitution 23
Dijon 23
Duruy 23
Française 23
Japan 23
K 23
Madame 23
Marais 23
Marcel 23
Marie 23
Martigny 23
Monoprix 23
Patrick 23
Portugal 23
Quimper 23
Rome 23
Seigneur 23
W@@ 23
Wallons 23
affreux 23
ailles 23
aliments 23
arrivera 23
assisté 23
assurance 23
attraper 23
avantage 23
axe 23
c- 23
camions 23
champion 23
cinq-cents 23
colonnes 23
communs 23
confortable 23
conserve 23
conséquences 23
continuité 23
coréen 23
cousins 23
croient 23
cu@@ 23
curiosité 23
céréales 23
d'avance 23
d'hommes 23
d'im@@ 23
d'organiser 23
d'orthographe 23
descendait 23
deviez 23
dirige 23
diriger 23
distribution 23
diverses 23
dées 23
définit 23
dépassé 23
déçu 23
e-@@ 23
embêtant 23
envoies 23
erasmus 23
erez 23
falaise 23
feras 23
fière 23
formé 23
fortune 23
fou@@ 23
goûté 23
grammes 23
gère 23
habites 23
individus 23
indépendant 23
inscrire 23
interventions 23
inventé 23
inverse 23
ions 23
is@@ 23
isme 23
italienne 23
jolis 23
l'APEIS 23
l'Ecole 23
l'Italie 23
l'aider 23
l'amphi 23
l'envie 23
l'informatique 23
lacs 23
laine 23
laissée 23
larmes 23
levée 23
libérer 23
locale 23
locataires 23
lorsqu'ils 23
loue 23
loyers 23
lés 23
manges 23
mi-temps 23
ministres 23
n'allait 23
n'existait 23
nickel 23
opinions 23
oublie 23
panne 23
pantalon 23
pauses 23
perds 23
permettra 23
persuadé 23
pharmacie 23
photographe 23
plonger 23
pollution 23
por@@ 23
pratiqué 23
primaires 23
principalement 23
priorité 23
procès 23
profonde 23
prévenir 23
pu@@ 23
pubs 23
puissant 23
racheter 23
rang 23
rayon 23
refusé 23
reposer 23
respecte 23
rez 23
ro@@ 23
romans 23
résidence 23
résistance 23
s'agissait 23
s'en@@ 23
sage 23
sexe 23
sols 23
sortais 23
spécialiste 23
standard 23
supermarché 23
systèmes 23
sèche 23
tac 23
taxi 23
ter@@ 23
terres 23
tion 23
touches 23
trace 23
traduit 23
transmission 23
trente-huit 23
usine 23
vols 23
vraies 23
y@@ 23
écoutait 23
écoutes 23
électrique 23
Au@@ 22
Fianna 22
Lausanne 22
Louvre 22
Metz 22
Nikorima 22
Venise 22
ade 22
africain 22
agences 22
aimaient 22
anti-@@ 22
arrêtés 22
assistante 22
bio 22
bloqué 22
blé 22
bossé 22
bour@@ 22
cadres 22
calcul 22
camps 22
candidats 22
chalet 22
chapitre 22
char@@ 22
choisissent 22
cible 22
cinquante-trois 22
comparaison 22
comparé 22
conseille 22
conventions 22
creuser 22
d'ac@@ 22
d'apprentissage 22
d'enseignement 22
d'octobre 22
d'énergie 22
da 22
derviche 22
dessiné 22
diras 22
dispositif 22
disque 22
durs 22
démarre 22
déménager 22
effectuer 22
entretiens 22
entrées 22
erie 22
expositions 22
fabuleux 22
faisable 22
filmer 22
finissent 22
fitness 22
football 22
for@@ 22
frappée 22
front 22
frontières 22
gardent 22
graines 22
hauts 22
heu 22
identité 22
iez 22
imposer 22
inscrite 22
institutions 22
insupportable 22
internationales 22
introduction 22
intégré 22
inutile 22
inviter 22
journalisme 22
jul 22
jupe 22
kanjis 22
l'acheter 22
l'auteur 22
l'em@@ 22
l'humour 22
l'idéal 22
l'individu 22
l'inter@@ 22
l'écrire 22
l'étudiant 22
laissait 22
lisait 22
lits 22
logiciels 22
lourds 22
légèrement 22
m'avaient 22
m'embête 22
ma@@ 22
magie 22
majeure 22
mandat 22
manquer 22
manqué 22
marchands 22
mention 22
mini 22
missions 22
mixité 22
moines 22
montant 22
mu@@ 22
muscles 22
mée 22
n'étais 22
nu@@ 22
nuages 22
onne 22
orale 22
ouvertes 22
pa 22
parait 22
passeport 22
pauvreté 22
payait 22
pl@@ 22
placement 22
pleuvait 22
plonge 22
plumes 22
pompier 22
poubelle 22
pourri 22
poussière 22
poètes 22
prendrai 22
prenons 22
promesse 22
préfecture 22
prêter 22
psycho 22
pure 22
quatre-vingt-cinq 22
raclette 22
relance 22
relève 22
remercier 22
remplacé 22
reportage 22
ressens 22
revanche 22
revenais 22
roulé 22
ru@@ 22
réflexions 22
réglé 22
répartition 22
résumé 22
rêves 22
s'amuser 22
sanglier 22
sau@@ 22
savoir-faire 22
sensation 22
sensibles 22
servent 22
sommeil 22
sonne 22
ste 22
syndicats 22
sé@@ 22
sés 22
taxe 22
tels 22
tenue 22
ti 22
trame 22
transmis 22
travaillez 22
trente-et-un 22
trouvera 22
témoin 22
vendait 22
vies 22
violent 22
xx 22
âges 22
éco 22
église 22
épreuve 22
établissement 22
établissements 22
étonné 22
évolue 22
-être 21
An@@ 21
Anglais 21
Brian 21
Casino 21
Con@@ 21
Genève 21
Iragnaka 21
Italiens 21
Mohammed 21
Pierre 21
Rivesaltes 21
Sainte-Marie 21
Turquie 21
aborder 21
ac 21
accords 21
accéder 21
acte 21
agents 21
aidée 21
ain 21
album 21
assurer 21
attitude 21
autonome 21
auxquels 21
avenir 21
avez-vous 21
bagages 21
balance 21
basque 21
bateaux 21
bilingue 21
bloque 21
brebis 21
cahiers 21
cartons 21
centimes 21
cer@@ 21
cercueil 21
changes 21
chaussettes 21
cite 21
collaboration 21
comités 21
commander 21
connait 21
constate 21
consulter 21
convenablement 21
coraux 21
correspondait 21
costume 21
couronne 21
croisé 21
crêpes 21
cuite 21
curé 21
célèbre 21
d'animation 21
d'essence 21
d'habiter 21
daim 21
dieux 21
dimanches 21
directe 21
disques 21
dits 21
décalage 21
défini 21
délicieux 21
enceinte 21
engagé 21
espère 21
européens 21
explication 21
fabriquer 21
facilités 21
fameuse 21
faïence 21
fer@@ 21
fermés 21
feront 21
fers 21
file 21
financière 21
fonctionnent 21
fortes 21
forêts 21
fraises 21
fri@@ 21
gamine 21
genoux 21
horaire 21
imposé 21
influencer 21
installée 21
ju@@ 21
jument 21
kilomètre 21
l'adolescence 21
l'appeler 21
l'aurais 21
l'avant 21
l'avocate 21
l'enfance 21
l'escalade 21
l'info 21
l'intervention 21
l'oiseau 21
l'uni 21
l'usine 21
l'échelle 21
l'étage 21
lèvres 21
lé 21
m'étonne 21
magnifiques 21
manquent 21
matelas 21
ministère 21
mosquée 21
moules 21
mâles 21
mécanique 21
més 21
naturelle 21
no 21
obligatoirement 21
onner 21
oreille 21
organisme 21
organismes 21
paient 21
parent 21
particularité 21
payes 21
payés 21
peindre 21
perles 21
piquer 21
poitrine 21
poursuivre 21
problématique 21
prononciations 21
précises 21
préfères 21
rac@@ 21
rait 21
rappelé 21
redonner 21
relire 21
remplit 21
rendue 21
reproche 21
restreint 21
robes 21
réseaux 21
réveille 21
réveiller 21
réveillé 21
saisons 21
sant 21
sauvage 21
seins 21
soi-disant 21
soif 21
solidarité 21
soutenir 21
séparé 21
sérieusement 21
t'aider 21
tom 21
tombes 21
touchent 21
tranches 21
traîne 21
tres 21
triangle 21
télécharger 21
unes 21
vitrine 21
vivaient 21
vivantes 21
z 21
économie 21
égal 21
élevée 21
émotions 21
épais 21
épouser 21
équilibre 21
étrange 21
Cuba 20
Diarmuid 20
Féraon 20
Gupatanaka 20
Inde 20
Louis 20
Louvain 20
Madrid 20
Michel 20
Normandie 20
Place 20
Père 20
Saint-Louis 20
accroché 20
acquérir 20
admettons 20
ailes 20
aine 20
ange 20
annexes 20
ar 20
attentif 20
augmenter 20
av 20
barbe 20
bles 20
bo@@ 20
bouffer 20
bronze 20
calife 20
caractéristiques 20
cathédrale 20
causes 20
censée 20
centaine 20
chent 20
chimie 20
chinoise 20
cinquantaine 20
cinquante-cinq 20
co-@@ 20
coffre 20
col@@ 20
collé 20
commerciaux 20
commis 20
constructions 20
conséquent 20
contraintes 20
coule 20
courante 20
crapaud 20
culturelles 20
d'Algérie 20
d'Italie 20
d'apporter 20
d'entrer 20
demandaient 20
demanderai 20
demeure 20
destin 20
deux-cents 20
deviennent 20
deviens 20
disponibles 20
dizaines 20
dormait 20
dort 20
doux 20
ds 20
dégager 20
démocratie 20
départements 20
eaux 20
emprunter 20
entes 20
entr@@ 20
essai 20
existé 20
expo 20
finale 20
finance 20
fl@@ 20
formés 20
foule 20
fréquenté 20
fs 20
ger 20
grèves 20
géant 20
habitude 20
hôpital 20
imaginez 20
iner 20
ir 20
j'entendais 20
job 20
joyeux 20
l'Angleterre 20
l'E@@ 20
l'O@@ 20
l'accompagnement 20
l'al@@ 20
l'ap@@ 20
l'assemblée 20
l'attitude 20
l'euro 20
l'industrie 20
l'organisme 20
l'égard 20
l'équilibre 20
l'établissement 20
libres 20
liés 20
loisir 20
m'attire 20
m'expliquer 20
maladies 20
mathématiques 20
maturité 20
men@@ 20
motivés 20
municipale 20
numérique 20
nécessaires 20
occupent 20
on-là 20
outre 20
ouvrière 20
p- 20
parlerait 20
pavillon 20
paysan 20
peintures 20
photocopies 20
phénomènes 20
plaisent 20
pleurait 20
politesse 20
portent 20
prendrais 20
profite 20
pré-@@ 20
préférence 20
psychologique 20
pé@@ 20
péter 20
qu@@ 20
quai 20
quaient 20
racontez 20
recommencé 20
refuse 20
relief 20
renvoie 20
reparler 20
reprennent 20
repère 20
respirer 20
réduit 20
réfléchit 20
résilience 20
résoudre 20
s'adapter 20
s'intéresse 20
sacrée 20
sais-tu 20
scientifiques 20
signature 20
star 20
stations 20
suisses 20
supérieure 20
séminaire 20
ta@@ 20
ten@@ 20
tendu 20
terai 20
totalité 20
tranquilles 20
transforme 20
transition 20
trésor 20
tâche 20
um 20
usage 20
valider 20
victimes 20
vivante 20
vivez 20
vocation 20
voi@@ 20
volé 20
véhicules 20
véritablement 20
écriture 20
écrivain 20
épisode 20
épisodes 20
états 20
étonnée 20
évite 20
évoqué 20
BU 19
Berlin 19
Blanche 19
Bo@@ 19
Car@@ 19
Champ-de-Mars 19
Corée 19
Céline 19
DILF 19
FLE 19
Fnac 19
Franklin 19
Halloween 19
Hollande 19
Lille 19
Midi 19
Mireille 19
Rampal 19
Sion 19
Vi@@ 19
Zidane 19
acceptent 19
adoré 19
adresses 19
africaines 19
agriculteurs 19
airs 19
alternance 19
amenée 19
anglaise 19
apparaît 19
appelez 19
attachés 19
attente 19
attiré 19
augmenté 19
baissé 19
bancaire 19
be 19
bisous 19
blocage 19
bobo 19
boeufs 19
bosses 19
boucle 19
brillant 19
béton 19
caractères 19
catalan 19
chameaux 19
chapeau 19
chirurgie 19
choux 19
chute 19
cinémas 19
claires 19
communion 19
comptabilité 19
comédiens 19
convaincu 19
correspondance 19
cousine 19
cré@@ 19
cuisiner 19
d'aider 19
d'application 19
d'escalade 19
dalle 19
deuil 19
devenait 19
dialogues 19
directrice 19
divorce 19
donnés 19
dou@@ 19
débrouille 19
dée 19
délai 19
ennemis 19
enregistre 19
envoyait 19
estime 19
externe 19
extérieurs 19
femelle 19
fermes 19
fondue 19
forcé 19
formule 19
gagnes 19
galop 19
gendarmerie 19
grilles 19
hall 19
heureuse 19
hu@@ 19
idiot 19
ille 19
iller 19
illes 19
individuelle 19
ine 19
infirmière 19
ing 19
ingénieurs 19
intégrés 19
intéressés 19
investir 19
issu 19
j'aie 19
j'essayais 19
j'utilise 19
journalistique 19
l'Académie 19
l'acteur 19
l'am@@ 19
l'armoire 19
l'arrière 19
l'attention 19
l'exercice 19
l'interview 19
l'option 19
l'ordi 19
l'équivalent 19
latino 19
lier 19
lingerie 19
listes 19
livrer 19
liées 19
louis 19
luxe 19
lyon 19
m'acheter 19
magazine 19
mangeais 19
maîtrisent 19
met@@ 19
misère 19
mondiale 19
moyennes 19
mères 19
mées 19
n'aura 19
n'es 19
nationalités 19
noix 19
non-@@ 19
négocier 19
ole 19
ordinateurs 19
ouvrage 19
pareille 19
perception 19
personnels 19
ph@@ 19
placés 19
plaine 19
planter 19
plaques 19
poches 19
pots 19
pouvoirs 19
pressé 19
principaux 19
professionnelles 19
promis 19
préface 19
préfèrent 19
préserver 19
prétexte 19
pénalité 19
qu'ont 19
questionnaire 19
recevait 19
redescendre 19
regardaient 19
religieuses 19
remets 19
remonté 19
rentrant 19
repérer 19
res@@ 19
retrouvait 19
réduire 19
réserver 19
réserves 19
résumer 19
réveillée 19
s' 19
saut 19
sauvages 19
scanner 19
seriez 19
serviteur 19
sez 19
singes 19
soixante-quinze 19
soixante-trois 19
soyez 19
spécialisée 19
stock 19
styles 19
suffisant 19
supplémentaires 19
supérieures 19
sushis 19
séparés 19
t'assure 19
t-@@ 19
tend 19
tensions 19
to@@ 19
tonnes 19
travailleurs 19
trombone 19
urgences 19
usines 19
utilisez 19
valait 19
varie 19
veau 19
verrai 19
voyons 19
vélos 19
yaourt 19
âge-là 19
écran 19
énervée 19
Abu 18
Ar@@ 18
Bel-Air 18
Charles 18
Cor@@ 18
Des 18
Gambetta 18
Ganzé 18
Goll 18
Géorgie 18
Laurent 18
Le@@ 18
Liégeois 18
Mélusine 18
Nicolas 18
Picasso 18
Porte 18
Pâques 18
Rachid 18
RnB 18
Robert 18
SNCF 18
Shamsédine 18
Sésame 18
Toussaint 18
Warnant 18
Z@@ 18
accidents 18
affiches 18
agrandir 18
ane 18
anecdote 18
animé 18
annonce 18
arrêtez 18
artisans 18
ascenseur 18
atout 18
atroce 18
attachée 18
auxquelles 18
aventure 18
banques 18
battu 18
bec 18
blagues 18
bleus 18
boisson 18
boit 18
boite 18
bombe 18
bonsoir 18
brûler 18
buts 18
bébés 18
bénévoles 18
bêtise 18
calendrier 18
canard 18
caractéristique 18
casque 18
chanteuse 18
charcuterie 18
cherches 18
cherchez 18
chômeurs 18
cierges 18
circonstances 18
cochon 18
collectivités 18
commentaires 18
comp@@ 18
complément 18
compté 18
congrès 18
constaté 18
conséquence 18
corpus 18
couples 18
coupée 18
courtes 18
couru 18
cri 18
croissant 18
croissants 18
cérémonie 18
d'Aix 18
d'administration 18
d'améliorer 18
d'attendre 18
d'homme 18
d'intérêt 18
devra 18
diminuer 18
disparition 18
dommages 18
dr@@ 18
débile 18
décès 18
déménagement 18
dés@@ 18
entraîner 18
entrés 18
espagnole 18
essayent 18
et-ce 18
et@@ 18
excellente 18
expliquait 18
explosé 18
fatigue 18
fausse 18
favoriser 18
filer 18
filière 18
folle 18
formatrice 18
forteresse 18
foutent 18
franc 18
france 18
fréquent 18
fédéral 18
gardait 18
globale 18
graves 18
gui@@ 18
hôtels 18
idéal 18
indépendance 18
initiation 18
ins 18
instants 18
it@@ 18
juif 18
l'apéro 18
l'aquarium 18
l'ar@@ 18
l'exposition 18
l'horreur 18
l'immigration 18
l'inscription 18
l'insertion 18
l'observatoire 18
l'offre 18
l'utiliser 18
l'élève 18
l'épreuve 18
lapin 18
lave 18
lentement 18
liégeois 18
loge 18
lâche 18
lâché 18
lées 18
m'inscrire 18
m'occuper 18
maintient 18
manoir 18
menu 18
mer@@ 18
mi 18
min@@ 18
mondialisation 18
monuments 18
mou@@ 18
mouton 18
musulmans 18
no@@ 18
obligation 18
observer 18
obtenu 18
officielle 18
opérer 18
organisées 18
origine 18
paquets 18
paradis 18
parenthèses 18
paris 18
parisiens 18
parkings 18
parrain 18
partiels 18
partitions 18
pe 18
pes 18
piqué 18
plafond 18
plainte 18
plan@@ 18
plateaux 18
pneus 18
policier 18
poses 18
pou@@ 18
poulain 18
poule 18
pressing 18
privés 18
prière 18
prochaines 18
proposent 18
pré 18
prévoit 18
qu'alors 18
qu'aux 18
quand-même 18
quarante-trois 18
quée 18
rajouté 18
rappel 18
rapproche 18
reconnue 18
recours 18
regroupe 18
représentations 18
restera 18
retrait 18
reviendra 18
reçue 18
rigolé 18
rois 18
rubrique 18
réchauffer 18
références 18
répétitions 18
s'arrêtait 18
saint 18
saisie 18
salariés 18
samedis 18
sentiments 18
serez 18
short 18
sonore 18
soulever 18
soumis 18
souple 18
sous-sol 18
spécialisé 18
spécialités 18
studios 18
suffisait 18
supprime 18
séparation 18
tantes 18
tendre 18
tique 18
tir 18
tis 18
tomates 18
tombés 18
trains 18
traité 18
trier 18
trimestre 18
uni@@ 18
voyaient 18
voyez-vous 18
week 18
écrivains 18
élevés 18
étendu 18
êtres 18
' 17
BTS 17
Belleville 17
Burke 17
Colombie 17
Cours 17
Côte 17
Di@@ 17
Est 17
Expo 17
Gremlin 17
Général 17
Irlande 17
L'@@ 17
LEA 17
Maison 17
Notre-Dame 17
Pau 17
Petit 17
Picpus 17
Provence 17
Raspail 17
Rouge 17
] 17
abonnement 17
accueille 17
achetez 17
actif 17
active 17
aise 17
alimentaire 17
aliser 17
amènent 17
and@@ 17
anneau 17
archives 17
ards 17
arraché 17
arrivées 17
asiatique 17
ass@@ 17
atmosphère 17
attirer 17
autorités 17
aîné 17
baigner 17
bigouden 17
billes 17
bl@@ 17
blanchisserie 17
boeuf 17
bottes 17
bro@@ 17
bruxelloise 17
bélier 17
cadenas 17
calmer 17
casier 17
censés 17
cer 17
chaleureux 17
chargée 17
charretier 17
charrette 17
chasseurs 17
chevalier 17
chrétiens 17
cire 17
claque 17
cochons 17
coiffeur 17
combats 17
commençaient 17
compréhensible 17
concentration 17
concret 17
confirmer 17
confronté 17
connues 17
constater 17
correcte 17
correction 17
corrige 17
costumes 17
couramment 17
couture 17
couvert 17
cri@@ 17
d'Europe 17
d'alcool 17
d'assez 17
d'avancer 17
d'avis 17
d'expliquer 17
d'hiver 17
d'huile 17
d'immeuble 17
d'oeuvre 17
d'orchestre 17
der@@ 17
descendent 17
description 17
diffuser 17
distribuer 17
dramatique 17
draps 17
défunt 17
délire 17
dépendait 17
déposé 17
désormais 17
emmène 17
empêche 17
ence 17
engueuler 17
enne 17
ennes 17
enquêtes 17
entendent 17
entendue 17
entraîne 17
entretenir 17
ents 17
européennes 17
exercer 17
existe-t-il 17
explose 17
factures 17
fatigués 17
favorable 17
filières 17
finie 17
fit 17
fon@@ 17
fourchette 17
froids 17
gaffe 17
goûts 17
guerres 17
habi@@ 17
hectares 17
hiérarchie 17
hormis 17
identifier 17
impôts 17
individuels 17
inscriptions 17
investissement 17
ir@@ 17
issus 17
j'adorais 17
j'écrivais 17
joindre 17
jugé 17
kilo 17
l'Université 17
l'accusé 17
l'acquisition 17
l'analyse 17
l'animal 17
l'animation 17
l'apprendre 17
l'aéroport 17
l'entend 17
l'entendre 17
l'office 17
l'outil 17
l'unif 17
l'écart 17
libéré 17
lisant 17
lisse 17
lutte 17
légère 17
m'aurait 17
m'étonnerait 17
mafia 17
manifestation 17
mental 17
mit 17
mmm 17
mobilier 17
mobiliser 17
modifié 17
moeurs 17
montrait 17
montés 17
moral 17
moteurs 17
mouettes 17
musicale 17
mélanger 17
neveu 17
noires 17
o-@@ 17
oblige 17
officiel 17
officiellement 17
oi@@ 17
onné 17
ordres 17
ot@@ 17
ouah 17
ouvrent 17
paiement 17
parlerai 17
partenariat 17
particulières 17
pass@@ 17
payent 17
permettrait 17
placard 17
plaines 17
pleure 17
plongé 17
porteur 17
poubelles 17
pr@@ 17
pri@@ 17
principes 17
profondément 17
promenade 17
promotion 17
prouver 17
précision 17
quatre-vingt-deux 17
quatre-vingt-dix-neuf 17
quatre-vingt-huit 17
qués 17
rapporté 17
rater 17
recherchent 17
redonne 17
relevés 17
ressent 17
ressource 17
retenue 17
revienne 17
revoit 17
ronds 17
règlement 17
réformes 17
régionale 17
rému 17
rêvé 17
s'habiller 17
s'ouvre 17
saisir 17
salaires 17
saurait 17
savez-vous 17
se@@ 17
semblant 17
sien 17
sincèrement 17
singe 17
sonné 17
souhaité 17
sportives 17
ssent 17
sses 17
stes 17
suivis 17
symbolique 17
séminaires 17
sésame 17
sévère 17
t'y 17
tarot 17
tension 17
tenté 17
toilette 17
tournage 17
tournures 17
tra@@ 17
tram 17
trente-six 17
trottoirs 17
trouvaient 17
trône 17
téléphones 17
témoignage 17
ven@@ 17
vitre 17
vivais 17
volant 17
volontaire 17
wallonne 17
écoutent 17
écraser 17
ét@@ 17
étudie 17
îles 17
-ci 16
Ahisha 16
Bagio 16
CROUS 16
Caire 16
Canadiens 16
Com@@ 16
DEUG 16
Disney 16
GRN 16
Goban 16
In@@ 16
Jardin 16
Juifs 16
Lala 16
Lorraine 16
Mexico 16
No@@ 16
On 16
Sans 16
Super 16
TOEIC 16
Tour 16
Turcs 16
Victor 16
Zeus 16
accorde 16
accrocher 16
achetait 16
acteur 16
adore 16
agenda 16
ah@@ 16
aiguille 16
alise 16
alisé 16
allumer 16
appartiennent 16
arguments 16
armoire 16
assemblée 16
ati@@ 16
ats 16
attachement 16
atteint 16
attentes 16
augmentation 16
ayez 16
baisser 16
be@@ 16
ber@@ 16
billard 16
bistrot 16
black 16
blessé 16
bourg 16
bêtement 16
campus 16
canapé 16
candidature 16
cassette 16
cassis 16
cent-cinquante 16
chan@@ 16
cherchaient 16
chèques 16
chèvres 16
cierge 16
citoyens 16
cl@@ 16
clairière 16
classeur 16
coller 16
commerciales 16
commercialisation 16
console 16
constamment 16
contes 16
convaincre 16
conversations 16
conviction 16
coopération 16
couloirs 16
critiques 16
croyait 16
créée 16
d'Allah 16
d'Ar@@ 16
d'accès 16
d'enseigner 16
d'expression 16
d'extraordinaire 16
d'utiliser 16
d'État 16
d'écriture 16
demandant 16
demandeurs 16
descendue 16
diabète 16
dialectal 16
difficilement 16
direz 16
dirigé 16
drapeau 16
du@@ 16
débarque 16
déesse 16
dégâts 16
délais 16
délégation 16
dépose 16
dépression 16
déranger 16
déserts 16
désolé 16
eait 16
employée 16
end 16
endormi 16
engagement 16
enseignes 16
entre@@ 16
es-tu 16
eusement 16
exacte 16
extérieure 16
ferment 16
fiction 16
fierté 16
filme 16
financières 16
flamands 16
forge 16
fr@@ 16
gai 16
gants 16
gloire 16
goû@@ 16
grandir 16
gymnase 16
génie 16
géo 16
habitez 16
hi@@ 16
ho@@ 16
humide 16
indien 16
indiquer 16
industriel 16
indépendants 16
inscription 16
insertion 16
itinéraire 16
ité 16
j'apprends 16
j'estime 16
j'ouvre 16
jaloux 16
jugement 16
l'Ascension 16
l'E 16
l'ONIC 16
l'avocat 16
l'envoyer 16
l'existence 16
l'ombre 16
l'or@@ 16
l'électricité 16
l'émotion 16
l'épicier 16
lancée 16
lard 16
largeur 16
levait 16
librairies 16
liée 16
loups 16
lé@@ 16
m'envoie 16
malaise 16
manche 16
marrons 16
masses 16
mat 16
math 16
menteuse 16
minorité 16
mobile 16
modèles 16
montent 16
morale 16
médical 16
nager 16
natation 16
nettoyage 16
nid 16
noble 16
noeuds 16
nommé 16
nuage 16
occupés 16
oise 16
one 16
opposition 16
ordinaire 16
panneaux 16
par-dessus 16
paraît-il 16
paru 16
passionne 16
payant 16
pays-là 16
payée 16
pneu 16
posez 16
poussent 16
poèmes 16
prairie 16
préférais 16
préférez 16
présidente 16
prévention 16
péri@@ 16
périphérique 16
pétrole 16
qu'autre 16
quantités 16
quarante-quatre 16
quatre-vingt-quatre 16
quatre-vingt-quinze 16
rage 16
raisonnable 16
rapporte 16
reconnaissance 16
recrutement 16
recruter 16
rejouer 16
relever 16
rembourser 16
remplis 16
rendait 16
rent 16
représentent 16
respectent 16
respecté 16
ressemblent 16
retravailler 16
ron@@ 16
royale 16
réagit 16
réalise 16
récréation 16
réfugiés 16
répondent 16
réunir 16
réussis 16
rêver 16
s'é@@ 16
sacré 16
sections 16
skate 16
souche 16
spontanément 16
spécialisés 16
spéciaux 16
steak 16
sti@@ 16
stresse 16
strictement 16
stylo 16
subi 16
subventions 16
suivez 16
surveillance 16
sûrs 16
t'avait 16
t- 16
t-là 16
tarifs 16
tenter 16
terais 16
terait 16
terminée 16
teurs 16
ticket 16
tive 16
toits 16
tombait 16
touchée 16
transformation 16
transporter 16
trente-neuf 16
trompé 16
troupe 16
té@@ 16
ui@@ 16
ur@@ 16
vac@@ 16
valise 16
vendaient 16
ventes 16
virer 16
vitrines 16
vivants 16
vizir 16
wouah 16
z@@ 16
zappe 16
âgé 16
è@@ 16
édition 16
énervé 16
établi 16
Alpes 15
Beaux-Arts 15
Bon 15
Boucher 15
Boumba 15
Bu@@ 15
Chardonnay 15
Franprix 15
Grand 15
Grenoble 15
Grèce 15
L3 15
Liban 15
Louvain-la-Neuve 15
Molière 15
Montmartre 15
Napoléon 15
Nationale 15
Nice 15
Renault 15
Saint-Denis 15
Saint-Pierre 15
San 15
Sevran 15
accep@@ 15
achats 15
acoustique 15
ados 15
aff@@ 15
affiche 15
amenés 15
aménagements 15
aménagé 15
ances 15
ancêtres 15
annonces 15
anti@@ 15
après-midis 15
arg@@ 15
arme 15
arrangé 15
arrondissements 15
arrêtée 15
assumer 15
attache 15
attrape 15
auberge 15
avouer 15
axes 15
banlieues 15
baroque 15
blonde 15
bords 15
bougeait 15
budgétaire 15
buffet 15
bénéfice 15
calcule 15
campagnes 15
canal 15
canne 15
catastrophique 15
catholiques 15
ceinture 15
cel@@ 15
cent-@@ 15
cesse 15
champions 15
charme 15
chauffage 15
chi 15
cinquante-six 15
clac 15
classement 15
colline 15
comm@@ 15
commissariat 15
communiste 15
compar@@ 15
complémentaire 15
comprenne 15
comptait 15
conduite 15
confirme 15
conférences 15
conseillers 15
conseillère 15
conseillé 15
consommateurs 15
constitue 15
continent 15
convivialité 15
coordinateur 15
corail 15
corbillard 15
couché 15
coupure 15
courageux 15
courts 15
coutumes 15
crime 15
cris 15
crié 15
cuisinier 15
cuve 15
côtes 15
d'O@@ 15
d'accepter 15
d'achat 15
d'artistes 15
d'envoyer 15
d'italien 15
d'organisation 15
d'ouverture 15
d- 15
daient 15
descente 15
destination 15
diversité 15
division 15
documentation 15
donne-moi 15
donnerai 15
dures 15
décalé 15
déco 15
décoller 15
définitive 15
délicat 15
dési@@ 15
détente 15
déçue 15
embêté 15
end@@ 15
enrichissant 15
ente 15
es-@@ 15
esprits 15
essayant 15
esti@@ 15
exclusivement 15
existaient 15
extra 15
extrait 15
fabrique 15
fabriqué 15
fixer 15
flamande 15
fondations 15
fontaine 15
forcer 15
foulard 15
futurs 15
fée 15
gain 15
galope 15
glaces 15
glisser 15
gousses 15
gouttes 15
guitares 15
habituée 15
hallucinant 15
harpe 15
huitième 15
humanité 15
hypothèse 15
iers 15
implique 15
indique 15
insisté 15
interroger 15
intervenants 15
interviewer 15
iné 15
isation 15
jusqu'où 15
l'I@@ 15
l'alphabet 15
l'avaient 15
l'axe 15
l'entraînement 15
l'envoie 15
l'erreur 15
l'indépendance 15
l'installation 15
l'instituteur 15
l'instruction 15
l'oeuvre 15
l'opinion 15
l'opposition 15
l'univers 15
laissés 15
lampe 15
larges 15
le-@@ 15
libraire 15
lisais 15
littéraires 15
locataire 15
lus 15
m'enfin 15
magazines 15
malin 15
mamie 15
manager 15
manipuler 15
manuel 15
marocaine 15
marquant 15
ments 15
mené 15
meuble 15
milles 15
miracle 15
modernes 15
mois-ci 15
moule 15
musulmane 15
méchante 15
méchants 15
métaux 15
n'aviez 15
nent 15
noces 15
notaire 15
négative 15
okay 15
options 15
opérateurs 15
organisés 15
originaires 15
ots 15
pan@@ 15
panneau 15
paraissait 15
paramètres 15
partaient 15
passionnant 15
payez 15
peintres 15
permanent 15
permanente 15
permette 15
personnelles 15
phare 15
pilotage 15
piéton 15
plaire 15
planche 15
plomb 15
plume 15
poireaux 15
portables 15
posais 15
positifs 15
positive 15
poules 15
pourrie 15
pouvons 15
poêle 15
prier 15
profit 15
protection 15
préfaces 15
prêtre 15
puisses 15
pédagogiques 15
quasi 15
quatre-vingt-six 15
qui@@ 15
quées 15
racine 15
rapporter 15
rassembler 15
ravin 15
redoublé 15
religieuse 15
rencontrent 15
rentable 15
reprenait 15
restant 15
retiré 15
retours 15
richesses 15
royal 15
réelle 15
répétition 15
s'intégrer 15
s-moi 15
salarié 15
salé 15
sation 15
sels 15
sensibiliser 15
silex 15
siècles 15
socialistes 15
soie 15
soin 15
soixante-quatre 15
soixante-six 15
soldats 15
sortaient 15
sortez 15
souffre 15
stressée 15
sultan 15
surprenant 15
survivre 15
sushi 15
suspension 15
syndicat 15
t'expliquer 15
t'écoute 15
t-il 15
tage 15
tailles 15
tation 15
tenais 15
tenez 15
thérapie 15
tickets 15
tier 15
toiles 15
transcription 15
tre 15
ture 15
ues 15
valent 15
validation 15
valoriser 15
varié 15
verbe 15
vides 15
vieillesse 15
vignoble 15
violon 15
visa 15
vol@@ 15
voyageur 15
vélib 15
waouh 15
weekend 15
ème 15
échanger 15
échec 15
équipements 15
évaluer 15
évènement 15
Amérique 14
Arun 14
BEP 14
Bagdad 14
Bercy 14
Berne 14
Blanc 14
Borinage 14
CCI 14
CM 14
Champs-Elysées 14
Châtelet 14
Co@@ 14
Conan 14
Croix 14
Do 14
ECTS 14
Eiffel 14
Hare 14
Jones 14
Juninho 14
L2 14
Leclerc 14
Lilas 14
MSN 14
Miyazaki 14
Monaco 14
Monde 14
Mont 14
Ounamir 14
Pacifique 14
Palais 14
Parlement 14
Pologne 14
Pompéi 14
Psyché 14
Rennes 14
René 14
Ré@@ 14
Sorbonne 14
Star 14
Su@@ 14
Suède 14
Titête 14
Vlada 14
Wii 14
abordé 14
accessibles 14
adhérents 14
admettre 14
adolescent 14
ain@@ 14
ait-il 14
alité 14
amateur 14
amélioré 14
appar@@ 14
appelles 14
applique 14
aprèm 14
aquariums 14
as-tu 14
autobus 14
aveugle 14
aînée 14
bail 14
banal 14
bancs 14
baskets 14
biens 14
bizarrement 14
boi@@ 14
bouchers 14
bouchon 14
bougent 14
branché 14
bravo 14
brûle 14
bulles 14
bulletin 14
cabine 14
cailloux 14
calculer 14
canon 14
cantine 14
cerf 14
certificats 14
cervelle 14
chang@@ 14
chantent 14
chocolats 14
choisie 14
choquée 14
chérie 14
cigarettes 14
coca 14
cohérent 14
collectivité 14
comique 14
compare 14
comptable 14
conclusion 14
confi@@ 14
considèrent 14
constat 14
construite 14
consultation 14
contemporaine 14
continu 14
continu@@ 14
coupable 14
couraient 14
coûtait 14
creux 14
crie 14
crâne 14
cuillère 14
cuir 14
curieuse 14
côtoie 14
d'H@@ 14
d'actualité 14
d'ar@@ 14
d'arbres 14
d'employer 14
d'enfant 14
d'insertion 14
d'or@@ 14
d'orange 14
d'ordinateur 14
d'économie 14
dant 14
delta 14
demandera 14
dessinée 14
deviner 14
devons 14
dites-moi 14
documentaire 14
donnais 14
débouchés 14
défaire 14
définis 14
dégradation 14
démarré 14
démissionner 14
départementale 14
dét@@ 14
e- 14
ellement 14
enseigne 14
entières 14
envers 14
envoyée 14
eries 14
ess@@ 14
eus 14
eut 14
explications 14
expliquent 14
fai@@ 14
fau@@ 14
femelles 14
feraient 14
ferez 14
ficelle 14
fiers 14
figures 14
financeur 14
flagrant 14
flèche 14
fonctionnaires 14
fonctionnait 14
fondre 14
foudre 14
fragile 14
franchir 14
fringues 14
frustrant 14
fume 14
geait 14
gl@@ 14
glissé 14
gratuits 14
gri@@ 14
gsm 14
guichet 14
générales 14
habillé 14
handicapé 14
hardcore 14
historiques 14
info 14
infor@@ 14
ins@@ 14
inspecteur 14
internat 14
interprète 14
interroge 14
intégration 14
invitation 14
iques 14
j'ose 14
jouez 14
juges 14
jurés 14
jusqu'ici 14
l'Ouest 14
l'actualité 14
l'aller 14
l'amener 14
l'an@@ 14
l'automne 14
l'aventure 14
l'effort 14
l'enlever 14
l'honneur 14
l'initiative 14
l'intéresse 14
l'orientation 14
l'ouvrage 14
laid 14
latine 14
licenciés 14
limiter 14
litres 14
live 14
locales 14
longuement 14
lumières 14
lyonnaise 14
lève-toi 14
légende 14
m'entends 14
macarons 14
maghrébins 14
maintenance 14
marmite 14
masculin 14
mensuel 14
merveilleuse 14
mesurer 14
mettrai 14
meurs 14
modification 14
modules 14
moi@@ 14
motifs 14
mou 14
mouillé 14
mutation 14
médi@@ 14
mélangent 14
n'aiment 14
n'hésitez 14
neuve 14
nu 14
néanmoins 14
négatifs 14
négociation 14
occupait 14
orchestre 14
organisent 14
orientation 14
ot 14
ours 14
paille 14
pair 14
paires 14
panique 14
parachute 14
pareilles 14
partiel 14
partition 14
passions 14
pensionnat 14
pilier 14
pin@@ 14
pique 14
plaint 14
planning 14
planète 14
po 14
poire 14
pon@@ 14
pop 14
populaires 14
posées 14
prendrait 14
principales 14
priorités 14
procédure 14
proie 14
prouve 14
préparent 14
présentent 14
présidence 14
psychologue 14
pète 14
quatre-vingt-dix-huit 14
race 14
raide 14
ramassé 14
recherché 14
remarquez 14
rencontrée 14
rendez 14
renommée 14
rentraient 14
renvoyé 14
repense 14
reproduire 14
représentant 14
respire 14
ressentir 14
reverra 14
roquefort 14
russe 14
récap 14
régulier 14
réinscrire 14
rénovation 14
réparer 14
réputé 14
s'approcher 14
s'asseoir 14
s'entendait 14
s'éloigner 14
sauvé 14
sensibilité 14
sentier 14
serviteurs 14
sienne 14
soixante-deux 14
sor@@ 14
souhaitait 14
sources 14
spéciales 14
stand 14
statue 14
stressant 14
super@@ 14
sées 14
t'intéresse 14
tan@@ 14
tar@@ 14
tations 14
taxis 14
te@@ 14
teront 14
thermique 14
tirent 14
touchés 14
tramway 14
transférer 14
utilisait 14
utilisée 14
utilisées 14
variétés 14
vider 14
vôtre 14
whisky 14
zibeline 14
économies 14
égoïste 14
épouvantable 14
équipement 14
étudiantes 14
évaluation 14
évoque 14
*Paul_Biron* 13
Alain 13
Algériens 13
André 13
Basra 13
Bel@@ 13
Boulogne 13
Brive 13
Brésil 13
CAI 13
CDD 13
CPAS 13
Cannes 13
Carrière 13
Champigny 13
Château 13
Claude 13
Du@@ 13
Eilis 13
Eleanore 13
Erasmus 13
Excel 13
Fribourg 13
Héphaistos 13
Johnny 13
Joseph 13
Luyindula 13
Man@@ 13
Marseillais 13
Maurice 13
Mickael 13
Méditerranée 13
Népal 13
Nîmes 13
Papa 13
Par@@ 13
Paran 13
Parc 13
Pasteur 13
Plantes 13
Président 13
Puces 13
Sisyphe 13
Skype 13
Suk 13
Wallen 13
X 13
Zaïre 13
aboutir 13
acceptée 13
accompagne 13
accor@@ 13
accro@@ 13
accueilli 13
actes 13
adjectifs 13
administrative 13
adolescents 13
agir 13
aidait 13
aile 13
aimais 13
aimeriez 13
ajouter 13
alement 13
allemagne 13
amitié 13
amont 13
américaines 13
anecdotes 13
ang@@ 13
animateur 13
animateurs 13
annexe 13
appelaient 13
apprentis 13
architecte 13
armée 13
arrange 13
arranger 13
assurances 13
attaqué 13
aur@@ 13
auto-@@ 13
axé 13
aïe 13
bal 13
basses 13
battue 13
belgicismes 13
biologie 13
blocs 13
bof 13
booste 13
bossent 13
bâton 13
bâtons 13
c'c'est 13
candidat 13
cap@@ 13
cash 13
casquette 13
cavalier 13
chantant 13
chienne 13
cho@@ 13
choper 13
chorale 13
ciao 13
circuler 13
cli@@ 13
colis 13
collective 13
collocation 13
colloque 13
colonne 13
commandement 13
comparée 13
compositeur 13
compositions 13
concernés 13
confie 13
conflits 13
connecter 13
contre-@@ 13
convenait 13
corrects 13
costaud 13
couler 13
courants 13
couteaux 13
cravate 13
creusé 13
cro@@ 13
crocodile 13
croi@@ 13
créent 13
cuisines 13
cultivé 13
d'An@@ 13
d'ab@@ 13
d'accents 13
d'accompagnement 13
d'accéder 13
d'allemand 13
d'animaux 13
d'ap@@ 13
d'après-midi 13
d'artifice 13
d'assurance 13
d'histoires 13
d'hôtel 13
d'important 13
d'inscription 13
d'intervention 13
d'oeil 13
d'orientation 13
d'équipe 13
d'état 13
d'étrangers 13
d'étudier 13
d'éviter 13
de-@@ 13
del 13
demandée 13
destiné 13
deuxièmement 13
diminue 13
dis-moi 13
discret 13
discutait 13
distinction 13
distingue 13
dite 13
divisé 13
do 13
domaine-là 13
douzaine 13
dre 13
due 13
durable 13
dvd 13
débarqué 13
déclaré 13
décédé 13
défi 13
définitif 13
dégagé 13
dégoûtée 13
déplace 13
désagréable 13
déterminer 13
développe 13
effacer 13
effectué 13
emporté 13
enfermé 13
engager 13
ennuis 13
enregistrement 13
entourée 13
envoyés 13
eriez 13
essence 13
estimez 13
euhm 13
existence 13
experts 13
exprimé 13
fa@@ 13
facteur 13
faibles 13
far@@ 13
fatigant 13
fidèle 13
filmé 13
financeurs 13
flics 13
folklorique 13
formulaire 13
formules 13
fournit 13
froide 13
fromagerie 13
fuir 13
fêter 13
gardienne 13
gardée 13
gel 13
graphie 13
grav@@ 13
grenier 13
grizzlis 13
guère 13
gène 13
gé 13
gé@@ 13
géré 13
gêné 13
gênée 13
habillée 13
han 13
honneur 13
horribles 13
huile 13
héritage 13
imaginé 13
incidents 13
individu 13
indépendamment 13
informatiques 13
inscrits 13
interprétation 13
intime 13
intonations 13
investissements 13
invi@@ 13
j'attendais 13
jean 13
jeans 13
jeudis 13
junior 13
karaté 13
kot 13
l'A 13
l'Asie 13
l'ETA 13
l'I 13
l'IUT 13
l'Irlande 13
l'ab@@ 13
l'académie 13
l'accord 13
l'arbitre 13
l'argot 13
l'enveloppe 13
l'explication 13
l'expliquer 13
l'exploitation 13
l'immobilier 13
l'instrument 13
l'internat 13
l'intonation 13
l'issue 13
l'orchestre 13
l'âme 13
l'échange 13
l'épaule 13
laissez 13
lame 13
lave-vaisselle 13
lisez 13
logiquement 13
lou@@ 13
loupé 13
lutter 13
légitimes 13
mang@@ 13
marin 13
marollien 13
mi-@@ 13
micros 13
mondial 13
moque 13
moquer 13
mouche 13
moutons 13
multi@@ 13
mystère 13
méri@@ 13
n'aurais 13
naturels 13
nette 13
nommer 13
nouilles 13
néerlandophone 13
néerlandophones 13
oc@@ 13
oi 13
oli@@ 13
onn@@ 13
ons-nous 13
orientations 13
ouvrait 13
parfaite 13
pari 13
paroisse 13
parti@@ 13
participants 13
participent 13
passerai 13
passerait 13
pay@@ 13
pe@@ 13
photocopie 13
plaisante 13
pleines 13
poing 13
point-là 13
pointes 13
pointu 13
poly@@ 13
portail 13
posés 13
potentiel 13
poudre 13
pouf 13
pouviez 13
poète 13
poétique 13
preuves 13
prime 13
privilégier 13
privilégiés 13
privées 13
progressivement 13
proposait 13
prospection 13
prés 13
puissiez 13
quarantaine 13
quarante-neuf 13
quatre-vingt-sept 13
racontaient 13
ramasse 13
ramenait 13
rappor@@ 13
raquettes 13
reconnus 13
reflet 13
refu@@ 13
renforcer 13
rentrez 13
repartis 13
retire 13
rideaux 13
risquent 13
robinet 13
roses 13
rouge-gorge 13
roul@@ 13
récupération 13
réduction 13
régie 13
régimes 13
régionales 13
répertoire 13
réunis 13
révisé 13
s'appellent 13
s'intéresser 13
s'organiser 13
sachent 13
sachez 13
salons 13
satisfait 13
saviez 13
sculptures 13
scénario 13
seau 13
seigneur 13
selle 13
sensibilisation 13
servante 13
serve 13
situé 13
socialiste 13
som@@ 13
sonner 13
souper 13
soutenu 13
spectateurs 13
sportive 13
spécialistes 13
ssait 13
ssant 13
stratégique 13
structuré 13
stupide 13
sud-ouest 13
suppor@@ 13
supporté 13
suspendu 13
systématique 13
sérieuse 13
talent 13
technicien 13
tenus 13
termin@@ 13
texto 13
thématique 13
théories 13
tiques 13
tirait 13
tissus 13
trem@@ 13
trente-quatre 13
tribu 13
trot 13
trouverez 13
truc-là 13
tures 13
tâ@@ 13
télé@@ 13
téléspectateurs 13
un@@ 13
utiles 13
valises 13
vanne 13
vendeur 13
vestiaires 13
vieillards 13
viendrai 13
vingt-et-une 13
viser 13
visi@@ 13
visuel 13
volets 13
web 13
éducateurs 13
épousé 13
épée 13
éteint 13
éti@@ 13
évidence 13
's 12
3 12
Anvers 12
Bac 12
Bar@@ 12
Bou@@ 12
Butte 12
CAF 12
CAP 12
Chavaux 12
Communauté 12
David 12
Espagnols 12
Freudi 12
Jean-Luc 12
Jean-Paul 12
Julien 12
Las 12
Lorie 12
Maghrébins 12
Maire 12
Mitterrand 12
Mon@@ 12
Nutella 12
Pi@@ 12
Poste 12
SMIC 12
SMS 12
Sainte 12
Seconde 12
Stromberg 12
Sèvres 12
TB 12
Tara 12
Thaïlande 12
Valence 12
Vegas 12
Y@@ 12
Zola 12
absence 12
accroche 12
ades 12
administrations 12
adorable 12
affirmation 12
aident 12
aiguilles 12
albums 12
alimentaires 12
aliste 12
alisée 12
alités 12
allure 12
allusion 12
allô 12
amende 12
amusé 12
and 12
annoncer 12
app@@ 12
appartenait 12
appel@@ 12
appor@@ 12
apport 12
apportait 12
asse 12
asseoir 12
assiettes 12
assistant 12
atrice 12
att@@ 12
attendais 12
attire 12
auditeurs 12
automatique 12
autonomie 12
bachelor 12
bacs 12
bactéries 12
bal@@ 12
baptême 12
barbier 12
barrage 12
barres 12
basé 12
bat 12
ber 12
bijoux 12
bilingues 12
bloquer 12
bonhommes 12
bonnet 12
bourgmestre 12
bourses 12
brancher 12
bretagne 12
bretonne 12
c'en 12
cachés 12
calculs 12
carosse 12
carrières 12
cars 12
cau@@ 12
celles-là 12
cellules 12
cependant 12
chais 12
chait 12
chasser 12
chauff@@ 12
cheville 12
chic 12
cho 12
choquant 12
chou 12
chrétienne 12
chutes 12
châtaignes 12
chés 12
cin@@ 12
cinquante-deux 12
citation 12
classer 12
clefs 12
cliente 12
clip 12
coincé 12
communautaire 12
compagnon 12
compagnons 12
comporte 12
composée 12
compromis 12
compétitions 12
concertation 12
confrontés 12
congélateur 12
considérait 12
consommer 12
constante 12
constitutionnel 12
contemporain 12
continues 12
convenable 12
convivial 12
copier 12
couches 12
coupés 12
courriers 12
crains 12
crainte 12
crottes 12
créations 12
cules 12
cure 12
céder 12
d'Al@@ 12
d'Oc 12
d'adaptation 12
d'appeler 12
d'espaces 12
d'immigrés 12
d'ingénieur 12
d'oreille 12
d'université 12
d'urbanisme 12
d'édition 12
d'éléments 12
deman@@ 12
dentiste 12
des@@ 12
deux-mille 12
devis 12
digne 12
din@@ 12
directeurs 12
disciplines 12
discrimination 12
disponibilités 12
distances 12
dixième 12
do@@ 12
dollars 12
don@@ 12
doués 12
drôles 12
débats 12
décoration 12
défait 12
délinquance 12
départemental 12
dépendant 12
détriment 12
en-@@ 12
enf@@ 12
enfantine 12
enregistrements 12
entrave 12
entraînement 12
escargots 12
essayaient 12
esthétique 12
ets 12
exagérer 12
exceptions 12
faciles 12
faciliter 12
faveur 12
façade 12
fesses 12
fin@@ 12
finances 12
flipper 12
fondation 12
fondé 12
forfait 12
four@@ 12
fourmis 12
foyers 12
framboise 12
franchi 12
frappent 12
frein 12
fréquemment 12
fréquente 12
gagnent 12
gardez 12
gardiens 12
ges 12
gitans 12
glaives 12
gouffre 12
graisse 12
grandeur 12
gs 12
géniale 12
gênait 12
haine 12
haleine 12
handicap 12
hard 12
hin 12
hâte 12
identique 12
imagination 12
imiter 12
implanté 12
incendie 12
incompréhensible 12
indi@@ 12
indications 12
infirmières 12
initiative 12
intellectuels 12
interlocuteur 12
invisible 12
ique 12
ière 12
j'accepte 12
j'enlève 12
j'hésite 12
j'organise 12
jou@@ 12
jusque-là 12
l'Abkhazie 12
l'absence 12
l'accident 12
l'agrégation 12
l'album 12
l'anesthésie 12
l'architecture 12
l'arrondissement 12
l'arrêt 12
l'autobus 12
l'avons 12
l'en 12
l'engagement 12
l'entourage 12
l'orfèvre 12
l'ouvrir 12
l'élevage 12
label 12
laboratoires 12
laissais 12
lente 12
lin 12
lâcher 12
lèvent 12
légal 12
légitimité 12
m'attendais 12
maintien 12
man 12
manuels 12
marine 12
marins 12
massif 12
mat@@ 12
mettrait 12
militaires 12
mille-@@ 12
mixture 12
modifications 12
moineaux 12
monogamie 12
monstre 12
montaient 12
montres 12
motivé 12
motivée 12
moulin 12
musical 12
médiation 12
mélangée 12
métropole 12
n'ose 12
nation 12
nerveux 12
nobles 12
nombres 12
normales 12
offres 12
oignons 12
oncles 12
ongles 12
opéré 12
orange 12
organisait 12
orthographe 12
partirai 12
pass 12
passerelle 12
pendu 12
pensaient 12
permanences 12
ping-pong 12
pion 12
piscines 12
pitié 12
plaignent 12
plâtre 12
poin@@ 12
pointer 12
poli 12
politiciens 12
poterie 12
pouce 12
poursuite 12
pourvu 12
pouss@@ 12
poussait 12
privilège 12
privilégié 12
professions 12
promoteurs 12
pronon@@ 12
provisoire 12
préparatoire 12
prévenu 12
prévue 12
psychanalyse 12
puce 12
punition 12
péjoratif 12
périmètre 12
périphérie 12
q 12
qu'était 12
qu- 12
quait 12
quarante-sept 12
quarante-six 12
quelconque 12
quent 12
racontes 12
rai 12
rais 12
ram@@ 12
rangé 12
rapprochement 12
rayons 12
re-là 12
rec@@ 12
redoubler 12
refais 12
regards 12
relatif 12
remontait 12
remplissent 12
renseignement 12
repéré 12
ressemblait 12
restaient 12
retient 12
revendre 12
revenez 12
rideau 12
rigolait 12
ris@@ 12
rit 12
rocade 12
roulent 12
rythmes 12
réaliste 12
récolte 12
réfléchisse 12
répété 12
réuni 12
s'entraîner 12
s'envole 12
s'installe 12
s'ouvrir 12
saisi 12
sales 12
secondaires 12
semoule 12
serrer 12
serveur 12
signification 12
sme 12
soixante-neuf 12
souhait 12
spécificité 12
ssement 12
st 12
suicide 12
supers 12
surveille 12
suède 12
suédois 12
sénateur 12
t' 12
t'arrive 12
t'envoie 12
taires 12
talons 12
tapait 12
tapes 12
tasse 12
tement 12
tempérament 12
tenaient 12
tenant 12
textos 12
tien 12
timide 12
tionne 12
tiède 12
toire 12
tomate 12
tour@@ 12
tourn@@ 12
transmet 12
troisièmes 12
tsar 12
tude 12
tunnel 12
télécommande 12
urbaine 12
ures 12
utili@@ 12
utilises 12
v- 12
valorisation 12
verbes 12
verront 12
vise 12
visiteurs 12
vole 12
voleur 12
vécue 12
w 12
wallons 12
çait 12
éducateur 12
épicerie 12
équipé 12
éré 12
Am@@ 11
Arabes 11
Atlantique 11
Bat@@ 11
Bayonne 11
Belfort 11
Bour@@ 11
Bourg 11
Brard 11
CDI 11
CFE 11
CO 11
Cailles 11
Chambres 11
DDE 11
DS 11
Di 11
Don 11
Dragon 11
Fontenay 11
Ganshoren 11
Grande-Bretagne 11
Guy 11
Hainaut 11
Horo 11
Hugo 11
Ici 11
JAP 11
James 11
Kyoto 11
Lettres 11
Li@@ 11
Maliens 11
Milan 11
Montpellier 11
Onsen 11
Opéra 11
Ordener 11
Osaka 11
Pape 11
Parisienne 11
Phaéton 11
Première 11
Ri@@ 11
Rousseau 11
Saint-Germain 11
Saint-Josse 11
Saint-Michel 11
Sciences 11
Temple 11
Ti@@ 11
Tours 11
Triomino 11
Val 11
a-@@ 11
aban@@ 11
accouché 11
achetée 11
actuels 11
administratifs 11
adorait 11
agressifs 11
ajoute 11
all@@ 11
allumé 11
alphabétique 11
am 11
amateurs 11
ambi@@ 11
amenait 11
anc@@ 11
animer 11
annoncé 11
anodin 11
antenne 11
apprécier 11
argument 11
arriva 11
assises 11
atif 11
atives 11
aujourd' 11
autoroutes 11
aventures 11
baccalauréat 11
banane 11
banc 11
barrières 11
basique 11
bat@@ 11
bic 11
bienvenue 11
bières 11
blanquette 11
ble 11
bonnets 11
bossu 11
boucheries 11
bourgeoisie 11
bretons 11
brouillard 11
brut 11
budgets 11
buvait 11
cale 11
calmes 11
cancer 11
caramel 11
carotte 11
caserne 11
cerises 11
cerner 11
cessé 11
chagrin 11
chargés 11
charmant 11
chauffe 11
cheminement 11
cher@@ 11
chevaliers 11
chevreuil 11
chimpanzés 11
choquer 11
chée 11
ciblé 11
ciné 11
civi 11
clef 11
clinique 11
colombien 11
combinaison 11
commencez 11
compenser 11
complexes 11
comptoir 11
comté 11
comédien 11
concentrer 11
concernent 11
concierge 11
conforme 11
confrérie 11
consomme 11
constitution 11
consultant 11
cont@@ 11
containers 11
conte 11
contes@@ 11
contraste 11
cornes 11
correctes 11
corrigé 11
coulé 11
coupons 11
courent 11
coutume 11
critiquer 11
croiser 11
croisés 11
créateur 11
créneau 11
créneaux 11
cs 11
cul@@ 11
cultiver 11
célibataire 11
d'I@@ 11
d'Ivry 11
d'a 11
d'a@@ 11
d'actions 11
d'adresse 11
d'aides 11
d'amener 11
d'avril 11
d'embauche 11
d'emplois 11
d'enregistrement 11
d'espace 11
d'exercices 11
d'infos 11
d'intervenir 11
d'intéressant 11
d'oral 11
d'échanges 11
datent 11
demanda 11
devienne 11
dictée 11
die 11
diesel 11
discutent 11
dispar@@ 11
disparaît 11
dispositifs 11
distribue 11
distributeur 11
distributeurs 11
distribué 11
dormais 11
doubler 11
doubles 11
drama 11
durait 11
duvet 11
débrouillent 11
déci@@ 11
décrocher 11
décédée 11
déformation 11
déplacent 11
déplaît 11
dépôt 11
déroule 11
désespoir 11
embaucher 11
emmenait 11
encourager 11
ends 11
engagements 11
enjeu 11
ennuyeux 11
enseignante 11
enterré 11
entrent 11
envisagé 11
esclave 11
espérant 11
exemplaire 11
exposer 11
faiblesses 11
familier 11
faut-il 11
fermier 11
ff@@ 11
fication 11
fichiers 11
financer 11
financiers 11
fleuriste 11
flotte 11
flou 11
flux 11
flûtes 11
formuler 11
formée 11
fournisseurs 11
franchise 11
francophonie 11
fraîche 11
fumé 11
fusion 11
future 11
férié 11
fê@@ 11
gagn@@ 11
gares 11
gay 11
gendarmes 11
grandit 11
grappe 11
gratter 11
grenouilles 11
grimper 11
guerrier 11
guides 11
guérir 11
ha@@ 11
habilitation 11
habillés 11
hausse 11
hi 11
homme-là 11
hui 11
humour 11
huîtres 11
hérité 11
hôpitaux 11
idéalement 11
ill@@ 11
illé 11
imaginaire 11
imaginons 11
impact 11
impose 11
imprimante 11
inconnu 11
inconnus 11
individuellement 11
industrielle 11
industriels 11
inf@@ 11
ing@@ 11
intellectuelle 11
intéressent 11
intérieure 11
intérêts 11
iss@@ 11
isée 11
isés 11
j'essaierai 11
j'exagère 11
jalousie 11
jettent 11
juré 11
kangourous 11
katakana 11
kiné 11
l'a@@ 11
l'abbaye 11
l'agenda 11
l'agent 11
l'aimais 11
l'annexe 11
l'arrache 11
l'au@@ 11
l'aube 11
l'emprunt 11
l'encre 11
l'enseignant 11
l'horizon 11
l'hygiène 11
l'identité 11
l'inauguration 11
l'influence 11
l'institution 11
l'intégration 11
l'obligation 11
l'observation 11
l'utilité 11
l'ère 11
la-@@ 11
lacunes 11
lai@@ 11
laisse-moi 11
lessive 11
levés 11
liaison 11
libération 11
licol 11
lions 11
lièvre 11
logistique 11
lumineux 11
m'aide 11
m'amuse 11
m'arrivait 11
m'aviez 11
m'entendais 11
m'envoyer 11
m'excuse 11
m'échappe 11
mag@@ 11
maigre 11
majeur 11
majuscule 11
mariages 11
marraine 11
martiaux 11
masque 11
matchs 11
maternité 11
ment@@ 11
merveilles 11
meules 11
meurent 11
mezzanine 11
micro-ondes 11
minable 11
module 11
moine 11
montr@@ 11
montrerai 11
monument 11
motif 11
motos 11
mouchoir 11
mâ@@ 11
mécanicien 11
médicament 11
nationaux 11
naturelles 11
nerfs 11
neuvième 11
neveux 11
normand 11
normaux 11
nouveauté 11
nouveautés 11
nées 11
observe 11
ol@@ 11
oles 11
ologie 11
oreiller 11
organisée 11
ori@@ 11
ose 11
paf 11
pait 11
panier 11
paradoxe 11
parcelle 11
partagé 11
parvenir 11
payais 11
pel@@ 11
pelouse 11
penche 11
perdus 11
persil 11
perso 11
perspective 11
peser 11
pies 11
pil@@ 11
piles 11
pires 11
piège 11
plai@@ 11
plaisant 11
plastiques 11
plongées 11
poivre 11
ponctuel 11
porte-monnaie 11
posant 11
positionner 11
posséder 11
potier 11
poumons 11
poursuit 11
poussée 11
prit 11
prières 11
prochains 11
procéder 11
productions 11
promenait 11
promène 11
propreté 11
protège 11
préalable 11
précaires 11
précieux 11
précisé 11
précédente 11
préemption 11
préfèrerais 11
préoccupation 11
prépares 11
préparés 11
présent@@ 11
présentes 11
prévois 11
pâ@@ 11
pé 11
pêches 11
qu'NNAAMMEE 11
quar@@ 11
quarante-huit 11
quatre-vingt-neuf 11
quez 11
quoiqu'il 11
rails 11
randonnée 11
rappel@@ 11
rapproché 11
rate 11
rats 11
rav@@ 11
reconnaissent 11
rectifier 11
recyclage 11
refuser 11
regardée 11
regrouper 11
regroupés 11
relancer 11
relative 11
rembour@@ 11
remercié 11
rencontrées 11
rendus 11
repartie 11
reprocher 11
respectueux 11
ressortent 11
ressorti 11
restées 11
retournes 11
retraités 11
revi@@ 11
reçoivent 11
riez 11
rivières 11
ronde 11
rs 11
rural 11
rythmique 11
réagissent 11
récente 11
récit 11
récompense 11
rédiger 11
répondait 11
résidents 11
rétro 11
réunit 11
rôles 11
s'adapte 11
s'adresser 11
s'amuse 11
s'apprend 11
s'appuyer 11
s'assurer 11
s'exprimait 11
s'im@@ 11
s'installent 11
s'intéressent 11
s'éloigne 11
s'être 11
sa@@ 11
sabot 11
sain 11
saine 11
salades 11
saucisson 11
sculpteur 11
sem@@ 11
semi-@@ 11
sensations 11
servira 11
sexuel 11
shopping 11
signaler 11
sièges 11
so@@ 11
soir-là 11
soixante-sept 11
sol@@ 11
solde 11
souhaitable 11
souhaitez 11
soulevé 11
souplesse 11
souterrain 11
spectateur 11
splendide 11
sucré 11
sup@@ 11
supermarchés 11
supplément 11
supportent 11
supérieurs 11
sympathie 11
sélectionner 11
tab@@ 11
tapent 11
tata 11
te-@@ 11
techniciens 11
techniquement 11
terrasses 11
terribles 11
tiez 11
tif 11
tin 11
ton@@ 11
touristiques 11
tournant 11
tournure 11
traductions 11
traversée 11
triangles 11
tricot 11
trom@@ 11
tromper 11
tronc 11
trucs-là 11
tte 11
témoins 11
ul@@ 11
vaudrait 11
vendanges 11
venues 11
verse 11
veux-tu 11
vice-président 11
vieil 11
visions 11
voiles 11
vomir 11
voulons 11
vêtement 11
yaourts 11
ès 11
écoutant 11
élaboré 11
élever 11
éloigné 11
épreuves 11
équilibré 11
évoquer 11
Adaniep 10
Ahmad 10
Al@@ 10
An 10
Anderlecht 10
Anne 10
Arago 10
Ardennes 10
Australie 10
Bastogne 10
Beaubourg 10
Beaune 10
Ber@@ 10
Bi@@ 10
Branly 10
Bri@@ 10
Bruno 10
CA 10
CPE 10
Can@@ 10
Cannavaro 10
Catherine 10
Censier 10
Cler 10
Corto 10
Daniel 10
Deschamps 10
Disneyland 10
Drancy 10
En@@ 10
Flandres 10
Florent 10
Fred 10
Frédéric 10
Gilly 10
Guivarch 10
Haute 10
Iran 10
Ivry 10
Joséphine 10
Jouy 10
Ju@@ 10
L1 10
Lisbonne 10
Loire 10
Lucas 10
Mal@@ 10
Marrakech 10
Martin 10
Massoud 10
Ministère 10
Mo@@ 10
Mons 10
Montréal 10
Namurois 10
Noirs 10
Ohlàlà 10
Oscar 10
Paolo 10
Parti 10
Perpignan 10
Po@@ 10
Quick 10
Re@@ 10
Robespierre 10
Roumanie 10
Russes 10
Régional 10
SEGPA 10
Saint-Charles 10
Si@@ 10
Stéphane 10
UE 10
Une 10
Vendée 10
Verviers 10
Zahara 10
absolue 10
accompagn@@ 10
accueillants 10
accueillis 10
ach@@ 10
achetés 10
acide 10
acti@@ 10
actifs 10
adress@@ 10
adresser 10
affi@@ 10
affirmer 10
agresser 10
aidés 10
ains 10
allongée 10
anges 10
anime 10
année-là 10
ap 10
aperçoit 10
aplombs 10
apparaissent 10
apparu 10
apportent 10
apprenaient 10
apprenne 10
apprenti 10
apprécie 10
appuyer 10
arabes 10
araignées 10
arnoult 10
arrivais 10
arrê@@ 10
artificiel 10
artisan 10
arômes 10
associatif 10
associer 10
associé 10
assé 10
ate 10
atie 10
atifs 10
attaque 10
attaquer 10
attenant 10
attendaient 10
au-@@ 10
aurai 10
auteur 10
av- 10
avant-hier 10
avançait 10
avenues 10
avoue 10
ay 10
ay@@ 10
bag@@ 10
bagarre 10
bague 10
balai 10
ban@@ 10
band 10
banquier 10
barbecue 10
basques 10
bass@@ 10
battus 10
bento 10
berbère 10
biche 10
bidon 10
biologique 10
bis 10
bla 10
blessure 10
boites 10
bombes 10
bond 10
bor@@ 10
bossais 10
boucherie 10
bougies 10
bourgeoise 10
bracelet 10
brass 10
brousse 10
brû@@ 10
bénéficier 10
cabinets 10
cachait 10
cachet 10
cad@@ 10
cafèt 10
cafét 10
caisses 10
cam@@ 10
capitaine 10
capté 10
carreau 10
caser 10
catalogue 10
caution 10
ce@@ 10
cercles 10
certification 10
ceux-ci 10
champignons 10
chev@@ 10
chiants 10
chips 10
chou-fleur 10
chut 10
chées 10
class@@ 10
clubs 10
coco 10
collaborateurs 10
collectifs 10
collier 10
coloc 10
colocation 10
colonies 10
communiqué 10
complémentaires 10
complétement 10
comprenaient 10
comptais 10
compte-rendu 10
concepts 10
concevoir 10
conclure 10
conduisait 10
confusion 10
conne 10
conscient 10
conseill@@ 10
conservateur 10
conservé 10
consoles 10
constituer 10
consultants 10
continuez 10
contre@@ 10
contré 10
convaincue 10
conçois 10
cools 10
coordonnées 10
cop@@ 10
copi@@ 10
coque 10
coton 10
courtier 10
couvrir 10
coûté 10
creuse 10
crever 10
criait 10
crises 10
crus 10
cuivre 10
culturels 10
côtelettes 10
d'Au@@ 10
d'acquis 10
d'al@@ 10
d'articles 10
d'avenir 10
d'efforts 10
d'exprimer 10
d'habitants 10
d'horreur 10
d'informatique 10
d'écart 10
demi-journée 10
den@@ 10
dera 10
derai 10
descendus 10
dessert 10
destinations 10
destinées 10
deux-cent-@@ 10
deux-mille-@@ 10
dev@@ 10
diraient 10
discutes 10
disparaissent 10
dispute 10
distinguer 10
dité 10
divorcer 10
doctorat 10
donn@@ 10
dureté 10
déambulateurs 10
débuté 10
déclaration 10
décou@@ 10
découvertes 10
dég@@ 10
démarrage 10
dépen@@ 10
dépêche 10
déroulement 10
désespéré 10
désordre 10
déterminé 10
détruire 10
développée 10
embêter 10
embêtée 10
employeurs 10
empêché 10
endrai 10
endroit-là 10
enfermée 10
enfers 10
enlèves 10
enn@@ 10
enseignements 10
entraîneur 10
entrepris 10
envisager 10
err@@ 10
escalade 10
espérons 10
essentielles 10
ex-@@ 10
exception 10
exige 10
exigeant 10
exotiques 10
expos 10
extr@@ 10
fait-là 10
favorisé 10
faîtes 10
fe 10
fermiers 10
ferry 10
fiant 10
fie 10
financements 10
finissait 10
fié 10
flamme 10
flèches 10
forcement 10
formulation 10
fouilles 10
foutais 10
fréquence 10
fusil 10
galéré 10
garagiste 10
gardés 10
gazelle 10
gen@@ 10
gent 10
gestionnaire 10
gie 10
gigantesque 10
go@@ 10
gomme 10
gonflé 10
gouvernements 10
gracioso 10
graine 10
grange 10
grimpe 10
grimpé 10
griots 10
groupement 10
gruyère 10
gâtés 10
gér@@ 10
haché 10
hautes 10
herbes 10
heurte 10
hmm 10
ho 10
humanités 10
hurlait 10
hurler 10
hurlé 10
hy@@ 10
héri@@ 10
i-@@ 10
identiques 10
idé@@ 10
immobilière 10
impatience 10
impressions 10
inci@@ 10
inconvénient 10
indifférent 10
individuelles 10
informer 10
inquiet 10
inquiète 10
inquiétant 10
insectes 10
installe 10
instit 10
instituteurs 10
intellectuel 10
intermédiaire 10
internes 10
intègre 10
intéressées 10
inversement 10
iras 10
isolé 10
j'a 10
j'apprécie 10
j'arriverai 10
j'écoutais 10
jambons 10
jetée 10
joseph 10
jou 10
juridique 10
jury 10
justes 10
justifier 10
kangourou 10
karaoké 10
ks 10
l'Ar@@ 10
l'H@@ 10
l'Inde 10
l'UDC 10
l'abri 10
l'acte 10
l'affiche 10
l'agriculture 10
l'aile 10
l'amitié 10
l'amélioration 10
l'anneau 10
l'annonce 10
l'auberge 10
l'aura 10
l'aurait 10
l'autorisation 10
l'autorité 10
l'immense 10
l'inspecteur 10
l'océan 10
l'opportunité 10
l'unité 10
l'éducateur 10
l'épaisseur 10
l'équipement 10
l'équitation 10
laps 10
lavé 10
le-là 10
libéral 10
litière 10
livraison 10
livraisons 10
liégeoise 10
logeait 10
lourde 10
lourdes 10
lue 10
légitime 10
m'aperçois 10
m'arrêter 10
m'inquiète 10
m'intéressent 10
m'intéresserait 10
m'occupais 10
mai@@ 10
malles 10
mangez 10
mani@@ 10
mari@@ 10
marie 10
massacre 10
masters 10
matu 10
matériaux 10
me@@ 10
menace 10
mercredis 10
mettes 10
microscope 10
milliards 10
mis@@ 10
mistralien 10
mobilisation 10
mont@@ 10
montgolfière 10
mortel 10
mortes 10
multiplication 10
métros 10
météo 10
mômes 10
n'arrivent 10
n'osait 10
n- 10
nettoyé 10
niers 10
nin 10
nitrates 10
nourrice 10
noyer 10
nécessite 10
négociations 10
observ@@ 10
obé@@ 10
odeur 10
ol 10
optique 10
opéra 10
opérationnel 10
ordi 10
organes 10
orienter 10
orienté 10
originale 10
os@@ 10
oy@@ 10
paies 10
paisible 10
palier 10
parallèlement 10
parapluie 10
park 10
parlerais 10
parlers 10
parquet 10
partenaire 10
particularités 10
patronne 10
pau@@ 10
pavés 10
penché 10
per 10
perde 10
personnalités 10
photographie 10
pinces 10
plains 10
plaquette 10
pleuvoir 10
plon@@ 10
poignée 10
pois 10
pompe 10
porcelaine 10
pos@@ 10
possède 10
post@@ 10
postale 10
potager 10
prati@@ 10
prioritaire 10
probable 10
producteur 10
producteurs 10
productivité 10
profitent 10
promets 10
promo 10
proportion 10
provinces 10
provinciale 10
précipité 10
préférable 10
préférée 10
préparait 10
présentations 10
publi@@ 10
pue 10
pyramide 10
quad 10
qualifier 10
que@@ 10
raccrocher 10
raient 10
ramassent 10
rame 10
rando 10
rappelez 10
raser 10
rassemble 10
rassurer 10
rasé 10
rattrapé 10
recréer 10
reculé 10
refusent 10
rement 10
remettent 10
remplace 10
remplaçante 10
renforcé 10
renouveler 10
renseigne 10
renseigné 10
rentrées 10
reportages 10
repose 10
reprenne 10
ressortissants 10
restais 10
restez 10
retiennent 10
retombe 10
retombé 10
reviendrai 10
revus 10
rigide 10
rions 10
rituel 10
riv@@ 10
romantiques 10
rouleau 10
roules 10
routine 10
roux 10
râ@@ 10
réalisme 10
réalisées 10
réclame 10
réhabilitation 10
réservation 10
résister 10
réveil 10
s'améliorer 10
s'arranger 10
s'arrêtent 10
s'attendait 10
s'avère 10
s'em@@ 10
s'entendre 10
s'inscrit 10
s'écrit 10
s-tu 10
sac@@ 10
sagesse 10
saient 10
sainte 10
saurai 10
sauriez 10
savons 10
scandale 10
scooter 10
seaux 10
semestres 10
servi@@ 10
sexuelle 10
sions 10
skier 10
skis 10
soixante-douze 10
soldes 10
solo 10
sorti@@ 10
souligner 10
spécialisation 10
ssé 10
stable 10
stationnement 10
street 10
subir 10
sup 10
synthétique 10
séquence 10
sérieuses 10
t'aime 10
t'envoyer 10
taches 10
tailler 10
tambour 10
tarte 10
tasses 10
team 10
technologies 10
tentes 10
terriblement 10
territorial 10
terroir 10
tes@@ 10
tolérance 10
tomb@@ 10
tou 10
touchez 10
tra 10
tracteur 10
traditionnelles 10
traditionnels 10
traitements 10
trente-sept 10
tro@@ 10
tronche 10
trouvés 10
tru@@ 10
tubes 10
tues 10
ty@@ 10
uient 10
union 10
unité 10
untel 10
usagers 10
val@@ 10
varier 10
vement 10
vendeuse 10
vernis 10
versions 10
veuve 10
victoire 10
vieillir 10
viennes 10
vigueur 10
violences 10
virus 10
vive 10
voisinage 10
volley 10
voudraient 10
voy@@ 10
voyagent 10
vue-là 10
végétarien 10
vérifi@@ 10
x@@ 10
ya 10
zut 10
çais 10
çant 10
ède 10
ène 10
ète 10
é- 10
échappé 10
éco@@ 10
économiser 10
ég@@ 10
égale 10
égard 10
éliminer 10
émettre 10
émotion 10
épices 10
ét 10
établir 10
éteindre 10
éternité 10
étoile 10
évoluent 10
évènements 10
ê 10
*Charlotte* 9
-y 9
AGEFIPH 9
Agadir 9
Aix-en-Provence 9
Alsace 9
Antilles 9
Antoine 9
Asiatiques 9
Bastelica 9
Bois 9
Bois-Colombes 9
Br@@ 9
Bure 9
CFDT 9
CM2 9
CNRS 9
Cahors 9
Caraïbes 9
Chanelet 9
Christ 9
Christine 9
Christophe 9
Cité 9
Clio 9
Cool 9
Corses 9
Del@@ 9
Dominique 9
Doubs 9
ED 9
Edimbourg 9
Fabrice 9
Finlande 9
Gaia 9
Goupatanaka 9
Guadeloupe 9
Guerre 9
Guyane 9
Gérard 9
Halles 9
Hyères 9
Inter 9
LLCE 9
Libre 9
Libé 9
Lyonnais 9
MJC 9
Madagascar 9
Maghreb 9
Maldini 9
Maltese 9
Mamy 9
Mantaraka 9
Marché 9
Martine 9
Martinique 9
Marusia 9
Mirabeau 9
Mister 9
Mononoke 9
Moquetard 9
Moriero 9
Mouffetard 9
Mé@@ 9
Natoye 9
Nintendo 9
Norvège 9
Nouvel 9
PAC 9
PV 9
Palafrugell 9
Pascal 9
Printemps 9
RMI 9
Ravel 9
Revivo 9
Rou@@ 9
Saint-Jean 9
Sam@@ 9
Satan 9
Sonacotra 9
Strasbourg 9
Sé@@ 9
Sénégal 9
T-shirt 9
TP 9
TPE 9
TVA 9
Tillemont 9
Toronto 9
Verdun 9
Vieri 9
Ville 9
Vivendi 9
Vénus 9
abandonner 9
aberrant 9
abonné 9
absent 9
absente 9
abstrait 9
abusé 9
ace 9
ada 9
adjoint 9
adopté 9
affronter 9
age@@ 9
ager 9
aie 9
aill@@ 9
aimée 9
ainer 9
ajouté 9
ajoutée 9
aler 9
ali@@ 9
aller-retour 9
amant 9
analyses 9
annuel 9
appartenance 9
appui 9
appuie 9
archi@@ 9
argot 9
ari@@ 9
arr@@ 9
arrivons 9
arrêtes 9
arrêts 9
artificielle 9
artisanal 9
assi@@ 9
ates 9
attende 9
attribu@@ 9
aut@@ 9
auto 9
autodidacte 9
autorisation 9
autoroute 9
avancée 9
aver@@ 9
aveugles 9
aéré 9
aï@@ 9
badminton 9
baie 9
baignoire 9
bains 9
baiser 9
balades 9
ballons 9
basculé 9
bassine 9
basée 9
batailles 9
belle-soeur 9
bi 9
bidule 9
bistrots 9
bleues 9
blond 9
bombardements 9
bonté 9
borain 9
bornes 9
bougie 9
boulettes 9
bourgogne 9
brahmane 9
bran@@ 9
brave 9
bricolage 9
brise 9
brun 9
bulle 9
bédouin 9
bénéfices 9
bénévolat 9
cabines 9
caca 9
calmé 9
canadien 9
canards 9
cap 9
caravane 9
caravanier 9
caricature 9
carrefour 9
casino 9
cassent 9
cassettes 9
cat@@ 9
causer 9
cent-vingt 9
cession 9
chameau 9
championnats 9
changeait 9
chapeaux 9
chapiteau 9
charger 9
chau@@ 9
chevreuils 9
chou@@ 9
choucroute 9
ciment 9
cimetières 9
cinq-mille 9
circule 9
clips 9
clope 9
coin-là 9
coll@@ 9
colo 9
colonie 9
combattant 9
commenter 9
communique 9
compensation 9
comportements 9
composé 9
comprendra 9
conduis 9
confier 9
confiture 9
confondre 9
confor@@ 9
connaissant 9
connaisse 9
connexion 9
consacrer 9
consacrée 9
considération 9
construits 9
contenter 9
contribuer 9
contribution 9
convo@@ 9
coordination 9
correspondant 9
corresponde 9
coude 9
country 9
cours-là 9
cousines 9
couverts 9
coûtent 9
crevettes 9
crient 9
cristal 9
crochet 9
cross 9
crue 9
créativité 9
cui@@ 9
culte 9
cé 9
cé@@ 9
célibataires 9
cô@@ 9
d'Azur 9
d'Hélène 9
d'acquérir 9
d'affection 9
d'affichage 9
d'affilée 9
d'amitié 9
d'aménagement 9
d'arabe 9
d'armes 9
d'attraction 9
d'endroit 9
d'enlever 9
d'ex@@ 9
d'expressions 9
d'humeur 9
d'hygiène 9
d'immigration 9
d'infirmière 9
d'interrogation 9
d'offre 9
d'oublier 9
d'évaluation 9
dansent 9
dante 9
dejà 9
delà 9
demandons 9
dialectologie 9
diffusion 9
différencier 9
dirigeants 9
dispositions 9
distin@@ 9
distribu@@ 9
dit-il 9
divisions 9
dix-neuf-cent-@@ 9
dor@@ 9
dormaient 9
doré 9
dose 9
douée 9
dramas 9
drame 9
drapeaux 9
dres 9
dressage 9
débutant 9
débuts 9
décliner 9
décolleté 9
décroché 9
défendu 9
dégagement 9
dégueu 9
démer@@ 9
démonter 9
dépense 9
déplacé 9
député 9
dérangeait 9
dériv@@ 9
désaccord 9
détruit 9
e-toi 9
ec@@ 9
ection 9
effectifs 9
ell@@ 9
em 9
emb@@ 9
emmenaient 9
emmerder 9
employeur 9
en-dehors 9
enc@@ 9
ences 9
enclos 9
endormie 9
endra 9
engag@@ 9
engage 9
engins 9
enterrer 9
entiers 9
entrait 9
envies 9
envoy@@ 9
erons 9
essais 9
essentielle 9
esses 9
est-ce-que 9
et-@@ 9
eur@@ 9
excellence 9
excuse 9
excuses 9
exemplaires 9
existant 9
exotique 9
expliquant 9
exploiter 9
exposés 9
exprim@@ 9
extraits 9
fabri@@ 9
fatalement 9
faubourg 9
fauteuils 9
façon-là 9
feu@@ 9
finisse 9
fix@@ 9
flan 9
flu@@ 9
foin 9
foncé 9
fondamentaux 9
form@@ 9
fourmi 9
fours 9
fracture 9
fraîches 9
freiner 9
fréquentait 9
fréquenter 9
fuite 9
fument 9
fun 9
féminine 9
gal@@ 9
gam@@ 9
genou 9
georges 9
glacier 9
glasgow 9
gni@@ 9
gonfle 9
gorge 9
gou@@ 9
graphique 9
gratte 9
graver 9
grecque 9
grippe 9
grise 9
grossiers 9
gré 9
gue 9
gué 9
gâ@@ 9
généalogiste 9
génér@@ 9
gêner 9
habitations 9
habituellement 9
haie 9
hal@@ 9
handicapées 9
hiragana 9
historiquement 9
hom@@ 9
hommage 9
homogène 9
horizons 9
hui@@ 9
humeur 9
hyène 9
hélas 9
hôte 9
hôtesse 9
ic@@ 9
illimité 9
imagin@@ 9
ina 9
inconsciemment 9
incontestablement 9
indépendante 9
infrastructures 9
inquiets 9
inquiétude 9
instance 9
institut 9
institutrice 9
intelligence 9
intelligents 9
internationaux 9
interrogé 9
intervenez 9
interviennent 9
interviews 9
intonation 9
introduire 9
invent@@ 9
irlandais 9
isait 9
ise 9
issues 9
itinéraires 9
j'ai@@ 9
j'avance 9
j'hésitais 9
jouant 9
jouir 9
juifs 9
jungle 9
kenafa 9
ker 9
kiffe 9
l'ADAC 9
l'Atlantique 9
l'Ile-de-France 9
l'Office 9
l'U@@ 9
l'abbé 9
l'ad@@ 9
l'alimentation 9
l'ami 9
l'appart 9
l'appelait 9
l'approche 9
l'artiste 9
l'augmentation 9
l'autel 9
l'aviez 9
l'avortement 9
l'aîné 9
l'expo 9
l'hypothèse 9
l'i@@ 9
l'imagination 9
l'impact 9
l'important 9
l'intermédiaire 9
l'os 9
l'épicerie 9
l'épée 9
l'ét@@ 9
l'étang 9
l'évaluation 9
l'évangile 9
la@@ 9
lamentable 9
lames 9
lant 9
lapins 9
lav@@ 9
limi@@ 9
linguistes 9
lise 9
ll@@ 9
log@@ 9
logo 9
logé 9
lorsqu'elle 9
los 9
louper 9
lueur 9
lyonnais 9
lâ@@ 9
m'arrange 9
m'ennuie 9
m'exprimer 9
m'intéresser 9
m'était 9
maghrébine 9
magistrats 9
mait 9
malheurs 9
management 9
manifeste 9
manipulation 9
marchais 9
marquent 9
marqués 9
marteau 9
mathématique 9
matos 9
maïs 9
menaces 9
menait 9
mensonges 9
mers 9
meuf 9
micro-@@ 9
mines 9
mineur 9
mineures 9
modes 9
mont 9
moquait 9
mouches 9
multimédia 9
municipales 9
musicologie 9
musulman 9
mythe 9
mécanismes 9
méchamment 9
méditerranéen 9
mélanges 9
môme 9
n'ai@@ 9
n'ait 9
n'arrête 9
n'entend 9
nage 9
naturalisation 9
naît 9
ne@@ 9
nettoy@@ 9
nie 9
niqué 9
nièce 9
noce 9
nou@@ 9
noyau 9
noyé 9
né@@ 9
obligatoires 9
observations 9
observé 9
occidentaux 9
occupations 9
odeurs 9
oeuf 9
onnée 9
oppositions 9
opposé 9
oraux 9
ordonné 9
organisateurs 9
oss@@ 9
ous 9
out 9
ouvertures 9
paraissent 9
parce-que 9
parcourir 9
parenthèse 9
parer 9
parl@@ 9
partie-là 9
parts 9
passagers 9
pensant 9
perdait 9
perfectionné 9
pertinent 9
pervers 9
picard 9
pinceau 9
pions 9
placée 9
plaignait 9
planches 9
plombs 9
pluriel 9
pollen 9
polygamie 9
ponts 9
porcs 9
porte-@@ 9
portrait 9
portraits 9
positives 9
poster 9
posture 9
poteau 9
potiers 9
pou 9
pratiquent 9
pre 9
preneur 9
prestation 9
prisonnier 9
prisons 9
produisent 9
profi@@ 9
progressé 9
projection 9
promenais 9
propriétés 9
propéd 9
précisions 9
prénoms 9
préoccupe 9
prétention 9
prévisionnel 9
punitions 9
pyjama 9
pâté 9
pèse 9
péché 9
pê@@ 9
pêcheur 9
qu'entre 9
qua 9
qualifiante 9
qualification 9
quatre-vingt-dix-sept 9
quatre-vingt-un 9
quelques-unes 9
quota 9
quête 9
racisme 9
racontais 9
rajou@@ 9
rajoutent 9
ramadan 9
rant 9
rappellerai 9
rassemblement 9
ray@@ 9
recouvert 9
redemander 9
redescendu 9
redescendue 9
refus 9
regar@@ 9
regarderai 9
regret 9
rejet 9
relationnel 9
relié 9
remarquables 9
remarquent 9
remette 9
rempart 9
remplissait 9
rend@@ 9
renoncer 9
rentrera 9
renverser 9
renversé 9
repars 9
reproché 9
représentatif 9
repères 9
requins 9
respec@@ 9
respiration 9
ressor@@ 9
retournais 9
retournerai 9
retranscrire 9
retrouv@@ 9
retrouvez 9
revenaient 9
revenant 9
revenons 9
reçus 9
rigolent 9
ris 9
risquez 9
rites 9
rochers 9
romantisme 9
rons 9
rosé 9
rosés 9
roue 9
roulettes 9
ruban 9
rubriques 9
ruines 9
règne 9
réci@@ 9
récolter 9
réductions 9
réflexe 9
rénové 9
réparation 9
réservée 9
résume 9
réussi@@ 9
réussissent 9
révisions 9
s'acheter 9
s'appelaient 9
s'assied 9
s'engager 9
s'ex@@ 9
s'informer 9
s'organise 9
s'ét@@ 9
sabots 9
salariale 9
sam@@ 9
sapin 9
sauras 9
sauvegarde 9
sav@@ 9
savoie 9
secouer 9
sente 9
sentiers 9
servie 9
signalé 9
silencieux 9
sitôt 9
socialement 9
socio 9
soignante 9
soigne 9
soixante-seize 9
solide 9
soliste 9
songe 9
sont-ils 9
sortira 9
souff@@ 9
souffrance 9
souffrir 9
souhaiter 9
soulager 9
souvenais 9
souvient 9
spa 9
ss 9
ssaient 9
ssi@@ 9
stands 9
statuts 9
stockage 9
stylos 9
sub@@ 9
suffira 9
suivies 9
supportais 9
supposé 9
surprendre 9
suspen@@ 9
sécher 9
séjours 9
t'apprend 9
t'as 9
t'est 9
tabac 9
tactique 9
tais-toi 9
tapisserie 9
tarif 9
tatata 9
taureau 9
te-là 9
tenues 9
teries 9
territoires 9
testé 9
thon 9
thé@@ 9
thématiques 9
tige 9
tir@@ 9
tirée 9
tisme 9
tiss@@ 9
to 9
toc 9
torrent 9
tournées 9
trac@@ 9
traditionnellement 9
traduis 9
trai@@ 9
transfert 9
trapèze 9
traumatisée 9
travail-là 9
traver@@ 9
traversent 9
traverses 9
traînait 9
trembler 9
trois-cents 9
troupeaux 9
troupes 9
trouv@@ 9
trouverai 9
trouveras 9
trésors 9
tuent 9
type-là 9
téléphon@@ 9
téléphonent 9
universel 9
urgence 9
usages 9
utilisés 9
utilité 9
vais-je 9
variable 9
ve@@ 9
vends 9
vendus 9
verrait 9
vers@@ 9
vertes 9
veste 9
vestes 9
viendrez 9
vierge 9
viré 9
visages 9
visé 9
volaille 9
volailles 9
voleurs 9
voyageurs 9
voyelles 9
vérification 9
vérifié 9
yougoslave 9
z-@@ 9
ze 9
~ 9
écarte 9
échangé 9
éducatrice 9
éduqué 9
él@@ 9
élargir 9
électorale 9
électriques 9
élémentaire 9
émigrés 9
én@@ 9
énergie 9
énervant 9
ér@@ 9
étiquettes 9
étranges 9
évolutions 9
*Mononke* 8
*Pirette* 8
*Simon* 8
75 8
AG 8
Aillen 8
Ardèche 8
Arte 8
Auchan 8
BO 8
Barbet 8
Baudelaire 8
Be@@ 8
Ben 8
Berry 8
Besançon 8
Bichat 8
Big 8
CA@@ 8
CE@@ 8
CI 8
Caen 8
Cameroun 8
Capri 8
Chaos 8
Char@@ 8
Charlemagne 8
Clignancourt 8
Cour@@ 8
César 8
DE@@ 8
DESS 8
Danemark 8
Dans 8
Delmotte 8
Deux 8
Djorkaeff 8
Donald 8
Dunkerque 8
Edmilson 8
Emmanuel 8
Emptinne 8
En 8
Etienne 8
FM 8
Flamand 8
Folie-Méricourt 8
Françoise 8
Gand 8
Gare 8
Giacometti 8
Grande 8
Guimet 8
Halle 8
Henri 8
Indiana 8
Inter@@ 8
Ionesco 8
Jardiland 8
Je 8
Jeanne 8
Jules 8
Juliette 8
Jussieu 8
Kong 8
Kremlin-Bicêtre 8
LE 8
Lafontaine 8
Laos 8
Laure 8
Lourdes 8
Luchini 8
Lusignan 8
MAPIC 8
Majorelle 8
Mamie 8
Marie-@@ 8
Mastermind 8
Mat@@ 8
Matthieu 8
Mer 8
Meuse 8
Mi@@ 8
Monsin 8
Montluçon 8
Nasrédine 8
Neuchâtel 8
Nietzsche 8
Normale 8
Olivier 8
Paidin 8
Pakistan 8
Pinot 8
Plan 8
Polonais 8
Ponçon 8
Pékin 8
Q@@ 8
Raphaël 8
Ray 8
Renoult 8
Rochelle 8
Roquefort 8
Rouen 8
Roumains 8
Royal 8
Région 8
Saint-Affrique 8
Saint-Antoine 8
Saint-Nicolas 8
Salon 8
Sar@@ 8
Sarah 8
Se@@ 8
So@@ 8
Steiner 8
Suisses 8
TGV 8
Triomphe 8
Urian 8
Valérie 8
Vercingétorix 8
Vietnam 8
Vincent 8
Wallon 8
Walter 8
Yahvé 8
abominable 8
abou@@ 8
abri@@ 8
abricots 8
abî@@ 8
accompagnée 8
accompagnés 8
accu@@ 8
accusé 8
actuelles 8
ad 8
adap@@ 8
adaptées 8
ado 8
adolescence 8
adressé 8
afficher 8
affolant 8
age-là 8
agu@@ 8
aidaient 8
aimable 8
aimables 8
aimeraient 8
aines 8
aises 8
aison 8
algérien 8
alisme 8
allergique 8
allongé 8
amitiés 8
aménag@@ 8
ana 8
anecdotique 8
anes 8
angoissé 8
ani@@ 8
anim@@ 8
anniversaires 8
antipathique 8
apercevoir 8
appliqué 8
apprenais 8
approcher 8
appétit 8
aptes 8
ara 8
architecture 8
arde 8
arriverais 8
arriverait 8
arro@@ 8
arroser 8
arrêtaient 8
arrêtait 8
arrêtent 8
arrêtées 8
artistiques 8
asser 8
assistantes 8
assu@@ 8
ative 8
atta@@ 8
attend@@ 8
attestation 8
attirée 8
au- 8
audi@@ 8
audition 8
augment@@ 8
automobile 8
aval@@ 8
avaler 8
ave 8
az@@ 8
aérer 8
ballade 8
banquet 8
baraque 8
barbue 8
baromètre 8
bassins 8
batt@@ 8
battent 8
batteur 8
belgicisme 8
belle-fille 8
bio@@ 8
blason 8
blo@@ 8
bloqués 8
bonus 8
bouc 8
bouché 8
boucles 8
bouclé 8
boue 8
bougnat 8
bouillie 8
bouillir 8
boulangeries 8
boulangère 8
bouquet 8
box 8
braguette 8
bre 8
brill@@ 8
broderie 8
brou@@ 8
brouillon 8
bru@@ 8
brune 8
buisson 8
cab@@ 8
cabane 8
cachette 8
calculé 8
capte 8
carottes 8
casseroles 8
catastrophes 8
cement 8
cessions 8
changerait 8
changez 8
chauds 8
che@@ 8
cheminées 8
choeur 8
choisi@@ 8
châ@@ 8
cieux 8
cinquante-et-un 8
cinquante-neuf 8
cir@@ 8
circuits 8
citerai 8
citoyen 8
citron 8
civil 8
civiques 8
clairs 8
clavier 8
cliché 8
clichés 8
climatique 8
clochards 8
cloches 8
cocher 8
cocktails 8
coiffe 8
coiffer 8
coins-là 8
collections 8
collés 8
colonisation 8
coloré 8
coma 8
combattre 8
commenc@@ 8
commerçante 8
commissaire 8
commode 8
communi@@ 8
compact 8
complets 8
complété 8
comptent 8
conclusions 8
configuration 8
connaitre 8
connecte 8
consacre 8
consacré 8
conservation 8
conservatoires 8
contenir 8
contradiction 8
contribué 8
convoqué 8
corydoras 8
coréenne 8
costard 8
couilles 8
coussin 8
coussins 8
critiqué 8
crochets 8
croisée 8
croyaient 8
croyants 8
crève 8
crédible 8
créole 8
créés 8
ctif 8
ction 8
cueillir 8
cuits 8
cultivés 8
cuves 8
cymbales 8
cée 8
célèbres 8
cépage 8
d'Anvers 8
d'Espagne 8
d'abeille 8
d'accidents 8
d'affaire 8
d'agence 8
d'agriculture 8
d'am@@ 8
d'an@@ 8
d'anciens 8
d'angoisse 8
d'architecte 8
d'assurances 8
d'atteindre 8
d'augmenter 8
d'emblée 8
d'habitation 8
d'hier 8
d'honneur 8
d'humour 8
d'instruction 8
d'intégration 8
d'intérêts 8
d'oeuvres 8
d'oiseaux 8
d'orge 8
d'oxygène 8
d'éco 8
d'étudiante 8
dan@@ 8
danses 8
demandeur 8
descendais 8
descendant 8
dessin@@ 8
devras 8
diez 8
dil@@ 8
diminué 8
diplômés 8
dirigée 8
diront 8
discrètement 8
dises 8
disponibilité 8
dit-on 8
documentaires 8
doive 8
domin@@ 8
donateur 8
donneront 8
donnez-moi 8
donniez 8
dortoir 8
douceur 8
douleurs 8
dy 8
dynamisme 8
déc@@ 8
déception 8
décident 8
déclic 8
déco@@ 8
décollage 8
décors 8
découverts 8
décroissant 8
défend 8
défilé 8
définitivement 8
déli@@ 8
délibération 8
délimi@@ 8
délivrer 8
délégués 8
démocratique 8
dépanner 8
dépensé 8
désigné 8
détaillé 8
détrui@@ 8
développent 8
e-moi 8
embrassé 8
emmenée 8
emmène-moi 8
emprunté 8
encodage 8
enfermés 8
engagée 8
engagés 8
enjeux 8
ennuy@@ 8
enseignait 8
entendais 8
entrez 8
envahi@@ 8
envahir 8
enveloppe 8
envoient 8
espoir 8
espérer 8
eues 8
excursions 8
exploi@@ 8
exploitations 8
expriment 8
ez-le 8
fa 8
fac@@ 8
familiales 8
fans 8
faucille 8
faune 8
favor@@ 8
fest-noz 8
festivals 8
fiancé 8
figues 8
finalité 8
fines 8
finissais 8
flamenco 8
fluide 8
fo@@ 8
fondamental 8
fourni 8
foutait 8
fragiles 8
fraîcheur 8
frot@@ 8
fréquentes 8
fumoir 8
ga@@ 8
gagnait 8
gains 8
galeries 8
gardais 8
gavé 8
geant 8
genre-là 8
glaciers 8
glaçons 8
gna 8
gne 8
go 8
gourmand 8
gousse 8
grade 8
grand-@@ 8
gratuitement 8
gravure 8
griller 8
grossir 8
guer 8
gueu@@ 8
guider 8
gypaète 8
gères 8
gée 8
généraux 8
généreux 8
gés 8
handball 8
heur@@ 8
honnête 8
hou 8
hyper@@ 8
i- 8
ia 8
idiots 8
ili@@ 8
illa 8
illent 8
illustrer 8
immenses 8
immobilières 8
immédiat 8
impor@@ 8
impressionnée 8
inconscient 8
indemnités 8
indienne 8
industries 8
infirmier 8
informati@@ 8
informé 8
inférieur 8
innocent 8
inspiré 8
installées 8
instituteur 8
insérer 8
intelligente 8
intense 8
interface 8
interpréter 8
intervenu 8
intimes 8
intimité 8
introduit 8
invention 8
invitée 8
j'achetais 8
j'admire 8
j'arriverais 8
j'emploie 8
j'explique 8
j'évite 8
jadis 8
japonaises 8
jargon 8
jaunes 8
jeu@@ 8
joint 8
jouets 8
juriste 8
l'AJA 8
l'Algérie 8
l'An@@ 8
l'Education 8
l'Ile 8
l'O 8
l'Opéra 8
l'U 8
l'UNEF 8
l'Union 8
l'aff@@ 8
l'ambulance 8
l'apparition 8
l'application 8
l'après 8
l'architecte 8
l'ascension 8
l'assiette 8
l'atlas 8
l'atmosphère 8
l'av@@ 8
l'aînée 8
l'emmener 8
l'empereur 8
l'emplacement 8
l'ennemi 8
l'es@@ 8
l'espoir 8
l'espère 8
l'imaginer 8
l'imprimante 8
l'incendie 8
l'initiation 8
l'interférence 8
l'interlocuteur 8
l'intégrer 8
l'obstacle 8
l'opposé 8
l'ordinaire 8
l'échec 8
l'écologie 8
l'écu@@ 8
l'énergie 8
l'épouse 8
l'éviter 8
laissaient 8
laissez-moi 8
laissons 8
lam@@ 8
lan@@ 8
lancent 8
lances 8
lez 8
limitée 8
line 8
loc@@ 8
lointain 8
lorrain 8
losange 8
loterie 8
lycéens 8
lée 8
m'achète 8
m'amène 8
m'avoir 8
m'emmener 8
m'en@@ 8
m'explique 8
ma- 8
malle 8
manches 8
manie 8
manteaux 8
manuscrit 8
maquillage 8
marocain 8
marqu@@ 8
massage 8
maternelles 8
mature 8
matériau 8
mau@@ 8
maîtresses 8
menacé 8
menées 8
merles 8
micro@@ 8
miens 8
mignons 8
milieu-là 8
militant 8
militants 8
mobylette 8
modalités 8
modeste 8
moniteurs 8
montais 8
mot-là 8
motiver 8
multiplier 8
municipalités 8
municipaux 8
musculation 8
musicales 8
mythologie 8
mélodie 8
mépris 8
mû@@ 8
n'ayant 8
n'ira 8
na@@ 8
nacelle 8
nageoires 8
nappe 8
nas@@ 8
natif 8
naître 8
niche 8
nue 8
nui@@ 8
nuisances 8
obligées 8
observation 8
occasions 8
off@@ 8
offrent 8
oie 8
oin 8
oit 8
olives 8
olé 8
om 8
omnisports 8
onnes 8
opté 8
originaux 8
oser 8
ote 8
otte 8
ouvres 8
pairs 8
pais 8
pal@@ 8
pantalons 8
papillons 8
paradoxal 8
paralysée 8
parcouru 8
pare-brise 8
parfum 8
parie 8
parle-moi 8
parlementaire 8
parlée 8
paroi 8
participez 8
partira 8
passionn@@ 8
payaient 8
peaux 8
peint 8
percer 8
permettant 8
permission 8
personnes-là 8
perturbe 8
physiques 8
pins 8
pipe 8
pipi 8
piss@@ 8
pizzas 8
plaintes 8
planifier 8
plannings 8
pleur@@ 8
pli@@ 8
plu@@ 8
pognon 8
pollu@@ 8
pompes 8
portant 8
porteurs 8
poserait 8
posiez 8
potentiellement 8
potentiels 8
poulets 8
poussins 8
poutres 8
pressions 8
prochainement 8
produc 8
prolongement 8
prolonger 8
promoteur 8
promouvoir 8
propension 8
proposées 8
provient 8
provocation 8
provoque 8
précédentes 8
précédents 8
préférerais 8
préoccupations 8
présentés 8
présidents 8
prévus 8
prê@@ 8
prêtes 8
psychiatrie 8
psychologiques 8
publié 8
puissante 8
puissants 8
pâtissier 8
pée 8
pén@@ 8
pêcheurs 8
pêché 8
pôle 8
quatre-vingt-quatorze 8
quatrièmes 8
quement 8
quittés 8
quoi@@ 8
quotidiennement 8
radiateur 8
ramass@@ 8
ramènent 8
ramènes 8
rang@@ 8
range 8
rangées 8
rapproch@@ 8
rat@@ 8
rates 8
rattrap@@ 8
rattrape 8
ravie 8
reconstruire 8
recou@@ 8
redevenir 8
redire 8
redress@@ 8
refasse 8
referai 8
reg@@ 8
regarda 8
regardera 8
regret@@ 8
regrets 8
regrettable 8
rejoue 8
relances 8
relier 8
remontent 8
remplie 8
rencontrait 8
rende 8
rendement 8
renon@@ 8
renouvelé 8
rentabilité 8
reparte 8
représenté 8
ress@@ 8
ressemblaient 8
restaurer 8
retour@@ 8
retraites 8
retrouvais 8
reverrai 8
reviendrons 8
rhum 8
rier 8
rigoles 8
roller 8
ron 8
rondes 8
rosée 8
roumain 8
ruelles 8
rythmiques 8
réagi 8
réalisateur 8
réapprendre 8
récentes 8
réfère 8
référente 8
région-là 8
régnait 8
régression 8
répandu 8
répondais 8
réponde 8
république 8
réservés 8
résiliation 8
réuni@@ 8
réussie 8
réussisse 8
réussit 8
rééducation 8
rô@@ 8
rôti 8
s'a 8
s'appuie 8
s'enf@@ 8
s'entendaient 8
s'exprimaient 8
s'ouvrent 8
s-toi 8
sages 8
satisfaits 8
saucisses 8
sauts 8
sauv@@ 8
savon 8
sc@@ 8
sch@@ 8
schémas 8
science-fiction 8
sel@@ 8
semblable 8
semblent 8
sen@@ 8
sent@@ 8
sentiez 8
serres 8
seuil 8
sieste 8
sif 8
sifflet 8
signal@@ 8
signale 8
signalétique 8
signifie 8
signée 8
sin 8
situ@@ 8
situent 8
sixièmes 8
soixantaine 8
son@@ 8
sorcier 8
sorcière 8
soudure 8
souhaitent 8
souk 8
soumettre 8
sous-titres 8
soutenance 8
soutient 8
soyons 8
soû@@ 8
spécialisées 8
squelette 8
ssions 8
stock@@ 8
stocks 8
str@@ 8
stratégiques 8
stressé 8
structurer 8
subjonctif 8
subsidi@@ 8
subven@@ 8
subvention 8
successifs 8
suivaient 8
suivantes 8
sujet-là 8
supports 8
supprim@@ 8
surmonter 8
surveillant 8
survie 8
susceptibles 8
symbole 8
synthé 8
séché 8
sépare 8
t'appel@@ 8
t'appeler 8
t'aurais 8
t'entends 8
tal@@ 8
tambours 8
tandem 8
tartine 8
taxes 8
techno 8
tee-shirt 8
tem@@ 8
tentative 8
teras 8
terr@@ 8
tertiaire 8
the 8
thèses 8
thérapeutique 8
tine 8
tionnelle 8
tiroir 8
tonn@@ 8
tortues 8
tr 8
traiteur 8
tranché 8
transparent 8
travaill@@ 8
travaillera 8
traî@@ 8
tremble 8
trico@@ 8
triple 8
tristes 8
trot@@ 8
tube 8
tur@@ 8
tus 8
tuteur 8
tutoyer 8
tuyau 8
télécharge 8
télévisé 8
urbain 8
vaguement 8
variables 8
veiller 8
vel@@ 8
verdure 8
vestiaire 8
vice 8
vif 8
vill@@ 8
vingt-@@ 8
visibilité 8
votent 8
voyageaient 8
vulgaires 8
vé 8
vélomoteur 8
zi@@ 8
zouk 8
âme 8
âmes 8
ç@@ 8
échappe 8
éclairage 8
éclairer 8
éclater 8
éclats 8
écri@@ 8
écritures 8
éducatif 8
électeurs 8
émerger 8
équitable 8
étendue 8
éter 8
étudiez 8
étés 8
évacuer 8
évi@@ 8
ê@@ 8
*Nicolas* 7
*P@@ 7
*Thomas* 7
000 7
4 7
Asie 7
Auxerre 7
Babylone 7
Baptistère 7
Barthez 7
Bastia 7
Batasuna 7
Benoît 7
Bogota 7
Bond 7
Breton 7
Brisson 7
Burton 7
CDEC 7
CFC 7
CGT 7
CNASEA 7
Café 7
Canal 7
Carnaval 7
Charlotte 7
Christian 7
Ciney 7
Clermont 7
Clichy 7
Club 7
Cologni 7
Conscience 7
Costa 7
Cou@@ 7
Crédit 7
Cuques 7
DG 7
Dakar 7
Daumesnil 7
Delhi 7
Desailly 7
Durance 7
ES 7
Eces 7
Edith 7
Eu@@ 7
Européenne 7
FNAC 7
Foe 7
Fontainebleau 7
Forest 7
Fran@@ 7
Fuji 7
Futuroscope 7
Gal@@ 7
Gall 7
Georges 7
Gi@@ 7
Har@@ 7
Harry 7
Herstal 7
House 7
Héra 7
J'@@ 7
Jafar 7
Jamy 7
Jean-@@ 7
Jean-Marie 7
Laëtitia 7
Le-@@ 7
Louvière 7
Luca 7
MEDEF 7
Maisons-Alfort 7
Malakoff 7
Marie-Hélène 7
Mars 7
Mexique 7
Militaire 7
Mont@@ 7
Montbéliard 7
Moodle 7
Moulinex 7
Métro 7
Müller 7
Nadège 7
Naples 7
Nature 7
Neuilly 7
Or@@ 7
Ouest 7
PS 7
Park 7
Passy 7
Pays-Bas 7
Pe@@ 7
Per@@ 7
Plus 7
Point 7
Pokou 7
Pom@@ 7
Pommier 7
Por@@ 7
Potter 7
Pro@@ 7
Pérou 7
RE@@ 7
Radio 7
Reims 7
Roux 7
SA 7
SS 7
Sables 7
Saint-Ambroise 7
Saint-Gilles 7
Saint-Maur 7
Saintes 7
Saxe 7
Serbie 7
Serre 7
Shopi 7
Signal 7
Sisteron 7
Son@@ 7
TO 7
TOM 7
Tchang 7
Terre-Neuve 7
Thumaide 7
Théâtre 7
Tom 7
Tribunal 7
Trois 7
Tupperware 7
Turc 7
Un 7
VO 7
Vandoeuvre 7
Verviétois 7
Waterloo 7
Word 7
Y 7
Yazdadjird 7
Yougoslavie 7
Yusuf 7
Z 7
Zinédine 7
Zéro 7
a-t-on 7
abandonne 7
abonnements 7
académiciens 7
accorder 7
accordé 7
accrochée 7
ach 7
achetées 7
adaptée 7
adjectif 7
administratives 7
admis 7
adolescente 7
affichage 7
affiché 7
affinités 7
affir@@ 7
affirme 7
affolé 7
agi@@ 7
agna 7
agressif 7
agressée 7
agricoles 7
agé 7
aisée 7
aisés 7
alcool 7
algues 7
alimentation 7
alistes 7
alisés 7
alla 7
alternatives 7
aléatoire 7
ambigu 7
amen@@ 7
amu@@ 7
amusés 7
andes 7
anglaises 7
anglophone 7
angoisse 7
ann@@ 7
anneaux 7
années-là 7
anticiper 7
appeller@@ 7
appellerait 7
apprentie 7
approches 7
approfondir 7
apprécient 7
appuyé 7
apte 7
armé 7
arrach@@ 7
arrache 7
arrière-grand-mère 7
articulation 7
articulations 7
articuler 7
aspect-là 7
asses 7
assimilé 7
associée 7
assom@@ 7
assuré 7
assurée 7
atique 7
atoire 7
atrices 7
attacher 7
atten@@ 7
attendus 7
attentifs 7
atterri 7
atterri@@ 7
atterrir 7
attribué 7
aud 7
auto@@ 7
autonomes 7
autorise 7
avait-il 7
aval 7
avocate 7
ax@@ 7
aéroports 7
b- 7
ba 7
bacon 7
bagage 7
bagnole 7
bagues 7
bai@@ 7
baies 7
bailleurs 7
baladins 7
ball 7
ballades 7
banlieusards 7
barrer 7
barèmes 7
bascule 7
basculer 7
baye 7
beau-frère 7
beaux-arts 7
berceau 7
bert 7
bes 7
besançon 7
bicyclette 7
bilinguisme 7
bip 7
ble@@ 7
bo 7
bobos 7
bocal 7
bonites 7
borgne 7
botanique 7
bouillon 7
bouquets 7
bourré 7
bousculé 7
braille 7
bretonnes 7
britannique 7
broder 7
brûlait 7
brûlent 7
business 7
butte 7
bâ@@ 7
bâtir 7
bé@@ 7
bûche 7
c'ét 7
cachent 7
cachée 7
cadavre 7
cade 7
caillé 7
cales 7
cali@@ 7
calmée 7
campings 7
capital 7
capitalisme 7
capot 7
capter 7
caractérise 7
carbon@@ 7
cardiaque 7
carnaval 7
casses 7
catal@@ 7
ce-là 7
cent-mille 7
centimètre 7
ch- 7
chaient 7
chantiers 7
charbonnage 7
charcutier 7
chera 7
chercheur 7
chet 7
chiffon 7
chinoises 7
choisies 7
choisissait 7
choisissez 7
chon 7
chronologique 7
chéri 7
chômeur 7
cien 7
ciseaux 7
clandestins 7
classeurs 7
clic 7
clientes 7
clou@@ 7
co- 7
cochères 7
cocon 7
cocottes 7
cohérence 7
coincée 7
collation 7
comb@@ 7
commençant 7
communales 7
compagnies 7
comparable 7
compliqués 7
composer 7
compositeurs 7
comprendrais 7
compétents 7
comédie 7
concentré 7
concernées 7
concierges 7
concilier 7
confirmation 7
confirmé 7
conn@@ 7
connaissiez 7
conquête 7
consensus 7
considérant 7
consistait 7
constant 7
constitu@@ 7
consul@@ 7
contacte 7
contenait 7
conteur 7
continents 7
contourner 7
contrer 7
conver@@ 7
convictions 7
conçu 7
coopérative 7
coordinatrice 7
coquillages 7
coquille 7
correspondent 7
corses 7
coréens 7
couchait 7
coucou 7
coudre 7
coupait 7
coupent 7
courais 7
couvent 7
coûts 7
cracher 7
crin 7
croisière 7
cruche 7
crèches 7
créait 7
créateurs 7
créatif 7
crêpe 7
cue@@ 7
cuillères 7
cuisson 7
cuites 7
cy 7
cédé 7
cérémonies 7
côtoyer 7
d'Amérique 7
d'Avignon 7
d'Edimbourg 7
d'Etat 7
d'Hérens 7
d'Irlande 7
d'acquisition 7
d'aff@@ 7
d'alimentation 7
d'analyses 7
d'architecture 7
d'associations 7
d'au 7
d'auteurs 7
d'emmener 7
d'escalier 7
d'essai 7
d'examens 7
d'excellents 7
d'exercice 7
d'hu@@ 7
d'imagination 7
d'imaginer 7
d'impôts 7
d'infir@@ 7
d'inter@@ 7
d'interventions 7
d'observation 7
d'ouvrages 7
d'usine 7
d'émargement 7
d'énormes 7
d'époque 7
d'établir 7
d'établissement 7
d'évoluer 7
d'évoquer 7
dangers 7
dat@@ 7
dauphins 7
de-là 7
demandés 7
demi-finale 7
design 7
dess@@ 7
desserts 7
destinée 7
devenues 7
devriez 7
devront 7
dez 7
dic@@ 7
diffusé 7
dispen@@ 7
disposer 7
distingué 7
divise 7
diviser 7
doi@@ 7
dominant 7
donnerais 7
douter 7
doutes 7
doué 7
drap 7
drôlement 7
duc 7
dus 7
débarrasse 7
débouche 7
débrouilles 7
débute 7
déclenche 7
découpe 7
découper 7
déf@@ 7
défen@@ 7
dégradé 7
délicatesse 7
démission 7
démissionne 7
démo@@ 7
démontrer 7
dépl@@ 7
déposent 7
dépê@@ 7
dérang@@ 7
désespérés 7
désistement 7
déterminée 7
dévi@@ 7
dîtes 7
e-le 7
ef 7
effacé 7
ei@@ 7
emballer 7
embauche 7
embauchent 7
embauché 7
embr@@ 7
embrasse 7
ement-là 7
emménagé 7
employait 7
emprunt 7
empêchent 7
en- 7
encadrement 7
encadré 7
endives 7
endogène 7
ennemi 7
entendant 7
entende 7
entendus 7
enti@@ 7
entraînements 7
entre-temps 7
entretiennent 7
envahis 7
envisage 7
envoi 7
ert 7
esclaves 7
ess 7
esse 7
essentiels 7
eul 7
exceptionnels 7
excessif 7
exer@@ 7
exerce 7
exigence 7
existants 7
expertise 7
expl@@ 7
expli@@ 7
explo@@ 7
exploser 7
exprime 7
expédi@@ 7
extrême 7
f-@@ 7
fabricants 7
facebook 7
faces 7
facultés 7
faillite 7
famili@@ 7
familiaux 7
fanfare 7
fantasme 7
fantôme 7
fasciné 7
favorise 7
fax@@ 7
façades 7
feriez 7
ferrure 7
feuilleté 7
ffes 7
fiancée 7
ficelles 7
filets 7
filtre 7
filé 7
financé 7
finies 7
finira 7
fixes 7
fleur@@ 7
flippant 7
flot 7
flé 7
foires 7
folklore 7
fondamentale 7
fondamentalement 7
forcée 7
formats 7
forment 7
foulée 7
fournis 7
franchit 7
frappant 7
freins 7
froides 7
fréquentation 7
fumeurs 7
funérarium 7
furent 7
furieux 7
futures 7
féconder 7
féliciter 7
fût 7
garniture 7
gastronomie 7
gav@@ 7
gaz@@ 7
gazette 7
ge@@ 7
gentilles 7
gentillesse 7
glisse 7
gnant 7
gnent 7
gno@@ 7
gnons 7
gon@@ 7
grand@@ 7
grands-mères 7
grasse 7
gres 7
grignoter 7
gro@@ 7
grossesse 7
guerrière 7
gueuler 7
guitariste 7
gymnastique 7
gériatrie 7
habituel 7
halle 7
halluciné 7
hamburgers 7
hanches 7
hangar 7
hau@@ 7
hauteurs 7
heure-ci 7
hiérarchique 7
home 7
hostile 7
hu 7
hygiène 7
hélicoptère 7
hésite 7
hésiter 7
idéologie 7
idéologique 7
ignor@@ 7
illi@@ 7
illumin@@ 7
import-export 7
impression-là 7
impressionnante 7
impressionné 7
imprimerie 7
imprimé 7
incapables 7
incas 7
inclus 7
incroyables 7
induit 7
industrie 7
inement 7
influer 7
inférieure 7
injuste 7
innov@@ 7
insist@@ 7
insiste 7
inspire 7
installations 7
instits 7
institution 7
institutionnel 7
instituts 7
insulter 7
insultes 7
interdite 7
interlocuteurs 7
intermédiaires 7
interrogée 7
interrom@@ 7
interven@@ 7
interviewé 7
intégrée 7
intéressait 7
intéresserait 7
intérim 7
investi 7
invraisemblable 7
irons 7
iront 7
isent 7
isolée 7
issaient 7
issant 7
j'-~ 7
j'imaginais 7
j'insiste 7
ja@@ 7
jetaient 7
jetés 7
jo@@ 7
jugés 7
jupes 7
ke 7
kiffais 7
kiosque 7
kiwis 7
kiya 7
kots 7
l'Avenue 7
l'Egypte 7
l'Institut 7
l'UFR 7
l'abandon 7
l'ac@@ 7
l'ai@@ 7
l'aigle 7
l'angoisse 7
l'animé 7
l'apparence 7
l'aprèm 7
l'artisanat 7
l'aspirateur 7
l'attente 7
l'attraper 7
l'audiovisuel 7
l'auditoire 7
l'emporte 7
l'enfer 7
l'entité 7
l'estomac 7
l'exclusion 7
l'habitat 7
l'historique 7
l'humanité 7
l'humeur 7
l'implantation 7
l'in 7
l'indique 7
l'infirmière 7
l'o@@ 7
l'obésité 7
l'occitan 7
l'odeur 7
l'oeuf 7
l'ouvre 7
l'urgence 7
l'éco 7
l'édition 7
l'élaboration 7
l'était 7
laiss@@ 7
laissera 7
lan 7
lar@@ 7
larynx 7
lasers 7
lavée 7
legs 7
levais 7
levées 7
ley 7
librement 7
libère 7
licencié 7
lie 7
livrés 7
localisation 7
loges 7
lor@@ 7
ludique 7
légi@@ 7
légères 7
m'adresse 7
m'agace 7
m'amener 7
m'apporte 7
m'empêcher 7
m'envoyait 7
m'écrit 7
macro 7
maient 7
maillot 7
maires 7
mam@@ 7
mandats 7
mangeras 7
maniaque 7
maniement 7
manifestement 7
manoeuvre 7
manquaient 7
manèges 7
maquette 7
maris 7
mariées 7
maréchal 7
mas@@ 7
melon 7
mement 7
menuisier 7
menée 7
mes-là 7
mess@@ 7
meufs 7
mexicaines 7
mie 7
migration 7
mille-neuf-cent-@@ 7
milliard 7
million 7
minim@@ 7
ministères 7
miracles 7
miroirs 7
mix 7
modestes 7
modestie 7
monarchie 7
monastère 7
montez 7
montraient 7
montées 7
motivations 7
moulage 7
muets 7
mygales 7
mèche 7
méchanceté 7
média 7
médiateur 7
médiathèque 7
méfie 7
méfier 7
mélangés 7
métissé 7
mêlée 7
n'aimait 7
n'arrivait 7
n'oublie 7
n'étant 7
naissent 7
nanas 7
nationales 7
navette 7
ner@@ 7
nier 7
nique 7
nom@@ 7
nor@@ 7
normative 7
notez 7
notés 7
nuisance 7
obligeait 7
observatoire 7
obsession 7
obtient 7
occitan 7
od@@ 7
officiers 7
offrandes 7
oir 7
oire 7
ols 7
ombe 7
onglets 7
onnement 7
opportunités 7
opposer 7
opti@@ 7
opératoire 7
ore 7
ores 7
organisations 7
organisez 7
orphelins 7
osait 7
osent 7
osité 7
oti@@ 7
oublient 7
oublies 7
ouille 7
our@@ 7
ouvrez 7
ov@@ 7
par-ci 7
par-là 7
paranoïa 7
parcelles 7
parisiennes 7
partagent 7
partirais 7
patate 7
pathologie 7
paupières 7
paëlla 7
pen 7
pent 7
percussion 7
percussions 7
perdues 7
perle 7
perm 7
permettraient 7
pertes 7
perçoit 7
peste 7
phonétiques 7
photocopieuse 7
physio 7
pie 7
pieds-noirs 7
piliers 7
piment 7
pizza 7
piétonnes 7
piétons 7
placements 7
plafonds 7
plaisanterie 7
poi@@ 7
poignets 7
poirier 7
poli@@ 7
polonais 7
ponctuellement 7
portez 7
portière 7
portés 7
positionné 7
postulé 7
potable 7
poupée 7
poupées 7
poursuivie 7
poutre 7
pouv@@ 7
poux 7
poésies 7
pr 7
prennes 7
prep 7
pres@@ 7
press@@ 7
prié 7
procureur 7
produi@@ 7
professionnellement 7
profils 7
prophète 7
proposés 7
pros@@ 7
prostituées 7
protégé 7
protégés 7
provoquer 7
prudence 7
prudent 7
précaution 7
préci@@ 7
préfet 7
prét@@ 7
prétend 7
prévenus 7
préviens 7
prévues 7
prêtent 7
psychiatre 7
pt 7
publications 7
publier 7
pui@@ 7
puits 7
punaise 7
punk 7
pures 7
pute 7
puzzle 7
pè@@ 7
pères 7
pépin 7
pér@@ 7
période-là 7
qu'autrement 7
quatre-cents 7
ques@@ 7
quet 7
queur 7
quimper 7
quin@@ 7
quit@@ 7
rab@@ 7
raccourci 7
radi@@ 7
radicaux 7
raisonnement 7
rap@@ 7
rasoir 7
rassurée 7
ravi@@ 7
re- 7
recensement 7
recevez 7
recommandé 7
reconnues 7
reconstituer 7
recteur 7
rectoral 7
recycler 7
redevient 7
redou@@ 7
refermer 7
refuge 7
regretter 7
regretté 7
reines 7
relis 7
reloger 7
relâche 7
remar@@ 7
remarquable 7
remboursé 7
remerci@@ 7
remorque 7
remplacement 7
remuer 7
remédier 7
rencontrez 7
rendant 7
rendra 7
renouvellement 7
reparlera 7
replier 7
reporter 7
reproduction 7
reproductions 7
représent@@ 7
représentés 7
ressortie 7
restrictif 7
retaper 7
retiens 7
retomber 7
retournait 7
retournent 7
retrouvaient 7
retrouvées 7
revendique 7
reçues 7
rie 7
rin@@ 7
rivalité 7
roches 7
rom@@ 7
romande 7
rompre 7
roubles 7
roulait 7
roulement 7
routeur 7
rude 7
ruine 7
rurale 7
ry@@ 7
réalistes 7
réalités 7
récents 7
récupères 7
réfléchissent 7
référents 7
rég@@ 7
régal@@ 7
réglages 7
régulière 7
répliques 7
répétitif 7
rési@@ 7
résout 7
révise 7
révision 7
révolte 7
s'adressent 7
s'amusait 7
s'appeler 7
s'applique 7
s'attache 7
s'attendre 7
s'ennuie 7
s'habillait 7
s'habillent 7
s'habitue 7
s'in@@ 7
s'inquiète 7
s'interroger 7
s'investir 7
s'oppose 7
s'énerver 7
s'éteint 7
s'étend 7
sacristie 7
salu@@ 7
sandwichs 7
sangliers 7
sanitaire 7
sautent 7
sauve 7
scan 7
scandaleux 7
sci@@ 7
scie 7
scouts 7
secrets 7
secs 7
semblerait 7
sentaient 7
septante-cinq 7
serment 7
serre 7
serveurs 7
show 7
siens 7
sier 7
sifflé 7
signatures 7
silhouette 7
similaire 7
simpl@@ 7
sion 7
sirop 7
solitaire 7
solitude 7
solliciter 7
solu@@ 7
sondage 7
sonnait 7
sonnette 7
sonorité 7
sonorités 7
soudain 7
souffrait 7
souffrent 7
souhai@@ 7
souhaitais 7
sour@@ 7
sourd 7
souri 7
sphère 7
spé@@ 7
spécificités 7
ssez 7
statistiques 7
stoemp 7
stressante 7
style-là 7
succession 7
successives 7
suffisante 7
suicider 7
suis-je 7
suivie 7
suppriment 7
suprême 7
surprises 7
surveill@@ 7
surveillait 7
surveillé 7
syn@@ 7
sélectionn@@ 7
sûres 7
t'attends 7
t'en@@ 7
t'inquiètes 7
t'inscrire 7
tablier 7
tabouret 7
tai@@ 7
taillés 7
talon 7
tat@@ 7
tatou@@ 7
tel@@ 7
temples 7
terminait 7
tes-@@ 7
teuse 7
tie 7
til@@ 7
till@@ 7
tin@@ 7
tionn@@ 7
tionnels 7
tionné 7
tiste 7
tomme 7
tongues 7
tonneau 7
tonnerre 7
torche 7
tordu 7
torsade 7
tournés 7
toutefois 7
tradui@@ 7
traduisait 7
trafic 7
trainer 7
traitée 7
traités 7
trajectoire 7
transparents 7
transpirer 7
transporté 7
traumatisme 7
traînent 7
traîné 7
tribulum 7
tribune 7
trice 7
tricher 7
trie 7
trip 7
trois-mille 7
trois-quarts 7
trompée 7
trottinette 7
trou@@ 7
troubles 7
ts-là 7
tsk 7
tt 7
ttes 7
tth 7
tuait 7
tuant 7
turc 7
tuyaux 7
tués 7
uit 7
ultérieurement 7
uniforme 7
ure 7
use 7
ut 7
valaisan 7
valoir 7
vendange 7
vendredis 7
venons 7
verbal 7
verge 7
versée 7
vertical 7
vertige 7
veuille 7
victoires 7
viennois 7
vierges 7
vietnamienne 7
villas 7
virage 7
virages 7
vitrée 7
vives 7
vivons 7
voeux 7
voila 7
voirie 7
volontairement 7
votée 7
voudra 7
voudras 7
voudriez 7
voyag@@ 7
voyiez 7
vr@@ 7
vé@@ 7
véhiculaire 7
vélibs 7
vér@@ 7
weekends 7
workout 7
xxx 7
yens 7
zoo 7
è 7
ènes 7
échos 7
échoué 7
écou@@ 7
écoute-moi 7
écuries 7
éditeur 7
éduquée 7
élan 7
élargi 7
élection 7
électroniques 7
élevait 7
élue 7
émigré 7
émouvant 7
épicier 7
étagère 7
étagères 7
étiquette 7
étudiait 7
ête 7
î@@ 7
'est 6
*D@@ 6
*Gilles* 6
*Herstal* 6
*Olivier* 6
*Pierrot* 6
--@@ 6
2009 6
5 6
A-@@ 6
AOP 6
ASSEDIC 6
Air 6
Al 6
Aligoté 6
Amour 6
Amsterdam 6
Amélie 6
Anatole 6
Arts 6
Auguste 6
Aux 6
Avignon 6
Azrayene 6
BMX 6
Bangkok 6
Basse 6
Bau@@ 6
Beaujolais 6
Ben@@ 6
Bergomi 6
Blan@@ 6
Blocher 6
Bologne 6
Bon@@ 6
Bondy 6
Borains 6
Boston 6
Bâle 6
CE1 6
CS 6
Center 6
Chevènement 6
Christoph 6
Compiègne 6
Comédie 6
Cora 6
Costacurta 6
Cour 6
Courteline 6
Couvin 6
Cresson 6
DC 6
Daguerre 6
Dam@@ 6
Delvaux 6
Digne 6
Dinant 6
Dino 6
Drive 6
Du 6
Eclair 6
Ed@@ 6
Elie 6
Express 6
FIMU 6
Ferr@@ 6
Fifi 6
Fintan 6
France-Inter 6
Fêtes 6
Galway 6
Germain 6
Govou 6
Grands 6
Grenelle 6
Grégoire 6
Gui@@ 6
Géorgiens 6
Haute-Volta 6
Hitler 6
Hong 6
Hu@@ 6
Israël 6
Istanbul 6
Italien 6
Jackson 6
Jo@@ 6
Joachim 6
Jour@@ 6
Kabylie 6
Karembeu 6
Katmandou 6
King 6
Larousse 6
Leica 6
Licence 6
Lo@@ 6
Lope 6
Lorrain 6
Lu@@ 6
Ma@@ 6
Malraux 6
Marti@@ 6
Maud 6
Maïtia 6
Mer@@ 6
Messier 6
Mondiale 6
Montrachet 6
Moskova 6
Mou@@ 6
Moyen-Âge 6
Mozart 6
Moïse 6
NMO 6
Narbonne 6
Ne@@ 6
Ni@@ 6
Noir 6
Noire 6
Nokia 6
Octay 6
Odéon 6
Of 6
PSC 6
Pathé 6
Pentecôte 6
Pessotto 6
Peuple 6
Phoebus 6
Picardie 6
Pinel 6
Pl@@ 6
Plaine 6
Porto 6
Portugais 6
Poulain 6
Princesse 6
Préfecture 6
QCM 6
Quichotte 6
RE 6
RTBF 6
Remacle 6
Rhône 6
Roche-Mauprat 6
Rodin 6
Roger 6
Rohff 6
Rom@@ 6
Romains 6
Ru@@ 6
SVT 6
Saint-Dominique 6
Saint-Mandé 6
Saint-Tropez 6
San@@ 6
Sapho 6
Saumure 6
Seine-Saint-Denis 6
Ser@@ 6
Soleil 6
Sophie 6
Spi@@ 6
Swayze 6
Tache 6
The 6
Tim@@ 6
Tobback 6
Tony 6
Trocadéro 6
Tuileries 6
Turgot 6
Val@@ 6
Valéry 6
Van 6
Versailles 6
Vienne 6
Vierge 6
Vinci 6
Vosges 6
Voynet 6
Véronique 6
W 6
Washington 6
a* 6
a-t-elle 6
abandonnée 6
aberrances 6
abi@@ 6
ablement 6
abord 6
aboutit 6
absences 6
absents 6
absolu 6
absorbé 6
absurde 6
abu@@ 6
accent-là 6
acceptable 6
acceptera 6
accessoire 6
accessoires 6
accrochés 6
accue@@ 6
accueillent 6
accusés 6
accède 6
accélérer 6
achèvement 6
aci@@ 6
acquisitions 6
actives 6
adaptés 6
addi@@ 6
adepte 6
ader 6
adh@@ 6
adhéré 6
adhésions 6
admiration 6
adopter 6
adressez 6
af@@ 6
agit 6
agne 6
agrandiss@@ 6
agressé 6
agriculteur 6
ague 6
aient-ils 6
aisément 6
ait-elle 6
ajou@@ 6
ak@@ 6
alcoolique 6
alerte 6
alis@@ 6
allumée 6
als 6
alternative 6
ambiances 6
ambition 6
amours 6
amphis 6
amusante 6
amuser 6
amèn@@ 6
amènes 6
anie 6
annuaire 6
annuelle 6
année-ci 6
antiquaires 6
antique 6
apostrophe 6
appartenant 6
appli@@ 6
application 6
apportez 6
apprenez 6
apprise 6
apéro 6
araignée 6
architectural 6
argu@@ 6
arrang@@ 6
arriveront 6
arrières 6
ars 6
artisanat 6
assemblées 6
assimil@@ 6
assist@@ 6
assiste 6
associe 6
ast@@ 6
ataire 6
atiques 6
atlas 6
attendons 6
atti@@ 6
attitudes 6
attractif 6
attraction 6
auche 6
auditeur 6
authentique 6
automne 6
autorisé 6
autorité 6
auxiliaires 6
avances 6
avant-@@ 6
avantageux 6
aéroport 6
aïeux 6
babyfoot 6
baissée 6
balancé 6
balcons 6
ban 6
bananes 6
barque 6
barré 6
batteurs 6
benne 6
bergers 6
besace 6
blan@@ 6
blement 6
blessures 6
blog 6
bloquée 6
blues 6
boss@@ 6
bossait 6
bouchons 6
bouchées 6
boudi 6
boug@@ 6
bouill@@ 6
bouleverser 6
boum 6
boums 6
boussole 6
boutons 6
bowling 6
boyau 6
branchés 6
brass@@ 6
brasserie 6
bricoler 6
brioche 6
brioches 6
brique 6
briser 6
broches 6
brochettes 6
brosser 6
brui@@ 6
brusseleir 6
bruyant 6
bruyante 6
bruyants 6
bulletins 6
bur@@ 6
burqa 6
bât 6
bâtie 6
béni 6
bénévole 6
bétail 6
c'je 6
c-@@ 6
cactus 6
cadette 6
cafétéria 6
calcaire 6
caler 6
camp@@ 6
caméras 6
candidatures 6
caniche 6
cantonal 6
cardio-vasculaires 6
caresser 6
carrée 6
catch 6
cations 6
cav@@ 6
caverne 6
ce-@@ 6
centraliser 6
centralisé 6
centralité 6
centré 6
cerisiers 6
certitude 6
cess@@ 6
cha 6
cha@@ 6
chage 6
cham@@ 6
champignon 6
chantaient 6
chap@@ 6
chatte 6
chaudière 6
chaussure 6
chettes 6
chevilles 6
chirurgien 6
cibles 6
cienne 6
cin 6
cinquante-sept 6
circulent 6
civile 6
ck 6
clam@@ 6
clan 6
classées 6
clocher 6
clowns 6
coach 6
cocktail 6
cocotte 6
cogner 6
cohésion 6
coiffeurs 6
coiffeuse 6
coincés 6
cole 6
collaborateur 6
collations 6
colles 6
collines 6
colombes 6
colombienne 6
comble 6
comedia 6
commencement 6
comment@@ 6
commente 6
communications 6
comparaisons 6
compatible 6
compensatoires 6
compense 6
compensé 6
complex@@ 6
compli@@ 6
complications 6
compliquée 6
complètes 6
compose 6
composent 6
comprendrez 6
compta 6
compétent 6
compéti@@ 6
comtesse 6
concentr@@ 6
concentrée 6
concerné 6
concernée 6
conducteur 6
confié 6
confronter 6
confrères 6
connaissons 6
connard 6
connaîtrais 6
connexions 6
conservent 6
considérable 6
considérée 6
consignes 6
consistance 6
constat@@ 6
construi@@ 6
contemporains 6
contenant 6
contenus 6
contient 6
continuaient 6
continuais 6
contractions 6
contribu@@ 6
contrôlé 6
contrôlés 6
conven@@ 6
convenir 6
convenu 6
convocation 6
coopératives 6
corneilles 6
correspon@@ 6
costu@@ 6
cotisations 6
coulisses 6
coulée 6
coup-là 6
couronnes 6
couturière 6
couvertures 6
couvre 6
cra@@ 6
cram@@ 6
craquer 6
craqué 6
crayons 6
criant 6
criminalité 6
croquettes 6
croquis 6
croustillant 6
croyant 6
croyez-vous 6
cru@@ 6
ct 6
cube 6
culinaire 6
culpabilité 6
cumul 6
cus 6
cyclables 6
cætera 6
d'Aligre 6
d'Arun 6
d'Orient 6
d'accueillir 6
d'administratif 6
d'adresses 6
d'adulte 6
d'altitude 6
d'analyse 6
d'appartement 6
d'appels 6
d'apprécier 6
d'arbre 6
d'architectes 6
d'asile 6
d'assistante 6
d'assurer 6
d'aucune 6
d'auteur 6
d'autonomie 6
d'autrefois 6
d'engagement 6
d'ennuis 6
d'environ 6
d'erreur 6
d'erreurs 6
d'eux-mêmes 6
d'examen 6
d'hab 6
d'humidité 6
d'héritage 6
d'idée 6
d'il 6
d'images 6
d'incompréhension 6
d'indépendance 6
d'insécurité 6
d'internet 6
d'intérieur 6
d'inviter 6
d'oreilles 6
d'oïl 6
d'urbanistes 6
d'urgence 6
d'usage 6
d'échec 6
d'égalité 6
d'électricité 6
d'émotion 6
d'épices 6
d'épée 6
d'équipements 6
dangereuse 6
dansantes 6
del@@ 6
demand@@ 6
demi-journées 6
descende 6
dessinateur 6
destinataires 6
devenant 6
devine 6
devint 6
dialoguer 6
diffère 6
différ@@ 6
dinde 6
dir 6
directs 6
dirigées 6
dis-@@ 6
discothèque 6
discrète 6
discrétion 6
discu@@ 6
disparaisse 6
dispo 6
dispose 6
disquaire 6
dissu@@ 6
divorcée 6
dix-mille 6
djembés 6
dockers 6
domestiques 6
dominante 6
donn 6
donna 6
dotation 6
douloureux 6
dragées 6
draine 6
drames 6
drogues 6
dues 6
déb@@ 6
débarquent 6
débarquer 6
débarrassé 6
débi@@ 6
débiles 6
déblaiement 6
débor@@ 6
débordée 6
déboucher 6
débrouillé 6
débuter 6
décal@@ 6
déchirer 6
déchiré 6
déclenché 6
décolle 6
décorations 6
décrit 6
décro@@ 6
défavorable 6
défavorisés 6
défendait 6
déficit 6
défil@@ 6
défiler 6
définitions 6
défunte 6
dégag@@ 6
dégingandé 6
délicatement 6
délit 6
délivr@@ 6
délivré 6
démar@@ 6
dépassent 6
dépensent 6
déplacés 6
déprime 6
dérangeant 6
dérive 6
déroulait 6
déroulé 6
déserte 6
désigner 6
désire 6
détermin@@ 6
détermination 6
détestais 6
détour 6
détresse 6
développements 6
dî@@ 6
e* 6
e-la 6
eais 6
effaces 6
effectu@@ 6
effrayant 6
emballé 6
embarquer 6
embauchés 6
embrasser 6
embête 6
empor@@ 6
en* 6
en-dessus 6
encadrer 6
enchaîner 6
endras 6
enfer@@ 6
enflam@@ 6
enfoncé 6
engueulée 6
enseign@@ 6
ent-ils 6
entendiez 6
entendra 6
enterrait 6
entité 6
entraîn@@ 6
enté 6
envelop@@ 6
enverrai 6
er-@@ 6
ern@@ 6
escalader 6
essaiera 6
essaies 6
estimer 6
ethnique 6
eure 6
eures 6
eux-même 6
excellents 6
exclu 6
excursion 6
exemple-là 6
exigé 6
existantes 6
expliquais 6
exploitation 6
expédition 6
expérimenté 6
externes 6
fabriqués 6
facturation 6
facul@@ 6
faille 6
faisselle 6
fait-il 6
fameuses 6
famine 6
fan@@ 6
fantaisie 6
fascinée 6
fassiez 6
feeling 6
fes@@ 6
fi 6
fichent 6
fictions 6
fidèles 6
figuration 6
figure-toi 6
files 6
filtrer 6
fixés 6
fle 6
flic 6
flot@@ 6
fluo 6
fonctionnaire 6
fonctionnalités 6
fonder 6
forcing 6
forgeron 6
forgé 6
formées 6
fosse 6
fourme 6
fourni@@ 6
fourrure 6
foutaient 6
franco-@@ 6
franco-provençal 6
frange 6
frangin 6
friser 6
froment 6
fréquent@@ 6
fréquentés 6
fumier 6
fédé 6
gagnant 6
galette 6
galettes 6
galérer 6
garanties 6
garantir 6
gars-là 6
gazon 6
geais 6
gence 6
ger@@ 6
gh@@ 6
girafe 6
glaciologues 6
gluant 6
gnait 6
gnes 6
gnon 6
golf 6
gommer 6
gonfler 6
gour@@ 6
gourde 6
gradu@@ 6
grand-parents 6
grandissant 6
gratuite 6
grin@@ 6
grou@@ 6
gueules 6
gueulé 6
guéri@@ 6
géants 6
gén@@ 6
géni@@ 6
géniaux 6
généraliser 6
générique 6
gérant 6
gîte 6
hab@@ 6
habile 6
habilité 6
habiller 6
hacher 6
halo 6
herbe 6
hon@@ 6
hospit@@ 6
hospitalier 6
hum@@ 6
hur@@ 6
hébergée 6
hérite 6
hésitait 6
ici@@ 6
iler 6
illage 6
illon 6
illée 6
imi@@ 6
immigration 6
immobilier 6
immonde 6
impatient 6
impliqué 6
imposant 6
improvisation 6
incite 6
inciter 6
incl@@ 6
inconvénients 6
inculquer 6
inde 6
indice 6
industrielles 6
influences 6
informaticiens 6
ings 6
initiatives 6
initié 6
innovation 6
inquiéter 6
inquiétez 6
installes 6
installez-vous 6
instruit 6
intellectuellement 6
intensif 6
intentions 6
inter-@@ 6
interaction 6
interactions 6
interdits 6
interro@@ 6
interrompu 6
intrigué 6
inté@@ 6
inutiles 6
inv@@ 6
inventée 6
invitent 6
inée 6
inés 6
inévitable 6
irez 6
ises 6
it 6
j'appellerai 6
j'arrêtais 6
j'enregistre 6
j'interviens 6
j'invente 6
ja 6
jar@@ 6
jau@@ 6
jet 6
jeûne 6
jogging 6
judici@@ 6
judiciaire 6
jugements 6
juive 6
jura 6
juristes 6
justifi@@ 6
justification 6
ke@@ 6
kebab 6
ket 6
khâgne 6
ks@@ 6
ku 6
l'Al@@ 6
l'Atomium 6
l'Exécutif 6
l'Hôtel 6
l'IUFM 6
l'OPAC 6
l'Orient 6
l'a- 6
l'abonnement 6
l'accusation 6
l'achète 6
l'administratif 6
l'affichage 6
l'agglomération 6
l'agneau 6
l'aiguille 6
l'aller-retour 6
l'ampleur 6
l'anecdote 6
l'anglaise 6
l'apprend 6
l'arc 6
l'argile 6
l'argument 6
l'arrêter 6
l'attendait 6
l'atterrissage 6
l'autonomie 6
l'avant-dernière 6
l'aveugle 6
l'avis 6
l'efficacité 6
l'encodage 6
l'endurance 6
l'enjeu 6
l'espèce 6
l'eu@@ 6
l'existant 6
l'exposé 6
l'hétérogénéité 6
l'inconscient 6
l'instit 6
l'institut 6
l'intelligence 6
l'interface 6
l'interprétation 6
l'introduction 6
l'investissement 6
l'oncle 6
l'op@@ 6
l'ouïe 6
l'uniforme 6
l'éclectisme 6
l'électronique 6
l'éléphant 6
l'épouser 6
l'étiquette 6
l'év@@ 6
l'événement 6
lab@@ 6
lai 6
lais 6
laissant 6
laisserai 6
lamelle 6
land 6
langages 6
langres 6
latéralement 6
lavandière 6
lead 6
lectures 6
les@@ 6
let@@ 6
levant 6
liait 6
libanais 6
libérale 6
licences 6
ligue 6
limitées 6
lin@@ 6
linguiste 6
livr@@ 6
livret 6
livré 6
locuteurs 6
logue 6
logés 6
loque 6
louait 6
loues 6
louées 6
lun@@ 6
lundis 6
lustre 6
lycéen 6
lèves 6
lég@@ 6
légu@@ 6
m'accompagnait 6
m'aime 6
m'ait 6
m'appeler 6
m'appellent 6
m'appelles 6
m'embêter 6
m'expliques 6
m'exprime 6
m'imaginais 6
m'installer 6
mac@@ 6
macaron 6
main@@ 6
mainten@@ 6
maintenu 6
mairies 6
malchance 6
mand@@ 6
mangues 6
manient 6
manif 6
manifestent 6
manipulations 6
maqu@@ 6
maquettes 6
maquillée 6
marais 6
marchaient 6
marchandise 6
marges 6
marmiton 6
marrants 6
marrer 6
massages 6
masser 6
matériels 6
mayonnaise 6
maîtris@@ 6
maîtrises 6
me-là 6
mensuelle 6
menti 6
menus 6
merdes 6
merguez 6
merle 6
merveille 6
mettiez 6
mettriez 6
meu@@ 6
meublé 6
meur 6
miennes 6
mier 6
militantisme 6
mimétisme 6
mineurs 6
misérable 6
mières 6
mo 6
mobilise 6
mobilisé 6
modeler 6
modernité 6
moelleux 6
mondes 6
monstres 6
moquette 6
mortuaire 6
motive 6
moudre 6
mourait 6
mourrai 6
ms 6
multinationales 6
multiples 6
multiplie 6
multiplié 6
muraille 6
muté 6
mygale 6
mystique 6
mâchoire 6
mè@@ 6
médaille 6
médiane 6
médicale 6
mémé 6
mépris@@ 6
mérites 6
mêlé 6
n'apprend 6
n'auriez 6
n'auront 6
n'avions 6
n'essaye 6
n'utilise 6
n'étiez 6
nationalistes 6
naïf 6
nettes 6
neufs 6
nière 6
nomin@@ 6
non-mondé 6
nord-ouest 6
notent 6
nuance 6
nus 6
négliger 6
négoci@@ 6
objecti@@ 6
obligations 6
obliger 6
obstacles 6
occidental 6
occupais 6
occupation 6
offen@@ 6
offrait 6
og@@ 6
oler 6
ologiques 6
ologue 6
ologues 6
once 6
ont-ils 6
op 6
orage 6
orges 6
orientés 6
ors 6
oubli@@ 6
oubliée 6
oubliées 6
palmes 6
pant 6
paon 6
pape 6
papillon 6
papy 6
paralysé 6
paramètre 6
paramétr@@ 6
pardessus 6
parfumée 6
parité 6
parlementaires 6
parlées 6
parrains 6
passa 6
passons 6
patienter 6
pe-@@ 6
pelle 6
pellicule 6
penchée 6
pendre 6
pendule 6
pensées 6
percevoir 6
perfection 6
perpignanais 6
perroquet 6
personn@@ 6
persuadée 6
perç@@ 6
pesé 6
petit-fils 6
peuples 6
pez 6
pfou 6
ph 6
philosophique 6
photographes 6
photographi@@ 6
phy@@ 6
pianiste 6
pic 6
pince 6
piques 6
piquets 6
plac@@ 6
placées 6
plaie 6
planifié 6
pleuve 6
pli 6
plie 6
plié 6
plombier 6
pluies 6
pochette 6
poignet 6
pointure 6
poiriers 6
policière 6
polis 6
politicien 6
pollué 6
polonaise 6
pom@@ 6
pomper 6
pondu 6
poney 6
portefeuille 6
portugaise 6
positionnement 6
postal 6
postales 6
pouh 6
poul@@ 6
pourr@@ 6
poussés 6
praline 6
prescriptions 6
pressée 6
prestataire 6
prioritaires 6
prisme 6
prix-là 6
procurer 6
procé@@ 6
professionn@@ 6
projet@@ 6
promotions 6
prononcent 6
prononcés 6
propo@@ 6
proportions 6
protégée 6
provo@@ 6
provoqué 6
prr 6
pré-rentrée 6
précarité 6
précipitée 6
précédent 6
préempter 6
préfabriqués 6
préférences 6
présentateurs 6
présentée 6
prétentieux 6
prêté 6
ps 6
psy 6
psychologues 6
publication 6
pul@@ 6
pull 6
pulls 6
puni 6
put 6
pénètre 6
pénétrer 6
périssable 6
pés 6
pét@@ 6
qu'avait 6
qu'hier 6
qu'y 6
qualitatif 6
quarante-et-un 6
quartiers-là 6
quatre-@@ 6
quatre-vingt-seize 6
que-@@ 6
que-là 6
quel@@ 6
quera 6
quette 6
quettes 6
quiez 6
quin 6
quittez 6
quotas 6
racaille 6
raccroché 6
racistes 6
racontée 6
raff@@ 6
rai@@ 6
raisonnables 6
rajoutes 6
rale 6
ramen@@ 6
rangement 6
rangs 6
rangée 6
rases 6
rassuré 6
reau 6
recenser 6
recevaient 6
recevais 6
recommande 6
reconduire 6
reconnaiss@@ 6
reconnaissant 6
reconnaissez 6
recru@@ 6
redonné 6
redémarrer 6
refermé 6
regarde-moi 6
regarderas 6
regardés 6
reggea 6
regon@@ 6
regrettez 6
regroupement 6
relancé 6
remon@@ 6
remontée 6
ren 6
rencontr@@ 6
rente 6
reparlé 6
repartent 6
reproch@@ 6
requalification 6
rest@@ 6
retar@@ 6
reten@@ 6
retournés 6
retrans@@ 6
rette 6
revendent 6
revendiquer 6
rhinocéros 6
riers 6
rique 6
rires 6
rollers 6
romaine 6
romantique 6
rotonde 6
roulant 6
rousse 6
routière 6
royauté 6
râteaux 6
règlements 6
réagissez 6
réalisés 6
récapitulatif 6
récep@@ 6
réclam@@ 6
réf@@ 6
référentiel 6
régions-là 6
régner 6
régu@@ 6
réjouis 6
rénovée 6
réorganisation 6
répartir 6
répondant 6
répression 6
réser@@ 6
réservations 6
résist@@ 6
résolu@@ 6
révèle 6
révéler 6
s'ab@@ 6
s'accrocher 6
s'aimait 6
s'aperçoivent 6
s'approchent 6
s'approprier 6
s'apprête 6
s'arrange 6
s'enferme 6
s'ennuyer 6
s'entendent 6
s'habituer 6
s'imagine 6
s'imaginent 6
s'imaginer 6
s'imposer 6
s'écr@@ 6
s'écroule 6
s'énerve 6
s'évertuer 6
s-nous 6
sabre 6
sacrifice 6
sacrés 6
saisies 6
salarial 6
saluer 6
samourais 6
sants 6
saturation 6
saucisse 6
saurez 6
sauvegarder 6
sauvetage 6
savants 6
savoureux 6
se-@@ 6
sec@@ 6
secoué 6
secrétaires 6
seigneurs 6
semer 6
senior 6
seniors 6
sentie 6
serons 6
serpents 6
serrés 6
serviette 6
servirait 6
servitudes 6
sessions 6
seur 6
sexualité 6
shebash 6
siff@@ 6
siffler 6
sigles 6
sign@@ 6
significatif 6
significations 6
signés 6
simplifier 6
simplifié 6
située 6
sive 6
slogan 6
snob 6
soci@@ 6
soixante-dix-huit 6
soixante-treize 6
solaire 6
sole 6
solenn@@ 6
solidaire 6
solides 6
sollicité 6
sommets 6
songez 6
sonnerie 6
sonores 6
sophistiqué 6
soprano 6
sot 6
souffler 6
souhaitaient 6
souhaiterait 6
soul 6
soul@@ 6
souliers 6
soulign@@ 6
souri@@ 6
souriait 6
souvienne 6
souviens-toi 6
spaghettis 6
spécialiser 6
sser 6
stabilité 6
statues 6
ste@@ 6
strict 6
stérile 6
sui@@ 6
suicidé 6
supposer 6
surcroît 6
surveillent 6
survit 6
symbiose 6
sympathisé 6
syndic 6
synthèses 6
séchage 6
séquences 6
t'amuser 6
t'aperçois 6
t'appelle 6
t'inscris 6
t'intéresses 6
t'étais 6
t-elle 6
tache 6
taf 6
tain 6
tam@@ 6
tampon 6
tapas 6
tarder 6
temporaire 6
tenaille 6
tendances 6
tendue 6
tenez-vous 6
tent@@ 6
teraient 6
terie 6
terror@@ 6
textile 6
tez-moi 6
théoriques 6
tiendra 6
timbre 6
tionnel 6
tionner 6
tirage 6
titu@@ 6
tives 6
tière 6
toaster 6
tombeau 6
touchait 6
tournages 6
tousse 6
tout-à-fait 6
tracer 6
tracts 6
tracé 6
tragique 6
traire 6
tram@@ 6
tran@@ 6
tranchées 6
traumatisé 6
trav@@ 6
travaillons 6
tremblement 6
tribunaux 6
trin@@ 6
tripes 6
trompes 6
trompette 6
trouveront 6
trouvées 6
tsunami 6
tun@@ 6
tunisien 6
turque 6
tutelle 6
télécharg@@ 6
téléphonique 6
uire 6
urbanisme 6
urgent 6
uri 6
urnes 6
us@@ 6
utilisant 6
utilisation 6
ué 6
va-@@ 6
vait 6
valables 6
validité 6
vallées 6
van@@ 6
vapeur 6
variantes 6
variations 6
vendan@@ 6
vendeurs 6
venger 6
vera 6
verrière 6
versant 6
versent 6
versé 6
verticale 6
veu@@ 6
viendras 6
viendront 6
vigneron 6
vilain 6
vinification 6
violet 6
visu@@ 6
viticole 6
vitres 6
vivement 6
vo 6
vodka 6
voilée 6
voilées 6
volait 6
volants 6
volent 6
vom@@ 6
vou 6
vous-mêmes 6
vraisemblablement 6
vre 6
véri@@ 6
vétérinaire 6
wagon 6
wallonnes 6
wifi 6
yes 6
yoga 6
z-vous 6
za 6
zoom 6
Égypte 6
ç- 6
èle 6
ébéniste 6
écailles 6
échapper 6
éclaté 6
économisé 6
écrans 6
écrites 6
édité 6
électeur 6
éligible 6
éloignés 6
ému 6
énerve 6
énoncé 6
épaule 6
époques 6
éprouve 6
éprouvé 6
équi@@ 6
équipiers 6
équivalent 6
ération 6
érer 6
érés 6
étang 6
éternel 6
évalué 6
évo@@ 6
îlot 6
ï@@ 6
) 5
*Arnaud* 5
*David* 5
*Dorian* 5
*Louis_Chalon* 5
*Milmort* 5
*Poussette* 5
*Sophie* 5
-t-il 5
-tu 5
3@@ 5
6 5
A1 5
ATTAC 5
Abdullah 5
Aboukacem 5
Ac 5
Ai@@ 5
Airbus 5
Algérien 5
All@@ 5
Allah 5
Ang@@ 5
Angers 5
Arlon 5
Arméniens 5
Athènes 5
Atlas 5
Aubry 5
Audois 5
Autriche 5
BCA 5
BVE 5
Baker 5
Ball 5
Balzac 5
Barbès 5
Beauce 5
Beckett 5
Belgicismes 5
Belmondo 5
Bertrand 5
Beyrouth 5
Bibliothèque 5
Bise 5
Bluewin 5
Bobo-Dioulasso 5
Bon-papa 5
Bonnefoy 5
Bor@@ 5
Botanique 5
Boutin 5
Brabant 5
Bresse 5
Breteuil 5
Bretons 5
Briançon 5
Brigitte 5
Bro@@ 5
Bruegel 5
Bruges 5
CAMIF 5
CEE 5
CI@@ 5
CO@@ 5
CRS 5
Cambridge 5
Cardeurs 5
Carlo 5
Carrousel 5
Central 5
Champagne 5
Charbonniers 5
Chasse 5
Chat@@ 5
Che 5
Chennevières 5
Chihiro 5
Choisy 5
Churchill 5
Chypre 5
Citroën 5
Claudel 5
Clo@@ 5
Corinthe 5
Créteil 5
Cécile 5
DF 5
Dalo 5
Demne 5
Denfert 5
Denis 5
Deroux 5
Diam's 5
Diderot 5
Diego 5
Dirazar 5
Do@@ 5
Doure 5
Droit 5
Dublin 5
Durkheim 5
Ecole 5
Ecosse 5
Elmaleh 5
Epinal 5
Es@@ 5
Evian 5
FIPH 5
FR 5
Fabien 5
Fam@@ 5
Fanny 5
Fl@@ 5
Flandre 5
Fontaine-au-Roi 5
Fontenay-sous-Bois 5
Fournier 5
Fr@@ 5
Franquin 5
Fromont 5
Fu@@ 5
Gabriel 5
Gad 5
Galaad 5
Gau@@ 5
Gaudi 5
Gaule 5
Geoffroi 5
Gerber 5
Ghibli 5
Gobelins 5
Golfe 5
Gr@@ 5
Gre@@ 5
Grecs 5
Grevisse 5
Guide 5
Géant 5
Gênes 5
HEP 5
HS 5
Hadopi 5
Hadès 5
Haut-Valais 5
Haïti 5
Her@@ 5
Hermine 5
Heysel 5
Histoire 5
Hollandais 5
INE 5
IUP 5
IUT 5
Jam@@ 5
Jaurès 5
Jean-Marc 5
Jeanine 5
Jeux 5
Juif 5
Kiri 5
Ko@@ 5
L'âge 5
Labhras 5
Labro 5
Laguiole 5
Lamartine 5
Laurence 5
Leuven 5
Liberté 5
Lidl 5
Limoux 5
Linxis 5
Lotus 5
Luc 5
Lumières 5
Lutgen 5
M1 5
Ma 5
MacCool 5
Mairie 5
Manchester 5
Market 5
Marolles 5
Marraine 5
Me@@ 5
Mel@@ 5
Metal 5
Mexicains 5
Michelet 5
Min@@ 5
Mme 5
Mon 5
Morgate 5
Moyen-Age 5
Mu@@ 5
Munich 5
Muséoscope 5
Mystères 5
Mées 5
Méliès 5
NA@@ 5
Nagoya 5
Nantes 5
Naruto 5
National 5
Nations 5
Nikon 5
Nino 5
Nuit 5
OR@@ 5
Ombres 5
Ozgur 5
PLU 5
Pampi 5
Pamuk 5
Pan@@ 5
Paninis 5
Paradize 5
Parisiennes 5
Parmentier 5
Pass 5
Patricia 5
Pavillon 5
Pimky 5
Pocahontas 5
Populaire 5
Porco 5
Port 5
Pou@@ 5
Pré@@ 5
Pygmalion 5
Pyrrah 5
Qu@@ 5
Quernol 5
RF 5
RPG 5
Remy 5
Roms 5
Ronaldinho 5
Rosso 5
Rot@@ 5
Royale 5
Rétina 5
Rüstu 5
SI@@ 5
SP@@ 5
ST@@ 5
Sanson 5
Sch@@ 5
Scène 5
Seine-et-Marne 5
Si 5
Singapour 5
Socialiste 5
Sor 5
Stendhal 5
Sunset 5
Swisscom 5
Tasse 5
Tellin 5
Testut 5
Ticorps 5
Tobin 5
Ton@@ 5
Tor@@ 5
Tou@@ 5
Toulousain 5
Tour@@ 5
Tout 5
Troyes 5
Trésor 5
Télé@@ 5
Têtes 5
UCL 5
Unies 5
Ur@@ 5
Valentin 5
Vanessa 5
Vieux 5
Villette 5
Walt 5
Wars 5
Wilky 5
Wo@@ 5
Woluwé-Saint-Lambert 5
Xavier 5
Youtube 5
Zéphyr 5
_@@ 5
abandonnés 5
abdication 5
aberr@@ 5
abordables 5
abîmé 5
académiques 5
acc@@ 5
acceptait 5
accouche 5
accuser 5
ache 5
ache@@ 5
achet@@ 5
achevée 5
achè@@ 5
ack 5
actrice 5
adhérer 5
adjudicataire 5
adopte 5
adorent 5
affectés 5
affine 5
affiner 5
affirmé 5
agoinn 5
agr@@ 5
agreement 5
agresse 5
agression 5
agressive 5
agré@@ 5
aidera 5
aidez-moi 5
aigle 5
ail 5
ail@@ 5
ainé 5
aiss@@ 5
aisé 5
ala 5
aler@@ 5
alimenter 5
alisent 5
alisées 5
allers-retours 5
allu@@ 5
altern@@ 5
amazonienne 5
ame 5
amenaient 5
amendes 5
ami@@ 5
amicale 5
amment 5
amor@@ 5
amphi 5
ampoule 5
aménager 5
analysé 5
anci@@ 5
ancré 5
ang 5
ango 5
annotations 5
annulé 5
anonyme 5
anti 5
aperç@@ 5
aperçus 5
apparence 5
apparti@@ 5
apparue 5
appellation 5
appellera 5
applaudi@@ 5
applications 5
apprenant 5
approchés 5
approximations 5
appuyez 5
architectes 5
ardoise 5
ari 5
armoires 5
arracher 5
arrangements 5
arri@@ 5
arti@@ 5
artisanale 5
ascenseurs 5
asi@@ 5
aspirations 5
aspire 5
assent 5
assieds-toi 5
assimiler 5
associ@@ 5
associative 5
ata 5
ativement 5
attachait 5
attaquent 5
attaques 5
atteinte 5
atterrissage 5
attestations 5
attr@@ 5
attra@@ 5
attractions 5
attrapent 5
attribuez 5
attributions 5
ature 5
auss@@ 5
autocar 5
automatisme 5
automatismes 5
autorisée 5
autrichien 5
avai@@ 5
avancent 5
avancez 5
avancées 5
ave@@ 5
avertissement 5
avou@@ 5
avéré 5
axée 5
ayer 5
aéro@@ 5
aînés 5
baby-sitter 5
bahut 5
baiss@@ 5
baisses 5
baladé 5
balais 5
ballader 5
bals 5
bam@@ 5
banale 5
banlieusard 5
bapti@@ 5
barillet 5
barr@@ 5
baser 5
basiques 5
battement 5
batucada 5
bavarde 5
bavarder 5
bazar@@ 5
bennes 5
berce 5
biennale 5
bigoudens 5
bin@@ 5
biographie 5
biscuits 5
blouse 5
bombar@@ 5
bondi 5
bordure 5
botte 5
botté 5
boubou 5
bouchée 5
boucler 5
bouff@@ 5
bouffé 5
bouffées 5
bougez 5
boul@@ 5
boulots 5
bourges 5
bourguignon 5
bourre 5
bourreau 5
boxer 5
braise 5
branchez 5
braves 5
brigade 5
briller 5
brocante 5
brocantes 5
brochure 5
bronzer 5
brouillons 5
brouillés 5
brutalement 5
brutes 5
brésiliens 5
brûleurs 5
buttes 5
buv@@ 5
bâti 5
bén@@ 5
béni@@ 5
bénéfici@@ 5
bénéficient 5
bénéficié 5
bénéfique 5
béret 5
c'- 5
c'e 5
c'est- 5
c'est-à 5
c'étais 5
cabri 5
cachées 5
cadavres 5
caddie 5
cadet 5
cadré 5
cages 5
caill@@ 5
calcium 5
calculette 5
calculée 5
camembert 5
camionnette 5
canadairs 5
cancers 5
candi 5
cannabis 5
cantonale 5
captivité 5
caractériser 5
carafe 5
card 5
carnets 5
cascade 5
cass@@ 5
cassait 5
casse-toi 5
cassez 5
cassée 5
caste 5
castel 5
cavale 5
cd 5
center 5
centr@@ 5
cessent 5
cez 5
chahu@@ 5
chaire 5
changera 5
chantais 5
chantants 5
charg@@ 5
chargées 5
charmante 5
charmants 5
charrettes 5
chassait 5
chaudron 5
chaussée 5
che-@@ 5
check 5
chement 5
chemises 5
cherchant 5
chette 5
cheur 5
chevelure 5
cheveu 5
chevrier 5
chin@@ 5
chiottes 5
chiée 5
choir 5
choquent 5
choqués 5
chorales 5
chron@@ 5
chrétien 5
chu 5
ché@@ 5
chêne 5
cide 5
cigare 5
cinq-cent-vingt 5
cinqu@@ 5
cinquante-quatre 5
citadelle 5
citrouille 5
citée 5
civilisations 5
civique 5
claques 5
clarté 5
clo@@ 5
clô@@ 5
coefficient 5
coexistence 5
coffres 5
cognac 5
cogné 5
cohabiter 5
coiff@@ 5
coin@@ 5
collage 5
collait 5
collecteurs 5
collectionneurs 5
colocataire 5
colore 5
combiner 5
combler 5
comi@@ 5
comman@@ 5
commandeur 5
commettre 5
commo@@ 5
communisme 5
complicité 5
compliment 5
complique 5
compor@@ 5
comportent 5
composants 5
comprendrai 5
comprendraient 5
compreniez 5
comptabil@@ 5
comptant 5
comptez 5
compétente 5
comédies 5
concernait 5
condamner 5
condamné 5
condi@@ 5
condui@@ 5
conduira 5
conduisent 5
conf@@ 5
confond 5
confonde 5
conformément 5
confron@@ 5
confrontée 5
congel@@ 5
congelé 5
conjug@@ 5
connaissez-vous 5
connaîtr@@ 5
connectée 5
conserv@@ 5
conservateurs 5
conserves 5
considérés 5
consommateur 5
const@@ 5
constatation 5
constitué 5
constructeurs 5
construisent 5
construites 5
consult@@ 5
consultations 5
consulte 5
contac@@ 5
contactée 5
contin@@ 5
contrebas 5
contribue 5
controverse 5
contrées 5
contrôleur 5
contrôleurs 5
conventionnement 5
copié 5
coquilles 5
cornet 5
corrections 5
corri@@ 5
corré@@ 5
corsisation 5
cost@@ 5
couchée 5
coudes 5
coulait 5
coupole 5
courageuse 5
courge 5
couvertes 5
couvre-feu 5
cr 5
craie 5
craignait 5
craindre 5
cran 5
creuset 5
crevée 5
crevés 5
critiquent 5
croirait 5
croû@@ 5
croûte 5
cti@@ 5
cuisiniers 5
cuisinière 5
cuisiné 5
cuisses 5
cuivres 5
cule 5
cultivait 5
cur@@ 5
cycles 5
cylind@@ 5
cylindre 5
câbles 5
d'Allemagne 5
d'Arc 5
d'Asie 5
d'EPS 5
d'Ici 5
d'Italiens 5
d'Ivoire 5
d'Odéon 5
d'Or@@ 5
d'Orsay 5
d'a- 5
d'aborder 5
d'accompagner 5
d'achoppement 5
d'adapter 5
d'adolescence 5
d'adopter 5
d'affinités 5
d'agir 5
d'agneau 5
d'allumer 5
d'ambition 5
d'analyser 5
d'ancien 5
d'anniversaire 5
d'appareil 5
d'appartenance 5
d'appui 5
d'arbitrage 5
d'arrêt 5
d'arti@@ 5
d'artifices 5
d'ateliers 5
d'attention 5
d'attribution 5
d'autorité 5
d'elle-même 5
d'elles 5
d'em@@ 5
d'empêcher 5
d'engager 5
d'ennui 5
d'enregistrer 5
d'enseignant 5
d'ensemble 5
d'entraide 5
d'entretien 5
d'escale 5
d'espèces 5
d'euros 5
d'exemples 5
d'exposition 5
d'horaire 5
d'horizon 5
d'immeubles 5
d'impression 5
d'improvisation 5
d'improviser 5
d'incinération 5
d'investir 5
d'ivoire 5
d'objets 5
d'observer 5
d'ombre 5
d'opérations 5
d'ordinateurs 5
d'outils 5
d'uni@@ 5
d'universités 5
d'utilité 5
d'Égypte 5
d'échange 5
d'échelle 5
d'écoles 5
d'écoute 5
d'électronique 5
d'élocution 5
d'étoiles 5
d'éveil 5
d'évolution 5
dants 5
dattes 5
deck 5
demeur@@ 5
demi-tour 5
demie-heure 5
dense 5
denses 5
densité 5
denti@@ 5
deront 5
descendaient 5
descriptions 5
desser@@ 5
desservi 5
dessine 5
dessinées 5
destinés 5
deug 5
deuils 5
deux-mille-quatre 5
deux-roues 5
deuxièmes 5
deviendra 5
devin@@ 5
devions 5
devrez 5
diagonale 5
dialoguent 5
diamants 5
dictaphone 5
diffuse 5
diffusée 5
dimensions 5
diminu@@ 5
dique 5
dir@@ 5
directes 5
directions 5
directives 5
dirigeait 5
discutais 5
discutant 5
disposé 5
disputent 5
diss@@ 5
distingu@@ 5
district 5
divi@@ 5
divinité 5
divisée 5
divorcé 5
doc@@ 5
dodo 5
doig@@ 5
doit-on 5
dominer 5
dopage 5
dorée 5
doses 5
doubl@@ 5
douches 5
doyen 5
dragon 5
dragons 5
druides 5
druidesse 5
dunes 5
duquel 5
dur@@ 5
dys@@ 5
dámh 5
dèche 5
dé- 5
débar@@ 5
déborde 5
débour@@ 5
débrouillais 5
débrouillera 5
décaler 5
décidés 5
déclar@@ 5
déclare 5
déclinaisons 5
décline 5
décomposer 5
décompte 5
déconner 5
décontrac@@ 5
découpé 5
découvrent 5
décrivez 5
décédés 5
dédiée 5
défavorisé 5
défend@@ 5
défin@@ 5
définies 5
définissez 5
déformer 5
défunts 5
dégagés 5
dégoûte 5
déguiser 5
déguisé 5
déjeu@@ 5
déjeuners 5
délirer 5
démissionné 5
démolis 5
démontage 5
démonte 5
démén@@ 5
dénas@@ 5
dénon@@ 5
dénoncer 5
dépassaient 5
dépassait 5
dépendais 5
déplairait 5
déplu 5
déposés 5
déprimant 5
déprimé 5
députée 5
députés 5
dépénalisation 5
dér@@ 5
dérangée 5
dérouler 5
désagréables 5
désastre 5
déser@@ 5
déshabiller 5
désirer 5
déso@@ 5
détaché 5
détecte 5
déterminant 5
détermine 5
détes@@ 5
détester 5
détruite 5
développées 5
dévier 5
déçus 5
e-mail 5
e-mails 5
eaient 5
eant 5
edi@@ 5
efface 5
effectif 5
efficaces 5
emails 5
embauches 5
embauchée 5
embrassés 5
emmerdes 5
emménager 5
empl@@ 5
employant 5
empoisonné 5
emporter 5
emportés 5
empreintes 5
empêchait 5
encadrants 5
encaisser 5
enceintes 5
enchaî@@ 5
enchaîné 5
encouragé 5
enculer 5
endurance 5
enf 5
enfoncer 5
englobe 5
engrais 5
enlèvent 5
ennuie 5
enrichissement 5
ensembles 5
ent-@@ 5
entasser 5
entendues 5
enter@@ 5
enterrée 5
enthousias@@ 5
entoure 5
entrant 5
entraînez 5
entrepôts 5
entreten@@ 5
entretenue 5
entu@@ 5
envahi 5
enveloppes 5
envi@@ 5
envisag@@ 5
envisageable 5
errer 5
escient 5
esh 5
espagnoles 5
espérait 5
esqui@@ 5
essay@@ 5
essuie 5
essuie-glace 5
estimation 5
estimé 5
eum 5
exacts 5
exagère 5
exceptionnelle 5
excessivement 5
expliquez 5
exploité 5
exprimés 5
expéditions 5
expériment@@ 5
exquis 5
exécuter 5
ez-@@ 5
fabriquait 5
fabriquent 5
facilite 5
fais-en 5
faisan 5
faites-le 5
fantastiques 5
farcies 5
fataliste 5
fatiguant 5
faucon 5
favorite 5
faxe 5
faç@@ 5
façonne 5
façonner 5
faïences 5
fermetures 5
ferraille 5
ferre 5
fiable 5
fibre 5
fications 5
fichu 5
film-là 5
filtres 5
finissaient 5
firme 5
flam@@ 5
flanc 5
flemme 5
flexibilité 5
fluidité 5
flâner 5
foins 5
foireux 5
folk 5
foncier 5
foncières 5
fonctionnel 5
fonctionnera 5
fond@@ 5
for 5
forcast 5
formalités 5
formant 5
formul@@ 5
fossé 5
fouiller 5
fournisseur 5
fraise 5
fran@@ 5
franchises 5
frapp@@ 5
frappait 5
fre@@ 5
frigidaire 5
frise 5
fronts 5
frotté 5
fruité 5
frémissait 5
fréquentez 5
frô@@ 5
fui 5
fum@@ 5
fumeur 5
fuy@@ 5
fé@@ 5
fédéraux 5
félicitations 5
fémin@@ 5
féminins 5
fétiche 5
gag@@ 5
gaita 5
gala 5
galères 5
gamelle 5
gamins-là 5
gaperon 5
gardant 5
gardiennage 5
gardées 5
garée 5
gaspiller 5
gastro 5
gau@@ 5
gel@@ 5
gelé 5
germaniques 5
get 5
ghetto 5
gies 5
girafes 5
giron 5
glacis 5
glissait 5
gnée 5
god@@ 5
gospel 5
gothique 5
gothiques 5
goudron 5
goudronnée 5
gra@@ 5
gradine 5
grammairiens 5
grammaticales 5
grand-maman 5
grandiss@@ 5
grasseye 5
grati@@ 5
gratin 5
gratt@@ 5
gratuites 5
gravité 5
gre@@ 5
greffer 5
grenade 5
griff@@ 5
grill 5
grillé 5
grim@@ 5
gross@@ 5
grues 5
grès 5
grés 5
guait 5
guent 5
gues 5
guidon 5
guignols 5
gymnasiale 5
gâche 5
généraliste 5
géographiquement 5
gérée 5
gênent 5
gênerait 5
gênés 5
habitais 5
habitante 5
habituelle 5
hache 5
hallucinations 5
hamburger 5
haricots 5
harmon@@ 5
hip 5
histoire-là 5
hiéroglyphes 5
hobby 5
hollandais 5
honnêtes 5
honteux 5
hor@@ 5
hors-@@ 5
hou@@ 5
humanitaire 5
hypocrite 5
hypokhâgne 5
héberge 5
hébergement 5
hébergé 5
hémorragie 5
ica 5
id@@ 5
identifi@@ 5
idéale 5
idée-là 5
ign@@ 5
iles 5
illet 5
illettrés 5
illez 5
illimités 5
illustré 5
imag@@ 5
imaginais 5
immanquablement 5
implication 5
impressionn@@ 5
imprimeurs 5
improvi@@ 5
imprévu 5
inacceptable 5
inadmissible 5
inat 5
inaugu@@ 5
inauguré 5
inca 5
incertain 5
inclure 5
incorpor@@ 5
ind@@ 5
indices 5
indifférente 5
infantile 5
infecte 5
infernal 5
infime 5
infiniment 5
informateurs 5
informe 5
informés 5
ingrédients 5
ingues 5
ingénierie 5
initi@@ 5
initialement 5
initier 5
injures 5
inondations 5
inscrites 5
inspecteurs 5
inst@@ 5
instances 5
instantanées 5
instantanément 5
instin@@ 5
instru@@ 5
insul@@ 5
insupportables 5
intention 5
interdire 5
interpelle 5
intervenus 5
intervienne 5
interview@@ 5
introdui@@ 5
intéri@@ 5
invali@@ 5
invente 5
investis 5
investit 5
invitaient 5
invitait 5
invites 5
iraient 5
isoler 5
issement 5
italie 5
italique 5
j'achèterai 5
j'appuie 5
j'envisage 5
j'osais 5
j'éprouve 5
jacquard 5
jalouse 5
jardinier 5
jersey 5
jet@@ 5
jobs 5
jouera 5
journ@@ 5
jours-là 5
judicieux 5
judéo-@@ 5
jugent 5
jugez 5
jumelles 5
jurisprudence 5
jurys 5
jusqu' 5
jusqu'alors 5
justi@@ 5
justificatif 5
kerazan 5
ki@@ 5
kin@@ 5
ko 5
l'Adeps 5
l'Adjarie 5
l'Aiguille 5
l'Aligoté 5
l'Amalia 5
l'Arc 5
l'Assemblée 5
l'Australie 5
l'EDF 5
l'ENT 5
l'Eglise 5
l'Express 5
l'IN@@ 5
l'Innovation 5
l'OFUP 5
l'Odéon 5
l'Ossétie 5
l'agression 5
l'allée 5
l'alpage 5
l'ambition 5
l'amphithéâtre 5
l'ancêtre 5
l'anti@@ 5
l'apprenant 5
l'appui 5
l'apéritif 5
l'araignée 5
l'arme 5
l'assassin 5
l'attraction 5
l'audition 5
l'aurai 5
l'aurez 5
l'avènement 5
l'embut 5
l'emmental 5
l'emmène 5
l'emprise 5
l'ennui 5
l'enregistreur 5
l'entendez 5
l'esclavage 5
l'ex 5
l'exam 5
l'exception 5
l'excuse 5
l'exigence 5
l'expansion 5
l'expertise 5
l'extrême 5
l'habillement 5
l'harmonie 5
l'horloge 5
l'humain 5
l'humanitaire 5
l'hyper@@ 5
l'imaginaire 5
l'immédiat 5
l'imparfait 5
l'imprimer 5
l'indice 5
l'interaction 5
l'intéressait 5
l'invasion 5
l'invi@@ 5
l'orgue 5
l'oublie 5
l'ours 5
l'uniformisation 5
l'usure 5
l'âne 5
l'éclairage 5
l'écrivain 5
l'écrivait 5
l'éditeur 5
l'éloignement 5
l'émargement 5
l'émergence 5
l'épi@@ 5
l'étalon 5
l'étoile 5
l'étrier 5
l'éveil 5
labos 5
laisser-aller 5
lancées 5
lang@@ 5
langagières 5
langue-là 5
lat@@ 5
lavage 5
leader 5
lets 5
lev@@ 5
lex 5
lex@@ 5
liane 5
lias 5
libertés 5
licenci@@ 5
limouxin 5
ling 5
lipides 5
lique 5
liqui@@ 5
litté@@ 5
liv@@ 5
lle 5
ller 5
lles 5
lls 5
lo 5
lobby 5
localité 5
locuteur 5
login 5
lointaine 5
loose 5
louches 5
loupe 5
ls 5
lucidité 5
ludothèque 5
luttes 5
ly@@ 5
lycée-là 5
lyriques 5
là-@@ 5
m'adresser 5
m'aidait 5
m'amusais 5
m'amuser 5
m'arrang@@ 5
m'asseoir 5
m'invite 5
m'écoute 5
m'écoutes 5
m'énervait 5
m'évitera 5
mach@@ 5
macro-environnement 5
maghrébin 5
magicien 5
magn@@ 5
magnésie 5
magnétophone 5
maillots 5
maison-là 5
majeures 5
majoritaire 5
majoritairement 5
malheureuse 5
mali@@ 5
malins 5
malsain 5
managers 5
mandalas 5
mange@@ 5
mangeaient 5
mangeons 5
mangée 5
manifester 5
manquerait 5
manques 5
mant 5
manu@@ 5
manuellement 5
mapalea 5
mar 5
marient 5
marionnettes 5
marquage 5
marquait 5
marquées 5
marrantes 5
mas 5
massacrer 5
matança 5
maternel 5
maté 5
matéri@@ 5
matérielle 5
maux 5
melting 5
menacée 5
mendiants 5
mens 5
mentalités 5
mentaux 5
menthe 5
mentionné 5
messagerie 5
messes 5
mettras 5
mez 5
mi-frais 5
mil-neuf-cent-@@ 5
mil@@ 5
mili@@ 5
mille-cinq-cents 5
mille-quarante 5
millimètre 5
millimètres 5
mime 5
minimaliste 5
minuscule 5
mique 5
miques 5
mir@@ 5
mit@@ 5
miti@@ 5
mité 5
mix@@ 5
mobiles 5
mobilité 5
modifi@@ 5
modifie 5
modifiée 5
mondé 5
mono@@ 5
monstrueux 5
mont-d'or 5
montages 5
montrais 5
moquaient 5
moui 5
moulins 5
mour@@ 5
mourut 5
moustiques 5
moyennement 5
mp3 5
multi-@@ 5
multitude 5
mur@@ 5
murmu@@ 5
muscle 5
musclée 5
musicaux 5
must 5
mutu@@ 5
mutuelle 5
myth@@ 5
mythique 5
mécan@@ 5
mécaniques 5
mécanisme 5
méd@@ 5
médiatique 5
médicaux 5
mén@@ 5
ménages 5
ménagère 5
métallique 5
métaphore 5
mê@@ 5
mêle 5
mûres 5
n'accorde 5
n'aie 5
n'attend 5
n'aurai 5
n'emploie 5
n'entends 5
n'habitent 5
n'hésite 5
n'intervient 5
n'irai 5
n'irais 5
n'irait 5
n'oubliez 5
n'écoute 5
namurois 5
nanana 5
nant 5
narration 5
nas 5
nat@@ 5
natte 5
natur@@ 5
neigé 5
nements 5
nets 5
neuro@@ 5
neurones 5
neuves 5
nocturne 5
nombreuse 5
nonante-cinq 5
not@@ 5
nounours 5
nourris 5
noémie 5
nuances 5
nues 5
nuire 5
nutrition 5
nègre 5
nég@@ 5
obsédée 5
obéir 5
occasionn@@ 5
ode 5
ody 5
offensive 5
office 5
oies 5
oirs 5
ola 5
on-@@ 5
onde 5
onnage 5
ope 5
opportunité 5
oppressée 5
optimiser 5
opé@@ 5
organiques 5
organisons 5
oses 5
otage 5
oter 5
oth@@ 5
oubli 5
oule 5
ouver@@ 5
ouvrant 5
ouvri@@ 5
ouvrières 5
pa- 5
pag@@ 5
pai@@ 5
paiements 5
paiera 5
paill@@ 5
pan 5
pans 5
parallèles 5
paranoïaque 5
parapente 5
paraîtrait 5
pardonner 5
parfaire 5
parleraient 5
parois 5
paroisses 5
partageait 5
partages 5
partagée 5
partagés 5
participaient 5
participait 5
participes 5
partielle 5
paré 5
passe-temps 5
passeports 5
patates 5
paternelle 5
pathologies 5
patienté 5
patinage 5
patrouille 5
pavillons 5
peignait 5
pensons 5
pera 5
perdais 5
perdant 5
perdr@@ 5
performant 5
permet@@ 5
permets 5
perpétu@@ 5
perturbant 5
pesant 5
pessimiste 5
petit-@@ 5
petite-fille 5
peut-on 5
peuvent-ils 5
pfff 5
phone 5
phonologique 5
phonologiques 5
photographier 5
physiologie 5
phytotechnologies 5
pier@@ 5
pierreries 5
piller 5
piloter 5
pinceaux 5
piquet 5
piqueur 5
pitbull 5
pitbulls 5
pla 5
pla@@ 5
plain@@ 5
plaisaient 5
planifie 5
plantation 5
plaquettes 5
plasti@@ 5
plateforme 5
plateformes 5
pleinement 5
pleurs 5
plier 5
plutot 5
pointues 5
pointus 5
poires 5
poisse 5
politi@@ 5
pollués 5
polypes 5
polyvalent 5
portion 5
portées 5
posa 5
posaient 5
posi@@ 5
possé@@ 5
postu@@ 5
pouah 5
pourrais-je 5
poursuivi 5
pousses 5
poussées 5
pratiquants 5
prem 5
prenante 5
prend@@ 5
prendras 5
prendrez 5
prescription 5
pressés 5
preux 5
prim@@ 5
primer 5
primitif 5
prioritairement 5
prisonnière 5
privilégie 5
proclam@@ 5
profitaient 5
profitait 5
profites 5
profondes 5
program@@ 5
programmé 5
progress@@ 5
progressif 5
promen@@ 5
promenez 5
promené 5
promènes 5
propor@@ 5
proposons 5
prostitution 5
pru@@ 5
prud'hommes 5
pré-inscription 5
précipitation 5
préférait 5
préjugés 5
préoccupent 5
prépar@@ 5
préparais 5
préparations 5
préparée 5
présentait 5
présentées 5
prévision 5
psycho@@ 5
publicités 5
publie 5
puces 5
puis@@ 5
puisqu'en 5
puisqu'à 5
pulpe 5
pulsion 5
pureté 5
purification 5
péd@@ 5
pédagogiquement 5
pénétr@@ 5
péril 5
périlleux 5
périmé 5
pétée 5
pôles 5
qu'apparemment 5
qu'aucun 5
qu'évidemment 5
quadri 5
qualifi@@ 5
qualifié 5
quanti@@ 5
quartier-là 5
querelles 5
question-là 5
questions-là 5
quier 5
quine 5
quinze-cents 5
quittaient 5
quotidiens 5
québécois 5
r- 5
races 5
rachète 5
racon@@ 5
racontez-moi 5
radicale 5
radicalement 5
ral@@ 5
rales 5
rameaux 5
rampe 5
rapides 5
rapidité 5
rappelais 5
rappelait 5
rappellent 5
rappeller@@ 5
rapprochent 5
rapprochés 5
rassembl@@ 5
rassurant 5
rassure 5
rati@@ 5
ration 5
rebelles 5
reblochon 5
rebord 5
rece@@ 5
recevons 5
recharger 5
recommander 5
recommençait 5
recon@@ 5
reconnaissants 5
reconstruction 5
recontacter 5
recopie 5
record 5
records 5
recouvre 5
rectangle 5
reculer 5
recycl@@ 5
redescend 5
redressé 5
refaisait 5
referme 5
refléter 5
refuges 5
reggae 5
reggeaton 5
registres 5
regroupent 5
reins 5
rejoi@@ 5
rejoignent 5
rejoins 5
relati@@ 5
relaxation 5
reli@@ 5
religions 5
relit 5
reliée 5
relogement 5
relou 5
relu 5
remettait 5
remettr@@ 5
remontes 5
remontés 5
remparts 5
remplacée 5
renfor@@ 5
renoncé 5
renseign@@ 5
rentr@@ 5
renvoi 5
reparle 5
repassage 5
repassera 5
repensé 5
replacer 5
reposé 5
repoussé 5
reprenaient 5
reprendra 5
reprendrai 5
reproduit 5
respectant 5
ressembler 5
ressentie 5
ressors 5
resterai 5
restitu@@ 5
reti@@ 5
retirée 5
retournera 5
retrace 5
retranscrit 5
rets 5
rettes 5
rev@@ 5
reven@@ 5
revendu 5
revivre 5
revoie 5
rez-vous 5
rigolade 5
rigottes 5
rira 5
risquer 5
ro 5
roche 5
romanes 5
rompu 5
ront 5
rotation 5
rottweilers 5
rouille 5
râle 5
râteau 5
règlent 5
réactualiser 5
réagis 5
réalis@@ 5
réalisable 5
réalisée 5
récapitu@@ 5
réciproque 5
récu@@ 5
récupér@@ 5
récupérée 5
réd@@ 5
rédi@@ 5
réducteur 5
rédui@@ 5
réduite 5
réels 5
réfléchissant 5
référ@@ 5
régents 5
régiment 5
réguliers 5
réjouit 5
réorienter 5
répondra 5
répu@@ 5
réputée 5
réside 5
résident 5
résistances 5
résolution 5
résu@@ 5
réunies 5
réussies 5
réutiliser 5
réveillés 5
révol@@ 5
révoltée 5
révél@@ 5
réécrire 5
réélu 5
rê@@ 5
rêvais 5
rêvait 5
s'ag@@ 5
s'agissant 5
s'agrandir 5
s'aiment 5
s'améliore 5
s'ap@@ 5
s'appellait 5
s'approchait 5
s'arrangent 5
s'arrê@@ 5
s'asseyait 5
s'avance 5
s'avoue 5
s'engagent 5
s'ensuit 5
s'envoler 5
s'explique 5
s'expliquer 5
s'inqui@@ 5
s'inter@@ 5
s'intègre 5
s'occupaient 5
s'organisent 5
s'élever 5
s'étendait 5
sachet 5
sacoche 5
sacrifices 5
sacrifier 5
sai@@ 5
saigne 5
saigner 5
sais-je 5
saison@@ 5
salariée 5
sali@@ 5
san@@ 5
sanction 5
sandwiches 5
sang@@ 5
sangria 5
saoûle 5
sar@@ 5
sati@@ 5
satis@@ 5
sature 5
saturé 5
saucissons 5
savoirs 5
scandales 5
scientifiquement 5
scolarisés 5
scotch 5
se* 5
secou@@ 5
secrétariats 5
sem 5
semaine-là 5
sement 5
sensationnel 5
sentit 5
serbe 5
serein 5
servant 5
serveuse 5
servez 5
sho@@ 5
sible 5
signal 5
situez 5
sité 5
ska 5
snobisme 5
so 5
sociable 5
sociologiques 5
sociologue 5
soi@@ 5
soignant 5
soigné 5
soixante-dix-neuf 5
soixante-quatorze 5
solistes 5
sollicitée 5
somaliens 5
sonnaient 5
sonnettes 5
sono 5
sonorisation 5
sont-elles 5
sortit 5
sou 5
souhaiterais 5
souhaitiez 5
souhaits 5
souligné 5
soumise 5
sourcils 5
sourit 5
sous-directeur 5
souterrains 5
soutien-gorge 5
souven@@ 5
souverain 5
souveraine 5
spectaculaire 5
speed 5
spontané 5
spontanée 5
spéci@@ 5
spécifiquement 5
squares 5
squat 5
squelettes 5
ssais 5
sson 5
ssons 5
staff 5
stimu@@ 5
stimuler 5
stop@@ 5
stretching 5
string 5
strip-tease 5
stu@@ 5
subit 5
subitement 5
subjectif 5
subjectivité 5
suggère 5
suggérer 5
suisse-allemand 5
suivais 5
sul@@ 5
superbes 5
supporterais 5
sur-@@ 5
sure 5
surgelés 5
surlendemain 5
surnaturels 5
surnom 5
surprend 5
surveilles 5
sus@@ 5
susceptible 5
susciter 5
suspense 5
suspensives 5
syllabus 5
symbo@@ 5
syntaxique 5
système-là 5
systémique 5
sèches 5
sépar@@ 5
séparément 5
séquelles 5
sérigraphie 5
sérénité 5
t'acheter 5
t'aide 5
t'appellent 5
t'arrives 5
t'arrête 5
t'enlève 5
t'imagines 5
t'invite 5
t'oblige 5
t'occupes 5
tablettes 5
tabou 5
talents 5
tam 5
tannerie 5
tants 5
taquet 5
tchèque 5
tea 5
technologique 5
technologiques 5
teinté 5
températures 5
tendit 5
tendresse 5
tentée 5
terez 5
terminaisons 5
terreur 5
terri@@ 5
terrine 5
territoriales 5
terroriste 5
teste 5
th 5
thermes 5
thunes 5
théâtral 5
théâtrale 5
ties 5
tifs 5
timbres 5
tings 5
tionnaire 5
tionnent 5
tire-bouchon 5
tirés 5
tisane 5
tissement 5
titulaire 5
toboggan 5
tofu 5
tologie 5
tom@@ 5
tombaient 5
tonalité 5
tondeuse 5
tonne 5
tonton 5
tot@@ 5
touchais 5
touriste 5
tournais 5
tournaisien 5
tout-petits 5
trac 5
tracteurs 5
tracée 5
traduisent 5
traffic 5
trahit 5
traitent 5
trancher 5
transformée 5
transpor@@ 5
traumatisant 5
traumatiser 5
travailleur 5
traînaient 5
tre-@@ 5
trembl@@ 5
tremblait 5
trer 5
tribus 5
triplette 5
trique 5
tristesse 5
trouble 5
trousse 5
trouverais 5
trouverait 5
trouvons 5
trés 5
trésorier 5
ts-@@ 5
tuaient 5
tuiles 5
tune 5
tunique 5
tutoie 5
two 5
typiques 5
tz 5
tère 5
tèrent 5
téléski 5
télévisée 5
télévisés 5
témoignages 5
témoigne 5
u- 5
uis 5
ultérieure 5
urbanistique 5
usées 5
utilisable 5
utilisateurs 5
va-t-il 5
vacataires 5
vaisseaux 5
val 5
valide 5
valorise 5
valu 5
vari@@ 5
vas-tu 5
veill@@ 5
veillent 5
vendeuses 5
vendue 5
vengeance 5
vergers 5
verrons 5
versait 5
verser 5
vertu 5
vex@@ 5
vexé 5
vi- 5
viable 5
viande-là 5
vibr@@ 5
vidé 5
vieilli 5
vieilli@@ 5
vieillit 5
vietnamien 5
vigilant 5
vin@@ 5
vinaigre 5
viol@@ 5
violente 5
violents 5
virtu@@ 5
visons 5
viticulture 5
vocable 5
voeu 5
voiler 5
volaient 5
volley-ball 5
volontaires 5
volu@@ 5
volées 5
vomis 5
voudront 5
voulant 5
voulions 5
voûte 5
vrac 5
vras 5
vulgarité 5
vécus 5
véhiculer 5
vê@@ 5
vêtu 5
xe 5
z-le 5
z-nous 5
zappé 5
â@@ 5
ç-ça 5
çon 5
èse 5
ève 5
éc@@ 5
écharpe 5
écharpes 5
éclairs 5
éclairé 5
éclairée 5
écoeuré 5
écologique 5
écoutais 5
écrase 5
écrasé 5
écrasés 5
écrivant 5
écrive 5
écrivez 5
édi@@ 5
éditeurs 5
éduc 5
éducative 5
égales 5
élaborée 5
électro-acoustique 5
électrode 5
élevées 5
élimine 5
éliminé 5
élite 5
élégante 5
émarger 5
épaisse 5
éparpillés 5
éperdument 5
époisses 5
épuisé 5
équilibrée 5
équilibrés 5
équipier 5
équitation 5
équivalence 5
érable 5
érée 5
ét- 5
étal@@ 5
étalon 5
étendre 5
étonnante 5
étonnées 5
étudiaient 5
évacué 5
évidement 5
évidents 5
ï 5
ôme 5
*Bogasse* 4
*C@@ 4
*Dimitri* 4
*Gotio* 4
*Martin* 4
*Tom* 4
-* 4
-de 4
-de-@@ 4
10 4
13 4
150 4
17 4
1@@ 4
380 4
4L 4
59 4
AC 4
ANRU 4
AT@@ 4
AZ 4
Abkhazes 4
Ad@@ 4
Afri@@ 4
Age 4
Ali@@ 4
Amis 4
Anciens 4
Anderson 4
Angeles 4
Anneaux 4
Antoing 4
Aphrodite 4
Arabe 4
Aristote 4
Ati 4
Au 4
Auroville 4
Aurélie 4
Auvergne 4
Aventura 4
BAFA 4
BEATEP 4
Ban@@ 4
Baoulé 4
Bas-Valais 4
Basques 4
Bass@@ 4
Basse-Meuse 4
Bayrou 4
Beau@@ 4
Beaumont 4
Beethoven 4
Belgacom 4
Belgrade 4
Bescherelle 4
Bible 4
Bioman 4
Black 4
Bleach 4
Bléharies 4
Boeing 4
Bonne-maman 4
Boul@@ 4
Bouquet 4
Bourse 4
Bourvil 4
Boyne 4
Braine-l'Alleud 4
Brevet 4
Brice 4
Bron@@ 4
Béarn 4
Béranger 4
CD@@ 4
CE2 4
CF@@ 4
CLAG 4
CM1 4
CNED 4
CROP 4
CVP 4
Caliente 4
Cam@@ 4
Canebière 4
Cap 4
Capa 4
Carnot 4
Carole 4
Caroline 4
Carrare 4
Cash 4
Castres 4
Cer@@ 4
Chab@@ 4
Chabot 4
Chabrier 4
Champignac 4
Charente 4
Charentes 4
Chass@@ 4
Chemin-Vert 4
Chi@@ 4
Chéret 4
Cinq 4
Cirque 4
Citoyens 4
City 4
Cler@@ 4
CoDir 4
Coc@@ 4
Coeur 4
Colom@@ 4
Comment 4
Communion 4
Condroz 4
Conseil-international 4
Corneille 4
Cosmos 4
Courbet 4
Cr@@ 4
Creuse 4
Crystalwave 4
DA 4
DG@@ 4
DJ 4
DM 4
DU 4
Daifuku 4
Dan 4
Dan@@ 4
Daucourt 4
Decour 4
Del 4
Des@@ 4
Dexter 4
Dic@@ 4
Diegem 4
Dili 4
Dior 4
Dis@@ 4
Djenné 4
Dofus 4
Dogon 4
Dombasle 4
Dordogne 4
Dou@@ 4
Dufour 4
Duras 4
Dé@@ 4
Développement 4
EM@@ 4
ENT 4
EP 4
ERASMUS 4
Ecoles 4
Edmée 4
Egypte 4
El 4
Elvis 4
Eminem 4
Et 4
Evans 4
FFD 4
FILLS 4
Faculté 4
Fatima 4
Faubourg 4
Fez 4
Fi@@ 4
Figaro 4
Florence 4
Floride 4
Floyd 4
Fon@@ 4
Fonds 4
Fou@@ 4
Fouché 4
Franç@@ 4
Front 4
Fruko 4
Full 4
Fécamp 4
Gallé 4
Gamay 4
Gar@@ 4
Gaston 4
Gaulois 4
Gen@@ 4
Geneviève 4
Genki 4
Go 4
Goncourt 4
Google 4
Gorka 4
Grand-Place 4
Gu@@ 4
Hakone 4
Hallyday 4
Ham@@ 4
Hannibal 4
Havre 4
Ho@@ 4
Hom@@ 4
Hooligans 4
Hôtel 4
I-@@ 4
II 4
IN 4
IN@@ 4
IV 4
Ibiza 4
J4 4
JLPT 4
Jack 4
Jacqueline 4
Jardinier 4
Joey 4
John 4
Joinville 4
Jérusalem 4
Kaamelott 4
Kam@@ 4
Kemener 4
Ki@@ 4
Kinshasa 4
Kobe 4
Kubor 4
Kurosawa 4
La-@@ 4
La@@ 4
Lachaise 4
Laennec 4
Lan@@ 4
Lanka 4
Lar@@ 4
Larzac 4
Latin 4
Laura 4
Le-Soir 4
Lecter 4
Lees 4
Lefort 4
Lefévre 4
Legolas 4
Lens 4
Leuze 4
Life 4
Limoges 4
Limou@@ 4
Lizarazu 4
Logement 4
Long 4
Lorient 4
Lorrains 4
Los 4
Lou@@ 4
Lubumbashi 4
M6 4
MC 4
MGEL 4
MP 4
MVE 4
Mag@@ 4
Mai@@ 4
Mail 4
Mais 4
Marc-Vivien 4
March@@ 4
Marcinelle 4
Marius 4
Marne 4
Marolliens 4
Martinez 4
Martinon 4
Maréchal 4
Massif 4
Master 4
Mathis 4
Mau@@ 4
Max 4
Mazarine 4
Mercedes 4
Mey@@ 4
Michel@@ 4
Micheline 4
Mignan 4
Mil@@ 4
Missinger 4
Mohamed 4
Mol@@ 4
Molly 4
Montois 4
Montreuillois 4
Mor@@ 4
Morel 4
Mori@@ 4
Moulin 4
Mouvement 4
Mulets 4
Musée 4
Myspace 4
Métiers 4
NAPSTER 4
NRJ 4
Na-@@ 4
Nan@@ 4
Nathalie 4
Navarre 4
Nganga 4
Niagara 4
Nicola 4
Nor@@ 4
Nou@@ 4
Nouvelles 4
Nox 4
Oli@@ 4
Orient 4
Ou@@ 4
Ouranos 4
PE@@ 4
Pagnol 4
Pagode 4
Pakistanais 4
Pal@@ 4
Palmeraie 4
Palézieux 4
Pan 4
Paris-Est 4
Paris-Ouest 4
Pattaya 4
Patéro 4
Paulette 4
Pelle@@ 4
Pen@@ 4
Pernetty 4
Perrache 4
Petite 4
Piaf 4
Pic@@ 4
Piero 4
Pilâtre 4
Pink 4
Pivot 4
Playschool 4
Po 4
Poi@@ 4
Poincaré 4
Pokemon 4
Pokora 4
Poli@@ 4
Pont 4
Popincourt 4
Poutratz 4
Prague 4
Presley 4
Proche-Orient 4
Pron@@ 4
Provençal 4
Publique 4
Pyrénées 4
Quartier 4
Quenotte 4
Queyras 4
Qui 4
RL 4
RM@@ 4
RS 4
RU 4
Radiohead 4
Rail 4
Ras 4
Reflets 4
Renaissance 4
Respire 4
Resto 4
Richelieu 4
Ron@@ 4
Roquette 4
Rwanda 4
Révolution 4
SAM 4
SDF 4
SE@@ 4
SIEP 4
SPIC 4
STAPS 4
Saarbrücken 4
Sabine 4
Sabrina 4
Sacré 4
Saint-André 4
Saint-Cloud 4
Saint-Etienne 4
Saint-Martin 4
Saint-Maurice 4
Sainte-Sévère 4
Saix 4
Sal@@ 4
Saragosse 4
Sarepta 4
Savoie 4
Sel@@ 4
Sept 4
Seul 4
Shalke 4
Shinkansen 4
Société 4
Solar 4
Sologne 4
Sonore 4
Souffre 4
Space 4
Sri 4
Staline 4
Starbucks 4
Stiller 4
Stéph 4
Sud-@@ 4
Sur 4
Sur@@ 4
Sébastien 4
TER 4
Tahiti 4
Talence 4
Tarantino 4
Tchitranga 4
Terminale 4
Tervuren 4
Theodore 4
Thierry 4
Thomas 4
Thé@@ 4
Tim 4
To@@ 4
Tom@@ 4
Totorina 4
Tourisme 4
Tournaisiens 4
Tri@@ 4
Trône 4
Turin 4
UP 4
USB 4
Usage 4
VEFA 4
VS 4
VTT 4
Valaisan 4
Vancouver 4
Var@@ 4
Vass@@ 4
Vaud 4
Ver@@ 4
Vevey 4
Villeneuve-Loubet 4
Vélib'@@ 4
Vénézuéla 4
Weber 4
Windows 4
Wolluwé-Saint-Lambert 4
XML 4
XP 4
Youri 4
ZAC 4
Zadkine 4
Zurich 4
abandonnent 4
abat@@ 4
abatt@@ 4
abattu 4
abdi@@ 4
abor@@ 4
abordable 4
abordera 4
abruti@@ 4
abstraction 4
accompagnait 4
accompagnements 4
accouchement 4
accroupi 4
accueillait 4
accueils 4
accumu@@ 4
accusent 4
accéléré 4
acer 4
achetons 4
achevé 4
acidité 4
acquièrent 4
actrices 4
actualités 4
acté 4
adaptations 4
adhér@@ 4
adi@@ 4
adieu 4
admi@@ 4
administrateur 4
administrateurs 4
admirer 4
admission 4
adolescentes 4
adorer 4
adou@@ 4
adverse 4
affaire-là 4
affec@@ 4
affecte 4
affectif 4
affective 4
affecté 4
affolés 4
affron@@ 4
agi 4
agit@@ 4
agité 4
agneaux 4
ago 4
agran@@ 4
agressions 4
agrément 4
agée 4
aidant 4
aide-@@ 4
aidez 4
ailler 4
aillés 4
aimer@@ 4
airement 4
ais-je 4
ais-tu 4
aisons 4
aisser 4
alco@@ 4
alentour 4
alerté 4
alisant 4
alisations 4
allemandes 4
allergies 4
allez-vous 4
alli@@ 4
allions 4
allocations 4
allon 4
allon@@ 4
alloween 4
allumage 4
allume 4
allumette 4
allègrement 4
alter@@ 4
altitude 4
aléas 4
alémanique 4
amalgame 4
ambitieux 4
aments 4
ampli 4
amélioration 4
améliorations 4
améliore 4
an- 4
analy@@ 4
ancer 4
ancienneté 4
ancier 4
ancrée 4
ande 4
anger 4
angers 4
angles 4
ani 4
animatrice 4
anistes 4
annon@@ 4
annuler 4
ano 4
anomalies 4
anormal 4
anticipé 4
antérieure 4
ançait 4
aper@@ 4
aperce@@ 4
aperçue 4
apparement 4
apparences 4
appartenaient 4
appartenir 4
appellations 4
appelés 4
applaudi 4
appliques 4
appliquée 4
appliquées 4
appoint 4
apportes 4
apprenons 4
apprivoi@@ 4
approchent 4
approchée 4
approfon@@ 4
appropri@@ 4
approprier 4
appropriés 4
appréciée 4
appréciés 4
appréhension 4
après-demain 4
aptitudes 4
aques 4
archisme 4
archéologues 4
argen@@ 4
arm@@ 4
armure 4
arménien 4
armés 4
arriverai 4
arriveras 4
arrog@@ 4
arrondi 4
articule 4
ascen@@ 4
aspi@@ 4
aspirateur 4
assassins 4
assassiné 4
assemblé 4
assimilation 4
assume 4
assurent 4
assurés 4
astro@@ 4
ataires 4
ater@@ 4
attaches 4
attar@@ 4
atteignait 4
attendra 4
attentive 4
attirance 4
attrapait 4
attrapée 4
auberges 4
audace 4
audible 4
auditoire 4
auditoires 4
audois 4
augmentent 4
auguste 4
aumô@@ 4
austère 4
aut 4
automatiques 4
automobilistes 4
autoradio 4
aux-là 4
auxiliaire 4
avan@@ 4
avancera 4
avant@@ 4
avertis 4
awards 4
az 4
azimut 4
aérienne 4
aériennes 4
aî@@ 4
aîtra 4
aître 4
aïque 4
bab@@ 4
baby 4
baffe 4
bagarres 4
baigne 4
baigné 4
bailleresse 4
baissaient 4
baladait 4
balancer 4
balay@@ 4
ballerines 4
bambou 4
bant 4
baraquements 4
barcelone 4
basculement 4
basilique 4
bassiste 4
basés 4
bataillon 4
battaient 4
bault 4
bav@@ 4
bavar@@ 4
bazillac 4
beau@@ 4
beaux-parents 4
beige 4
bernois 4
bervilliers 4
beur@@ 4
bible 4
bibliothécaire 4
bid@@ 4
bien-aimée 4
bien-être 4
bienfai@@ 4
bifur@@ 4
bigoudène 4
bil@@ 4
bilans 4
binôme 4
blablabla 4
bless@@ 4
blessée 4
blessés 4
blindé 4
bloquent 4
blouson 4
boive 4
boivent 4
bonbonne 4
bondé 4
boom 4
booster 4
bottin 4
bouclier 4
bouges 4
bourge 4
bourgeons 4
bouscul@@ 4
bouscule 4
boxeur 4
boxeurs 4
boyard 4
boî@@ 4
bracelets 4
braderie 4
braderies 4
braises 4
branchée 4
brante 4
brassage 4
bre-@@ 4
brevets 4
bricol@@ 4
bricoles 4
brillait 4
brille 4
brindilles 4
briques 4
brisé 4
brochures 4
bronz@@ 4
bronzé 4
brume 4
brun@@ 4
brushing 4
brûlée 4
budg@@ 4
bug@@ 4
buggait 4
buissons 4
bulldozers 4
buste 4
butin 4
buvaient 4
buvette 4
bécane 4
béchamel 4
bée 4
bûches 4
c'est-ce 4
c'et 4
c'etait 4
c'ouais 4
cache-cache 4
caches 4
cadets 4
cadre-là 4
caf@@ 4
cafet@@ 4
cafetière 4
cailler 4
caine 4
caissettes 4
caissière 4
calandre 4
calanques 4
calcul@@ 4
calque 4
camarade 4
camper 4
camping-cars 4
caméraman 4
canadiens 4
cancoillotte 4
cannette 4
caoutchouc 4
capitaux 4
caractéri@@ 4
caram@@ 4
carbichounette 4
carolo 4
carrelage 4
carto@@ 4
cartonne 4
cartonné 4
casiers 4
casquettes 4
casse-croûte 4
cassette] 4
cassés 4
catalogues 4
catas 4
catastroph@@ 4
cation 4
catégorique 4
cauchemars 4
causé 4
ce- 4
cendre 4
cendres 4
censées 4
cent-cinquante-mille 4
cent@@ 4
centrales 4
centrer 4
cerfs 4
cerné 4
certi@@ 4
chablis 4
challenge 4
changeais 4
changeons 4
chantes 4
chantez 4
chantée 4
chargent 4
chariots 4
charismatique 4
charles 4
charnières 4
chars 4
chass@@ 4
chassés 4
chat@@ 4
chauffait 4
chauffe-eau 4
che-là 4
chef-@@ 4
cheptel 4
cherait 4
cherez 4
chevalerie 4
chevaudines 4
chewing-gum 4
chics 4
chiffons 4
chim@@ 4
chimiste 4
chipoter 4
chocolat@@ 4
choisira 4
choisiriez 4
choisissais 4
chomsky 4
chope 4
choppe 4
chopé 4
chronique 4
chu@@ 4
châtaigniers 4
chéance 4
cia 4
ciation 4
cime 4
cir 4
circonstance 4
circulaient 4
circulaire 4
circulé 4
citerne 4
ck@@ 4
cla@@ 4
claqué 4
clarinette 4
classé 4
climatiques 4
cliqué 4
clivage 4
cloche 4
clochers 4
cloison 4
clos 4
coc@@ 4
coccinelle 4
cocue 4
codecom 4
codir 4
coeurs 4
cohabitation 4
cohérente 4
coli@@ 4
collabor@@ 4
collaborations 4
collec@@ 4
collecter 4
collectives 4
collent 4
colliers 4
collée 4
collégiens 4
colom@@ 4
colombe 4
colonel 4
color@@ 4
colorie 4
combattants 4
combin@@ 4
comiques 4
command@@ 4
commenç@@ 4
compiler 4
complice 4
compliquées 4
complè@@ 4
complémentarité 4
complét@@ 4
comporter 4
composés 4
comprendrait 4
comprenez-vous 4
comprise 4
compréhensions 4
comptera 4
compétitif 4
con- 4
concerner 4
concitoyens 4
concrets 4
concréti@@ 4
concurrents 4
confia 4
confiné 4
confir@@ 4
confits 4
confiées 4
confondu 4
confortablement 4
confrontation 4
confronte 4
confréries 4
connaiss@@ 4
connaisseur 4
connaîtrait 4
connec@@ 4
connectent 4
connecté 4
connotation 4
conom@@ 4
consac@@ 4
consciente 4
conscients 4
consentement 4
conservée 4
considérables 4
consistant 4
consoler 4
consonnes 4
constituera 4
constructeur 4
consu@@ 4
consultés 4
contacté 4
contaminer 4
content@@ 4
conteste 4
conteurs 4
contextes 4
conti@@ 4
contiennent 4
continuellement 4
continuera 4
contourné 4
contraception 4
contractu@@ 4
contractuels 4
contradictions 4
contres@@ 4
contribuent 4
contrée 4
convain@@ 4
convi@@ 4
conviennent 4
coop@@ 4
coopér@@ 4
coquette 4
corbeille 4
cordonnier 4
cordée 4
corner 4
corpo 4
corpor@@ 4
corporelle 4
correspondants 4
correspondre 4
cors 4
cosplay 4
coteau 4
cotés 4
couchage 4
couchant 4
couenne 4
couillon 4
coulisse 4
coup-ci 4
coupant 4
courbe 4
couturiers 4
coû@@ 4
crabe 4
craché 4
crash 4
cravates 4
creus@@ 4
criminel 4
crit 4
croches 4
crocodiles 4
croisait 4
croisent 4
croisières 4
croque-monsieur 4
croupe 4
croy@@ 4
croyante 4
croyez-moi 4
cruci@@ 4
crues 4
crâ@@ 4
créant 4
crées 4
créées 4
crête 4
cucul 4
cuisse 4
curieusement 4
curry 4
cuvette 4
cycl@@ 4
cyclable 4
cycli@@ 4
cycliste 4
câ@@ 4
cède 4
cès 4
céleste 4
céramique 4
d'Africains 4
d'Aigues-Mortes 4
d'Aix-en-Provence 4
d'Anglais 4
d'Angleterre 4
d'EDF 4
d'Em@@ 4
d'Hamois 4
d'Or 4
d'Orléans 4
d'Ormesson 4
d'Ouest 4
d'abandon 4
d'abdication 4
d'abondance 4
d'abonnement 4
d'absence 4
d'acidité 4
d'afficher 4
d'ai@@ 4
d'algues 4
d'allemands 4
d'alternance 4
d'ambiance 4
d'anti@@ 4
d'appréhension 4
d'aptitude 4
d'arranger 4
d'arrivée 4
d'arrondissement 4
d'arts 4
d'attaque 4
d'aussi 4
d'autorisation 4
d'avantage 4
d'avantages 4
d'effort 4
d'employés 4
d'encre 4
d'ent@@ 4
d'entraînement 4
d'espoir 4
d'excellentes 4
d'excuse 4
d'exemple 4
d'explication 4
d'exploitation 4
d'expo 4
d'habilitation 4
d'imiter 4
d'impact 4
d'imprimer 4
d'incendie 4
d'incidents 4
d'initiation 4
d'inscriptions 4
d'interprétation 4
d'intégrer 4
d'investissement 4
d'obtenir 4
d'occasion 4
d'offrir 4
d'olives 4
d'opinion 4
d'option 4
d'ordures 4
d'orthophonie 4
d'ouvriers 4
d'unité 4
d'usines 4
d'âme 4
d'échecs 4
d'éditions 4
d'éducatrice 4
d'élève 4
d'émeraude 4
d'épreuves 4
d'équipement 4
d'équipes 4
d'évangile 4
d'événements 4
d-@@ 4
dada 4
dalles 4
dam 4
dance 4
danois 4
dansait 4
dansante 4
danseurs 4
dansé 4
dantes 4
dar@@ 4
data 4
dauphinois 4
deal 4
debourg 4
deltas 4
dem 4
dem@@ 4
demande-@@ 4
demanderait 4
demi-page 4
demoiselle 4
den 4
denis 4
des-@@ 4
descen@@ 4
descendit 4
destruction 4
dette 4
dettes 4
deux-cent 4
deux-cent-cinquante 4
deux-là 4
deux-mille-sept 4
devenaient 4
deviendrait 4
dez-@@ 4
diabétique 4
diamètre 4
diaporama 4
dier 4
diffu@@ 4
diffusés 4
diffèrent 4
différencie 4
digestion 4
dignité 4
diminution 4
din 4
dions 4
diplomate 4
diplomatique 4
dirigeant 4
dis-donc 4
discipl@@ 4
discutaient 4
disparaîtra 4
disposent 4
disputés 4
dissi@@ 4
distractions 4
dites-@@ 4
diversifier 4
divertissement 4
divin 4
divine 4
divorcés 4
dix-@@ 4
djembé 4
do- 4
docs 4
docteurs 4
doctrine 4
doise 4
dom@@ 4
domiciles 4
donf 4
donnèrent 4
dorer 4
dorm@@ 4
dorme 4
dorment 4
dormi@@ 4
dorés 4
dotés 4
doublages 4
doublette 4
douces 4
doucher 4
doudou 4
doutais 4
doutait 4
dra 4
dragu@@ 4
dre@@ 4
dress@@ 4
dressing 4
dressé 4
drom@@ 4
duc@@ 4
duisgeadh 4
durera 4
dynamiques 4
débau@@ 4
débits 4
débloquer 4
déborder 4
débordé 4
débriefing 4
décalés 4
décennies 4
décharger 4
déchetterie 4
déchi@@ 4
déchiffrer 4
déchire 4
décides 4
déclarer 4
déclen@@ 4
décolles 4
décontracté 4
décor@@ 4
décorer 4
découpage 4
découpée 4
décour@@ 4
décourager 4
découragé 4
découvres 4
décret 4
décroche 4
décrypter 4
dédié 4
déduction 4
défaill@@ 4
défaillance 4
défaite 4
défenseurs 4
défile 4
définirais 4
définiriez 4
définisse 4
défis 4
défonce 4
dégage 4
dégoutée 4
dégoûté 4
dégra@@ 4
dégradations 4
dégrade 4
dégui@@ 4
déguisée 4
déguster 4
déj 4
déjections 4
délibérations 4
délier 4
délivre 4
déluge 4
délégué 4
démerder 4
démonstration 4
démontable 4
démonté 4
déménag@@ 4
déménage 4
dénominateur 4
dénoncé 4
dénudé 4
dépannage 4
dépanneur 4
dépassés 4
dépaysé 4
dépendance 4
dépendent 4
dépendra 4
dépendre 4
dépends 4
dépla@@ 4
déplac@@ 4
déplorable 4
déportation 4
déposée 4
dépourvu 4
dépêche-toi 4
dérangé 4
dérivés 4
déroulera 4
désapprouvé 4
désavantage 4
désespérée 4
désirez 4
désirs 4
désor@@ 4
déstabil@@ 4
détach@@ 4
détachement 4
détailler 4
détendre 4
détendus 4
détestait 4
détesté 4
détr@@ 4
détritus 4
dév@@ 4
développés 4
dévoile 4
dévoiler 4
eco 4
ed 4
effac@@ 4
effleur@@ 4
effondré 4
effr@@ 4
ego 4
eign@@ 4
elfe 4
elier 4
elles-mêmes 4
emballe 4
embar@@ 4
embarque 4
embau@@ 4
embel@@ 4
embouteillages 4
emmenais 4
emmenées 4
emmenés 4
emmerdant 4
emmerde 4
emmènent 4
empil@@ 4
empire 4
emplacement 4
emploi@@ 4
employ@@ 4
empoisonner 4
emporte 4
emprun@@ 4
emprunte 4
emprunts 4
empê@@ 4
encadrés 4
enchan@@ 4
enchanté 4
enchaîne 4
enchères 4
encres 4
encyclopédie 4
endet@@ 4
endrais 4
endrait 4
endriez 4
enduit 4
enduits 4
enfermer 4
enfonce 4
eng@@ 4
engendrer 4
engueulé 4
enlevait 4
enlevez 4
enrac@@ 4
enregistres 4
enregistrée 4
enregistrés 4
enseignantes 4
enseignent 4
ensevel@@ 4
ensevelir 4
enten@@ 4
entendrez 4
enter 4
enterre 4
entités 4
entourés 4
entraient 4
entraînent 4
entraînée 4
entreprend 4
entreprendre 4
entrepreneur 4
entrepreneurs 4
entretenu 4
entretient 4
envolé 4
envolée 4
erry 4
escale 4
escargot 4
ese 4
espagne 4
essayera 4
essayes 4
essayons 4
essor 4
est-ce-@@ 4
este 4
estimait 4
estiment 4
estomac 4
ethno@@ 4
eurement 4
eux-@@ 4
exagèrent 4
exam 4
examin@@ 4
examinée 4
exams 4
exaspérant 4
excessive 4
excu@@ 4
excès 4
exercée 4
exigeantes 4
existante 4
expert 4
explique@@ 4
explorer 4
explosion 4
expressi@@ 4
exécution 4
exécuté 4
fables 4
fabricant 4
fabriques 4
fabuleuse 4
fade 4
fai 4
fait-on 4
faites-vous 4
familiers 4
famille-là 4
famé 4
fanfares 4
faon 4
fascin@@ 4
fascinant 4
fat@@ 4
fatidique 4
fatiguait 4
fatiguer 4
faucher 4
fauss@@ 4
fausses 4
favori 4
fein@@ 4
fendre 4
fente 4
fermaient 4
fermait 4
fermez 4
ferrer 4
festin 4
feuille@@ 4
ffe 4
ffr@@ 4
fic@@ 4
figurez-vous 4
figé 4
fileuse 4
filleule 4
fils-là 4
filtration 4
finaliser 4
finistère 4
fique 4
fir@@ 4
firmes 4
fiscale 4
fiscales 4
fiscalité 4
fiée 4
fiées 4
fiés 4
flacons 4
flamboyance 4
flatteur 4
fleurir 4
flippe 4
flo@@ 4
floraison 4
flute 4
fly 4
flûtiste 4
flûtistes 4
foc@@ 4
focus 4
fois-là 4
folkloriques 4
folks 4
follement 4
fonctionn@@ 4
fondateur 4
fondateurs 4
fondée 4
fontaines 4
footballeur 4
foraine 4
forges 4
forma@@ 4
formalisation 4
formater 4
formaté 4
formons 4
formu@@ 4
fortun@@ 4
fouille 4
fouillé 4
fourche 4
fournissais 4
fournissent 4
foutue 4
foutus 4
fr 4
frac@@ 4
fraction 4
fran 4
franch@@ 4
franco-japonais 4
françois 4
frappes 4
freinage 4
freinent 4
fribourgeoises 4
frigos 4
frire 4
frite 4
front@@ 4
frottement 4
frotter 4
frustrée 4
fré@@ 4
fréqu@@ 4
fréquentations 4
fumant 4
fumes 4
fumées 4
funérailles 4
fâché 4
fécon@@ 4
fédérales 4
fées 4
félici@@ 4
féminines 4
féminité 4
férer 4
fûts 4
ga 4
gabarit 4
gagnaient 4
gagnais 4
gagnée 4
gaillard 4
gall@@ 4
galopé 4
gamines 4
gant 4
garant 4
garanti 4
garantis 4
garde-manger 4
gardiennes 4
gastronomique 4
ge-@@ 4
geaient 4
gelée 4
genci@@ 4
gendarme 4
gendre 4
geons 4
germanique 4
ges@@ 4
geur 4
gibier 4
gigot 4
gilet 4
giques 4
git 4
glauque 4
gle 4
gliss@@ 4
globe 4
glou@@ 4
gnies 4
gné 4
gobelets 4
gombos 4
gonfl@@ 4
gonflée 4
gore 4
gougères 4
goy 4
goûte 4
grainetiers 4
grammaires 4
grandis 4
grandissent 4
grappes 4
grat@@ 4
gratos 4
gravement 4
griffes 4
grillés 4
grimpent 4
grimpeurs 4
grossi@@ 4
grotte 4
groupé 4
gueil 4
guée 4
guéguerre 4
guéri 4
gymnases 4
gâché 4
gémi@@ 4
génère 4
généalogie 4
généralité 4
générer 4
générosité 4
généré 4
génétique 4
gérait 4
habilitations 4
habitions 4
habituelles 4
habitée 4
halls 4
ham@@ 4
har@@ 4
haras 4
harmonie 4
has 4
her@@ 4
hh 4
hi-@@ 4
hindi 4
hockey 4
homard 4
homosexuels 4
honorer 4
horizontal 4
horlog@@ 4
horloger 4
horti@@ 4
hospitalisé 4
hospitalière 4
house 4
houx 4
huit-@@ 4
huit-cents 4
huitante 4
humainement 4
hypo@@ 4
hypothèses 4
hér@@ 4
hésites 4
ico 4
identi@@ 4
identifiant 4
identifie 4
idéaliste 4
ien 4
ienne 4
iens 4
ignoble 4
ignorance 4
ignore 4
ignorer 4
ikea 4
ilité 4
illard 4
illement 4
illeux 4
illis 4
illusion 4
imagineriez 4
imbéciles 4
imes 4
immigré 4
immobile 4
immobiliers 4
impensable 4
impli@@ 4
import 4
impossibles 4
impressionant 4
impressionnantes 4
imprimeur 4
impératifs 4
impérativement 4
imé 4
in-@@ 4
incidence 4
incidences 4
incom@@ 4
incontestable 4
increase 4
indicateur 4
indiquait 4
indiquent 4
indiquée 4
indirectement 4
indéfiniment 4
[...]
