<s>	0
<pad>	0
</s>	0
<unk>	0
<lang:fr>	0
<lang:frp>	0
▁de	-2.94863
▁le	-3.1175
s	-3.2193
_	-3.30157
'	-3.62362
▁il	-4.09221
▁à	-4.11455
▁et	-4.2671
▁la	-4.37381
▁	-4.37968
▁au	-4.5344
▁les	-4.54401
▁l	-4.5829
▁ville	-4.60731
▁être	-4.61913
-	-4.62695
▁passé	-4.71728
e	-4.73293
▁est	-4.73392
du	-4.756
▁haut	-4.78109
▁un	-4.78727
▁une	-4.78758
corps	-4.8041
▁dans	-5.00433
▁d	-5.01148
▁son	-5.02217
▁elle	-5.05365
▁par	-5.10217
▁en	-5.18105
un	-5.19586
▁du	-5.34838
r	-5.36458
▁pour	-5.39941
▁que	-5.49079
▁quelqu	-5.5323
▁a	-5.61554
▁sur	-5.62827
▁ce	-5.66195
▁plusieurs	-5.66918
▁se	-5.70104
ment	-5.7061
▁avec	-5.73637
▁des	-5.77566
▁groupe	-5.85907
de	-5.87082
▁plus	-5.88401
a	-5.95448
▁comme	-6.01581
▁s	-6.04373
▁ses	-6.05409
nt	-6.10155
est	-6.11855
t	-6.12924
▁sont	-6.1347
▁avoir	-6.13805
là	-6.15315
parlementaire	-6.17834
fois	-6.23027
▁sa	-6.2801
▁c	-6.28756
▁association	-6.2984
en	-6.33864
ux	-6.36052
d	-6.3746
▁faire	-6.38381
▁celui	-6.38893
▁non	-6.42067
▁cette	-6.4208
▁me	-6.42241
autre	-6.45539
▁après	-6.45609
y	-6.47738
▁tout	-6.48706
▁nous	-6.4926
▁pas	-6.53285
▁lui	-6.55837
▁cependant	-6.56864
es	-6.61013
▁ces	-6.61716
▁n	-6.64317
▁entre	-6.7016
▁ou	-6.74178
▁qu	-6.74209
▁deux	-6.7423
▁été	-6.74316
▁ne	-6.74509
é	-6.77464
▁premier	-6.78142
ir	-6.79045
▁qui	-6.79519
▁même	-6.85227
▁2	-6.8776
il	-6.87761
▁égal	-6.90294
▁autre	-6.9081
▁leur	-6.91093
▁également	-6.92692
▁pouvoir	-6.93791
er	-6.94607
une	-6.94694
▁année	-6.96133
▁vous	-6.98707
▁nombre	-6.98856
l	-6.98996
▁prochain	-7.00423
▁grand	-7.01529
p	-7.01578
o	-7.03147
▁rue	-7.09533
le	-7.09838
▁était	-7.10305
▁fait	-7.10489
▁place	-7.11058
▁aux	-7.13496
!	-7.14398
▁aussi	-7.15104
x	-7.16235
▁ils	-7.17484
▁y	-7.18286
▁on	-7.19425
▁mais	-7.22121
▁rencontre	-7.25368
▁pièce	-7.26529
▁famille	-7.286
▁je	-7.29233
▁alor	-7.30768
▁fut	-7.32251
▁cet	-7.32659
▁voir	-7.33474
on	-7.37347
▁celle	-7.37635
▁trop	-7.37874
ent	-7.3848
i	-7.38487
▁ont	-7.38496
▁fils	-7.39203
à	-7.39472
la	-7.39652
▁père	-7.41091
ant	-7.4229
▁peu	-7.42337
▁france	-7.42875
ce	-7.42877
▁sans	-7.43902
it	-7.44112
▁mise	-7.44189
▁porte	-7.45358
côté	-7.46171
▁équipe	-7.46326
▁français	-7.46876
▁suite	-7.47065
▁guerre	-7.47805
▁prendre	-7.48347
▁forme	-7.49036
place	-7.49335
▁rural	-7.49444
n	-7.49489
▁dernier	-7.50183
▁trois	-7.50391
▁pendant	-7.50649
▁devoir	-7.5166
▁première	-7.51803
▁saint	-7.52612
ait	-7.52955
▁nord	-7.53905
▁seul	-7.54027
▁raison	-7.54208
▁prénom	-7.54423
▁chef	-7.54783
in	-7.54925
▁sud	-7.55384
▁très	-7.55457
c	-7.55802
▁nom	-7.55863
▁avant	-7.56579
▁quelques	-7.56664
▁ancien	-7.5815
▁souvent	-7.58852
▁club	-7.58895
▁vers	-7.59768
ur	-7.60849
au	-7.61254
▁partie	-7.6139
▁paris	-7.61851
▁cent	-7.62297
ci	-7.63036
hui	-7.63386
▁3	-7.63965
▁cours	-7.64074
▁mon	-7.64371
▁bien	-7.64373
ie	-7.64794
ra	-7.65147
▁époque	-7.65655
▁si	-7.65684
▁monsieur	-7.6569
▁sous	-7.65713
▁village	-7.66467
▁aujourd	-7.67582
▁peut	-7.68295
▁contre	-7.69466
ne	-7.70924
▁commune	-7.71222
tu	-7.7238
▁titre	-7.72722
z	-7.72777
▁utiliser	-7.72833
▁nouveau	-7.72871
▁contraire	-7.72901
ation	-7.72951
▁quatre	-7.73016
▁vie	-7.73351
▁où	-7.74769
▁connaître	-7.75197
re	-7.75582
▁dire	-7.77228
▁chaque	-7.77387
▁fin	-7.77805
▁long	-7.7828
me	-7.78723
venir	-7.79805
▁commencer	-7.79819
▁re	-7.80074
que	-7.80816
▁homme	-7.81285
▁petit	-7.82502
al	-7.82624
▁saison	-7.83144
▁succè	-7.83326
▁différent	-7.83713
▁admirer	-7.83872
▁centre	-7.84203
▁dé	-7.85507
▁ma	-7.85819
▁leurs	-7.85958
▁mettre	-7.86073
école	-7.86698
▁ensemble	-7.86949
▁donc	-7.87362
▁gouvernement	-7.87466
▁suivre	-7.88488
dessous	-7.88583
▁tour	-7.88722
▁mort	-7.8949
▁j	-7.90159
▁siège	-7.90397
▁fois	-7.91273
▁joue	-7.91329
▁voie	-7.91809
trouver	-7.9206
▁église	-7.93528
▁1	-7.9372
et	-7.93943
▁trouve	-7.94354
▁durant	-7.9467
▁ensuit	-7.94721
▁produir	-7.94914
▁bâtiment	-7.95212
u	-7.9544
elle	-7.95821
ainsi	-7.96536
▁selon	-7.96572
▁jusqu	-7.96756
te	-7.97339
?	-7.97752
an	-7.97794
▁musique	-7.98576
▁frère	-7.99759
m	-8.00667
ée	-8.01254
▁exister	-8.01283
▁là	-8.0153
▁courant	-8.01569
▁toi	-8.01763
▁aller	-8.01818
▁fille	-8.02256
▁enfants	-8.02332
▁numéro	-8.03512
▁jour	-8.03753
▁roi	-8.04753
ité	-8.05392
▁société	-8.05432
▁film	-8.0569
les	-8.05948
▁politique	-8.06173
▁mère	-8.06753
mment	-8.07178
as	-8.0768
▁études	-8.07716
▁présente	-8.08053
naître	-8.08911
▁4	-8.09532
▁aucun	-8.10485
us	-8.11207
▁femme	-8.11433
▁ligne	-8.11672
▁deuxième	-8.1187
attraper	-8.11907
▁beaucou	-8.12026
▁maison	-8.12632
▁président	-8.12665
k	-8.1294
▁heureuse	-8.13295
▁moin	-8.13572
▁temps	-8.13661
▁tous	-8.13807
temps	-8.15229
▁département	-8.15289
is	-8.15437
▁jeu	-8.15907
▁ré	-8.15969
▁jamai	-8.16044
▁in	-8.16722
▁t	-8.16823
▁pays	-8.17729
▁histoire	-8.18118
2	-8.1827
▁point	-8.18562
▁bâti	-8.19585
▁devient	-8.20052
ma	-8.20094
▁située	-8.20146
▁album	-8.20646
▁maître	-8.21216
ai	-8.21252
f	-8.21687
▁puis	-8.21714
agit	-8.21793
▁passer	-8.21807
té	-8.21867
▁jean	-8.21971
age	-8.22341
▁avait	-8.22363
▁m	-8.22702
▁e	-8.22826
▁encore	-8.22882
or	-8.23168
puis	-8.23208
▁ans	-8.24058
▁école	-8.24171
▁écrire	-8.24389
▁prix	-8.24473
▁langue	-8.25246
▁mois	-8.25433
▁lors	-8.25628
▁membre	-8.25674
▁toute	-8.25776
▁noir	-8.25911
▁gagner	-8.26222
na	-8.26385
▁face	-8.26534
▁pierre	-8.26824
▁rivière	-8.26959
▁donner	-8.27126
▁con	-8.2735
ti	-8.27824
▁mouvement	-8.2806
co	-8.28178
g	-8.28197
▁château	-8.2821
▁lieux	-8.28464
▁arrive	-8.28701
▁espèce	-8.28862
▁base	-8.29369
sportif	-8.29412
▁permettre	-8.29472
▁grande	-8.29644
▁tu	-8.30075
▁quartier	-8.30092
▁rapide	-8.30175
▁5	-8.30342
▁co	-8.30594
▁livre	-8.31517
▁jouer	-8.31559
▁reste	-8.31892
h	-8.31995
▁montrer	-8.32342
gne	-8.32484
▁partir	-8.32948
aient	-8.33026
▁étudier	-8.33295
▁situé	-8.3371
▁tard	-8.33918
▁emploi	-8.34097
▁compétition	-8.34513
église	-8.34622
ar	-8.34647
dit	-8.34697
ro	-8.35039
▁artiste	-8.35617
eau	-8.359
▁accepter	-8.36048
▁personne	-8.36739
▁cela	-8.3692
▁arrêter	-8.37643
▁réputé	-8.37669
▁gare	-8.38515
▁fort	-8.38613
eur	-8.38954
▁décéder	-8.39017
histoire	-8.39798
▁va	-8.40189
▁écrivain	-8.40473
ta	-8.41273
▁car	-8.4137
▁champion	-8.41376
▁voulo	-8.41401
▁vérité	-8.42193
at	-8.42421
▁inventer	-8.42483
▁troisième	-8.42883
▁dit	-8.43018
▁notre	-8.43409
▁parti	-8.43468
▁principale	-8.43535
▁crier	-8.4363
▁vingt	-8.43817
▁région	-8.44211
man	-8.44304
▁ni	-8.44604
▁quand	-8.44628
▁bataille	-8.44632
▁cinq	-8.44796
aux	-8.44891
▁couleur	-8.45545
ion	-8.46003
▁rien	-8.46056
▁audience	-8.46141
▁domaine	-8.46143
▁plan	-8.46254
université	-8.46546
▁nota	-8.46641
▁certain	-8.468
▁style	-8.47164
▁carrière	-8.47642
▁rendre	-8.4791
▁cimetière	-8.4797
▁tête	-8.48797
▁genre	-8.48933
▁match	-8.49054
▁terre	-8.49055
▁vivre	-8.49142
▁sœur	-8.49441
▁pro	-8.49754
▁choi	-8.49929
el	-8.50295
▁devant	-8.50311
▁souten	-8.50573
▁question	-8.50671
▁changer	-8.50735
▁seconde	-8.50815
▁marier	-8.51205
▁donne	-8.51426
▁service	-8.52192
▁militaire	-8.52211
aire	-8.52336
▁cour	-8.52636
▁scène	-8.52724
▁entier	-8.5283
ac	-8.53302
▁toujours	-8.53487
ga	-8.53989
▁résultat	-8.54145
▁trouver	-8.5459
va	-8.54793
▁blanc	-8.55263
▁combien	-8.55777
▁nouvelle	-8.55785
▁adolescent	-8.56086
▁é	-8.56094
▁lieu	-8.56291
▁travailler	-8.5667
équipe	-8.56703
▁monde	-8.5682
▁bon	-8.57638
ton	-8.57935
ch	-8.58199
▁savoir	-8.58362
b	-8.58838
▁or	-8.58985
▁recherche	-8.59336
▁double	-8.59344
▁porter	-8.59576
▁considérer	-8.59621
èrent	-8.60251
▁étaient	-8.60273
▁général	-8.60638
▁six	-8.60815
▁ta	-8.60871
▁journée	-8.60911
▁10	-8.61213
▁seule	-8.61284
▁anglais	-8.61291
um	-8.61322
ing	-8.615
▁autour	-8.61517
origine	-8.61546
▁finale	-8.61609
▁musée	-8.61749
lo	-8.61788
▁vit	-8.6188
to	-8.62194
▁lac	-8.62214
était	-8.62295
▁sera	-8.62437
art	-8.62445
ées	-8.62459
être	-8.62475
▁mille	-8.62863
▁chemin	-8.62931
▁acteur	-8.62986
▁dont	-8.63221
▁algorithme	-8.63246
▁jeunes	-8.63382
▁dix	-8.63584
▁propre	-8.63706
▁port	-8.63998
ouest	-8.64006
▁article	-8.6404
▁états	-8.64368
▁comprendre	-8.64452
ri	-8.64511
▁moyen	-8.64755
ine	-8.64927
ard	-8.65029
ier	-8.65162
▁mondial	-8.6545
▁participer	-8.65559
▁nuit	-8.65618
▁exact	-8.6598
ry	-8.66334
▁eux	-8.66758
és	-8.67058
▁rouge	-8.67155
▁éducation	-8.67423
▁cas	-8.67447
▁servir	-8.67485
▁métier	-8.67571
▁b	-8.68073
ter	-8.68228
▁no	-8.68254
▁source	-8.68275
▁rester	-8.68322
▁ceux	-8.68742
▁né	-8.68927
im	-8.68959
ou	-8.69055
▁atelier	-8.69075
▁quelle	-8.69297
▁épouse	-8.69381
état	-8.69823
▁plu	-8.70093
▁série	-8.70254
▁jeune	-8.70342
▁proposer	-8.70402
▁doit	-8.7052
▁mer	-8.70588
▁date	-8.70961
▁nombreuse	-8.71544
▁animation	-8.71726
▁europe	-8.71732
ve	-8.71751
ver	-8.72017
w	-8.72259
▁texte	-8.7255
da	-8.72866
▁connu	-8.7319
no	-8.73319
unis	-8.73372
ale	-8.73407
ns	-8.73741
▁but	-8.73899
▁chanson	-8.7401
▁gens	-8.7442
▁pré	-8.74498
▁k	-8.74799
iste	-8.74826
▁sol	-8.75042
▁parler	-8.75045
use	-8.75312
▁ton	-8.7536
che	-8.75514
▁bar	-8.75552
▁garçon	-8.75552
tte	-8.75659
▁théâtre	-8.75709
▁per	-8.76245
▁continuer	-8.76484
▁instant	-8.76557
ca	-8.76708
▁désormais	-8.76924
v	-8.7698
▁possède	-8.77247
▁retour	-8.77331
▁dernière	-8.77345
mi	-8.77509
▁bas	-8.77716
ia	-8.7772
année	-8.77796
▁pont	-8.77859
▁neuf	-8.77996
di	-8.78147
▁mont	-8.78288
▁composer	-8.78311
▁6	-8.78397
▁enregistrement	-8.78563
▁réaliser	-8.78711
▁choses	-8.78842
able	-8.79016
▁finir	-8.79166
ique	-8.79344
▁poste	-8.79419
▁facile	-8.79682
▁chez	-8.7979
▁prend	-8.80081
son	-8.80265
▁mal	-8.80315
▁mot	-8.80325
▁bo	-8.80414
accord	-8.8042
▁entreprise	-8.80447
▁peuvent	-8.80465
▁ouest	-8.80552
▁célèbre	-8.80586
▁rejoindre	-8.80649
même	-8.80724
▁salle	-8.80837
▁administration	-8.81099
ge	-8.81156
ot	-8.81421
▁directeurs	-8.81475
▁élection	-8.81652
▁œuvre	-8.81692
▁compte	-8.81743
▁new	-8.81764
emmener	-8.81885
ement	-8.82222
▁eau	-8.82563
▁garder	-8.82654
droite	-8.8298
go	-8.83079
ck	-8.83105
▁toutes	-8.8322
▁dieu	-8.8322
am	-8.83407
île	-8.83445
▁large	-8.83456
▁beau	-8.83514
▁retourner	-8.83541
▁commence	-8.8357
▁utilisé	-8.8382
ba	-8.83838
▁communication	-8.83975
▁gauche	-8.83999
▁position	-8.84032
▁ba	-8.8414
▁sortir	-8.84192
▁al	-8.84522
▁âge	-8.84661
00	-8.84711
▁parents	-8.84806
▁bizarre	-8.84834
▁projet	-8.84835
▁bi	-8.8491
▁voisins	-8.85113
▁libre	-8.85188
▁maintenant	-8.85255
ez	-8.85534
ville	-8.85577
sse	-8.85701
ré	-8.85735
▁actuellement	-8.85957
▁mi	-8.85965
tour	-8.86174
▁so	-8.8637
▁mari	-8.86435
▁petite	-8.86443
ille	-8.86458
▁forêt	-8.86562
▁campagne	-8.86749
▁votre	-8.8721
▁furent	-8.87219
ka	-8.87276
▁bord	-8.87419
▁soixante	-8.8749
be	-8.87529
▁nommé	-8.87906
▁ex	-8.88154
▁tombe	-8.88423
▁problème	-8.88441
bi	-8.88684
▁part	-8.88884
▁parole	-8.88896
th	-8.89053
ad	-8.89305
rie	-8.89352
▁coup	-8.89694
honneur	-8.89697
▁liste	-8.89811
▁mar	-8.89949
▁ordre	-8.8995
lé	-8.90317
▁catholique	-8.90373
▁court	-8.9045
▁île	-8.90574
▁trente	-8.90585
▁développement	-8.90651
▁site	-8.90738
▁ici	-8.90868
▁passe	-8.90892
▁doute	-8.90945
▁début	-8.90993
▁conseil	-8.90998
dans	-8.91118
▁armée	-8.9135
▁accoucher	-8.91433
▁o	-8.91569
▁eu	-8.91823
▁perdre	-8.91886
vi	-8.91969
▁niveau	-8.9208
▁oui	-8.92092
os	-8.92108
▁ha	-8.92131
▁vendre	-8.92286
▁course	-8.92521
isme	-8.92793
▁vite	-8.92849
▁couple	-8.93081
▁p	-8.93163
▁étage	-8.93314
pile	-8.93334
▁route	-8.9341
ons	-8.93571
▁permet	-8.93624
▁chapelle	-8.93631
▁programme	-8.93965
▁magasin	-8.94007
▁te	-8.94073
▁semaine	-8.94236
▁heure	-8.94299
ut	-8.94322
▁fer	-8.94327
▁peintre	-8.94442
▁ami	-8.94862
mo	-8.94936
▁globe	-8.95071
tt	-8.95084
▁lettre	-8.95141
▁droit	-8.95501
▁zéro	-8.95734
▁française	-8.95793
▁g	-8.95889
▁docteur	-8.95903
do	-8.96168
ère	-8.96231
▁directeur	-8.96245
▁police	-8.96316
▁prè	-8.96331
▁femmes	-8.96389
▁taille	-8.96415
cheter	-8.96577
bas	-8.96622
▁générale	-8.96679
▁chantier	-8.96733
▁montagne	-8.96782
▁chambre	-8.96971
ure	-8.97037
▁ca	-8.97045
▁suisse	-8.97056
▁scientifique	-8.97191
▁préférer	-8.97199
gu	-8.97394
▁certaine	-8.97398
▁compagnie	-8.97587
ul	-8.97829
▁suivante	-8.97889
vous	-8.98469
lu	-8.98583
tout	-8.98684
▁demi	-8.99029
▁aimer	-8.99136
▁composition	-8.99245
▁vidéo	-8.99302
ron	-8.99326
▁voiture	-8.99477
▁fleur	-8.99571
▁mo	-8.99665
moment	-9.00198
▁bande	-9.00277
▁bou	-9.0036
ais	-9.00477
lin	-9.00525
né	-9.00547
▁culture	-9.00717
▁travaille	-9.00797
▁cinéma	-9.00869
▁territoire	-9.00929
▁améliorer	-9.0093
water	-9.00936
▁réfléchir	-9.00953
▁cor	-9.00955
▁collège	-9.01106
polo	-9.01155
▁fond	-9.01293
▁sept	-9.01471
▁action	-9.01538
▁val	-9.01609
▁mondiale	-9.01622
lieu	-9.01884
▁remporte	-9.02121
▁façonne	-9.02122
▁an	-9.02436
▁élève	-9.02488
j	-9.02659
▁agent	-9.02848
▁sens	-9.02894
yeux	-9.03234
▁annonce	-9.03393
▁université	-9.03451
▁guider	-9.03508
▁main	-9.03692
▁parmi	-9.03769
ha	-9.04006
▁conseiller	-9.04035
▁comment	-9.0409
ni	-9.04249
▁joueuse	-9.04264
▁rôle	-9.04324
tôt	-9.0443
▁produit	-9.04457
vingt	-9.04572
▁demander	-9.04737
hors	-9.04918
▁font	-9.05258
▁capitaine	-9.05363
▁élaboration	-9.0541
▁ga	-9.05529
▁enfant	-9.05656
▁huit	-9.05673
▁canada	-9.05794
▁aide	-9.05841
▁be	-9.05855
▁habitant	-9.05942
▁remporter	-9.06213
▁participe	-9.06294
tion	-9.0631
▁central	-9.06317
▁st	-9.06489
▁camp	-9.06496
▁environ	-9.06566
▁assassine	-9.06613
▁ra	-9.06743
▁côté	-9.06796
▁protéger	-9.06906
▁apparaîtr	-9.06953
▁cœur	-9.07058
▁important	-9.07132
▁livres	-9.07242
▁allema	-9.07531
sur	-9.07655
▁londres	-9.07655
▁organiser	-9.07663
▁bureau	-9.07899
▁usage	-9.07945
▁existe	-9.07985
ner	-9.08103
▁classe	-9.08511
quoi	-9.08515
gue	-9.08671
▁effet	-9.08875
part	-9.08899
▁geste	-9.08923
▁professeur	-9.09171
ite	-9.09613
▁vol	-9.09655
▁football	-9.09968
▁japon	-9.09985
▁tant	-9.10029
ol	-9.10118
▁monument	-9.10185
▁fonction	-9.10512
▁jours	-9.10665
abord	-9.10682
▁archevêque	-9.10684
▁parc	-9.11162
▁période	-9.11163
▁national	-9.11472
▁écrit	-9.11492
▁mur	-9.11538
▁canton	-9.11634
▁championnat	-9.11754
▁répondre	-9.11765
▁madame	-9.11892
▁fi	-9.11924
▁extrémité	-9.12057
▁train	-9.12235
aller	-9.1225
dé	-9.12351
▁situe	-9.12476
▁travail	-9.12695
▁voyage	-9.12808
▁frères	-9.12895
▁bleu	-9.13282
op	-9.13339
▁inclure	-9.13549
mé	-9.13571
▁man	-9.13731
▁moi	-9.13805
▁dè	-9.13827
▁nationale	-9.13832
▁vallée	-9.14001
▁terminer	-9.14021
▁ka	-9.14062
▁compléter	-9.14128
li	-9.14489
▁marque	-9.14572
▁pi	-9.14745
▁nommée	-9.14754
▁droite	-9.14787
ont	-9.14889
▁vert	-9.14926
▁lendemain	-9.15271
▁italie	-9.15287
▁occuper	-9.15469
ance	-9.15477
▁vent	-9.15544
ll	-9.15699
▁ça	-9.15705
▁sélectionne	-9.15778
po	-9.15806
assez	-9.15964
▁personnel	-9.15968
▁départ	-9.15975
▁feu	-9.16454
qui	-9.16458
ex	-9.16624
▁grands	-9.16713
cé	-9.16897
▁dis	-9.17011
▁matière	-9.17118
▁bois	-9.1714
▁disque	-9.17244
▁aucune	-9.17401
▁di	-9.17412
if	-9.17494
▁brun	-9.17523
▁garde	-9.17709
▁jaune	-9.1775
▁simple	-9.17808
▁années	-9.1791
mer	-9.17941
▁député	-9.18083
▁loin	-9.18312
mont	-9.1849
ordre	-9.18744
▁système	-9.18851
▁essayer	-9.18873
▁corps	-9.18937
▁mé	-9.18946
▁ci	-9.19063
▁romain	-9.19291
▁joueur	-9.19329
▁diviser	-9.196
ab	-9.19608
id	-9.19801
▁ouvrir	-9.19845
ke	-9.19876
▁activité	-9.20234
▁demande	-9.20361
con	-9.20456
▁montre	-9.20513
▁arme	-9.20598
▁riche	-9.20656
▁ri	-9.20843
rent	-9.21029
▁médaille	-9.21049
ang	-9.21132
▁formation	-9.21281
ois	-9.213
▁plantes	-9.21472
ante	-9.21481
ru	-9.215
▁peinture	-9.21671
▁vieux	-9.21675
ko	-9.21684
▁jardins	-9.21704
dor	-9.21805
mar	-9.2201
▁air	-9.22091
▁mor	-9.22537
▁argent	-9.22542
▁public	-9.22579
▁aider	-9.22628
▁marché	-9.22663
aï	-9.22692
▁télévision	-9.22746
▁entrée	-9.22749
▁maire	-9.23041
▁expliquer	-9.23119
▁endémique	-9.23149
▁province	-9.23149
▁cher	-9.23166
tant	-9.2318
▁usine	-9.23216
▁semble	-9.23637
▁ferme	-9.23684
▁appel	-9.23689
▁meurt	-9.237
▁îles	-9.23707
fin	-9.24035
▁fa	-9.24095
▁particulière	-9.24178
▁rome	-9.24217
▁type	-9.24255
▁présent	-9.24266
▁disparaîtr	-9.24359
objet	-9.24408
ler	-9.24447
▁appareil	-9.24541
ien	-9.24543
couture	-9.2463
▁importante	-9.24754
▁candidat	-9.24921
▁fit	-9.25033
land	-9.25041
▁go	-9.2514
▁quarante	-9.25246
▁ajouter	-9.25476
▁proche	-9.25519
▁pratique	-9.25752
▁médecine	-9.25799
▁royaume	-9.26195
▁pic	-9.26289
▁comprend	-9.26362
ché	-9.26579
▁inspirer	-9.2665
▁suis	-9.2671
▁lever	-9.26734
▁marie	-9.26807
▁ru	-9.26816
époque	-9.26847
▁classer	-9.27151
▁juste	-9.27191
▁planète	-9.27263
▁faut	-9.2741
▁capitale	-9.27438
ph	-9.27646
▁pa	-9.27724
ak	-9.27806
▁ro	-9.27883
▁méthode	-9.27945
▁version	-9.28212
▁lycée	-9.28253
▁ouvert	-9.283
chi	-9.28345
hi	-9.28535
▁moment	-9.28666
▁jo	-9.28669
▁prince	-9.28804
eux	-9.28919
▁belgique	-9.29027
▁faible	-9.29108
▁propriétaire	-9.29181
▁maladie	-9.29259
armée	-9.29287
▁grave	-9.29473
▁phase	-9.29493
obliger	-9.29783
▁gra	-9.2981
▁inter	-9.29918
également	-9.30008
▁vin	-9.30037
▁limite	-9.30041
▁ministre	-9.30084
▁ver	-9.30156
▁i	-9.30437
▁dur	-9.30546
▁appelé	-9.30574
▁changement	-9.30641
▁dialogue	-9.30828
▁circuit	-9.30985
▁li	-9.31136
▁f	-9.3116
▁retrouve	-9.31255
▁arbre	-9.31359
▁production	-9.31382
▁lumière	-9.31536
▁décide	-9.31714
▁cap	-9.31852
ette	-9.31927
ise	-9.31993
oc	-9.32004
don	-9.32051
▁espoir	-9.32115
▁évolue	-9.3218
▁entendre	-9.32196
▁représente	-9.32246
▁attendre	-9.32282
ja	-9.32328
▁chine	-9.32387
ct	-9.32477
▁tableau	-9.32536
▁force	-9.32565
▁lancer	-9.32682
▁jeux	-9.32754
▁traverser	-9.32942
▁rend	-9.33041
▁durer	-9.33099
lle	-9.33243
ue	-9.33367
▁laisse	-9.33419
▁parcour	-9.33435
▁stade	-9.33438
▁gu	-9.33473
▁cheval	-9.33496
père	-9.33502
▁quatrième	-9.33551
▁chargé	-9.33557
▁festival	-9.33713
▁po	-9.33854
prix	-9.3396
▁roman	-9.34006
▁temple	-9.3404
▁fiche	-9.34065
▁marquer	-9.34077
▁avocat	-9.34258
▁fête	-9.34292
▁avion	-9.34311
▁john	-9.34352
pa	-9.34429
▁cinquante	-9.34461
gi	-9.34465
▁côte	-9.34699
tre	-9.3484
▁moteur	-9.34852
▁feuilles	-9.34856
▁plein	-9.3489
▁afrique	-9.35158
▁journal	-9.35227
aine	-9.35228
▁mode	-9.35452
val	-9.35682
scolaire	-9.35761
▁termine	-9.35909
▁gros	-9.36006
amendement	-9.36099
▁sou	-9.36121
▁paul	-9.36302
▁su	-9.36469
terre	-9.36552
▁principal	-9.36763
gé	-9.36911
▁trava	-9.37047
▁gris	-9.37121
▁déj	-9.37148
album	-9.37202
ailleur	-9.3721
▁quoi	-9.37449
▁combat	-9.37463
▁diplôme	-9.37526
▁complexe	-9.37695
▁population	-9.3778
▁anonyme	-9.37865
pe	-9.37975
près	-9.38034
3	-9.38059
▁étudie	-9.38059
foot	-9.38113
taire	-9.38119
ès	-9.38607
▁nature	-9.3863
▁station	-9.38637
cha	-9.38655
cher	-9.38668
▁ho	-9.38746
tes	-9.38799
fance	-9.38849
lan	-9.38877
▁cité	-9.38899
▁na	-9.3909
▁milieu	-9.39212
▁connue	-9.39298
▁quant	-9.39365
▁architecte	-9.39399
▁besoin	-9.39403
▁construction	-9.39489
▁jardin	-9.39569
ov	-9.39693
▁w	-9.39878
▁danger	-9.399
▁aile	-9.3996
▁ancienne	-9.39962
▁rose	-9.40007
▁radio	-9.40011
▁entrer	-9.40187
▁belle	-9.40195
▁secteur	-9.4024
ront	-9.40476
▁tri	-9.4055
▁raconter	-9.40573
▁commande	-9.40726
▁ja	-9.40825
qua	-9.4099
▁r	-9.41003
▁ju	-9.4109
▁sport	-9.41093
▁inférieur	-9.4122
▁bal	-9.41248
▁considéré	-9.4135
▁revue	-9.41403
▁communauté	-9.41491
▁chaîne	-9.41539
▁pape	-9.41628
▁visite	-9.41699
▁pe	-9.41799
▁grandir	-9.41818
▁com	-9.41872
▁prison	-9.41905
▁pied	-9.41959
▁espagnol	-9.41971
je	-9.42246
▁apporter	-9.42283
ball	-9.423
▁terme	-9.42303
▁utilisée	-9.42324
▁voit	-9.42381
battre	-9.42405
▁différente	-9.42546
▁champ	-9.42562
▁pilote	-9.42572
tique	-9.4262
ière	-9.42623
▁soit	-9.42633
▁bras	-9.42703
▁unique	-9.42723
▁z	-9.43046
▁critique	-9.43196
vo	-9.43248
▁contrôle	-9.43444
▁volonté	-9.43453
▁naît	-9.43495
▁construit	-9.4368
sept	-9.43723
ly	-9.43729
▁animaux	-9.43734
▁comté	-9.43831
nes	-9.4388
▁secrétaire	-9.43893
▁qualité	-9.43968
souvenir	-9.43997
▁fini	-9.44029
dix	-9.44047
▁historique	-9.44148
▁tente	-9.44261
▁branche	-9.443
▁carte	-9.44329
mon	-9.44532
▁mis	-9.44643
ienne	-9.44745
ag	-9.44748
auteur	-9.44784
▁rejoint	-9.44797
▁amis	-9.44812
od	-9.449
▁palais	-9.44903
▁espagne	-9.45069
vin	-9.45083
ensemble	-9.45096
▁serait	-9.4521
▁régulière	-9.45256
bo	-9.45304
4	-9.45337
▁gi	-9.45501
▁bonne	-9.45506
ence	-9.45574
▁blanche	-9.45914
▁parlement	-9.46004
▁matin	-9.46038
homme	-9.46043
ore	-9.461
▁décoration	-9.46188
▁composé	-9.46214
▁cercle	-9.46338
▁statut	-9.46447
▁h	-9.46465
▁sortie	-9.46466
▁met	-9.46487
rait	-9.46774
▁caractère	-9.4691
▁col	-9.47027
▁derrière	-9.47193
▁chance	-9.4722
vie	-9.47262
io	-9.47284
▁louis	-9.47299
▁journaliste	-9.47316
isation	-9.47753
▁poésie	-9.47794
ki	-9.47872
▁prêtre	-9.47889
▁cou	-9.47889
▁zone	-9.47993
grand	-9.47994
euse	-9.48027
▁clair	-9.48033
▁dispose	-9.48047
ive	-9.48185
per	-9.48228
dd	-9.48312
▁oiseau	-9.48329
mal	-9.48339
▁he	-9.4836
▁cha	-9.48639
▁trace	-9.48661
▁rare	-9.48794
huit	-9.4884
▁australie	-9.48899
▁aventure	-9.48953
▁quel	-9.48966
ateur	-9.49097
▁publique	-9.49236
▁pu	-9.49241
▁originaire	-9.49257
▁mesure	-9.49387
▁pauvre	-9.49543
▁charles	-9.49663
sports	-9.49697
ferroviaire	-9.49722
▁marin	-9.50016
travail	-9.50208
▁devenir	-9.50212
▁bassin	-9.50226
▁reçoit	-9.50308
œuvre	-9.50392
▁reprise	-9.50554
▁ko	-9.50563
▁domicile	-9.50596
ig	-9.50749
▁vient	-9.50829
▁indépendant	-9.5087
▁entourage	-9.50886
▁élu	-9.50926
▁entraîneur	-9.50932
▁catégorie	-9.51272
ari	-9.51279
sh	-9.51406
oir	-9.51501
he	-9.51547
▁constitue	-9.51549
eurs	-9.51561
▁brésil	-9.51586
ill	-9.51903
▁révolution	-9.51952
▁bobine	-9.51959
▁concert	-9.5196
▁régime	-9.52027
▁forte	-9.52062
▁conserve	-9.52174
▁offrir	-9.52345
ng	-9.52365
▁peintures	-9.52385
russie	-9.52453
cu	-9.52518
▁information	-9.52532
▁am	-9.52571
▁continue	-9.52601
altitude	-9.52603
ani	-9.52736
▁technique	-9.52737
▁tourner	-9.52755
▁espèces	-9.52773
ger	-9.52808
uni	-9.52842
▁hu	-9.52854
film	-9.52863
▁fou	-9.52885
▁saut	-9.5291
▁possible	-9.53033
▁cathédrale	-9.5308
▁monastère	-9.53329
▁néanmoi	-9.53329
▁envoyer	-9.5333
▁figure	-9.5333
▁parle	-9.53367
▁accord	-9.53408
▁second	-9.53469
▁forces	-9.53497
min	-9.53548
▁malgré	-9.53726
ancien	-9.53778
▁exemple	-9.53892
▁comporte	-9.53892
▁cause	-9.53907
▁exécution	-9.54016
▁consacrer	-9.5408
▁bateau	-9.5456
▁direction	-9.54562
par	-9.5472
▁françois	-9.54901
iens	-9.54931
intéresser	-9.55001
▁sé	-9.55002
▁battement	-9.55031
▁ficele	-9.55129
▁entière	-9.55131
fa	-9.55175
académie	-9.55186
▁sombre	-9.5523
▁poser	-9.55316
▁étant	-9.55351
▁olympique	-9.55365
illeurs	-9.55644
▁personnes	-9.55678
▁apercevo	-9.55936
fort	-9.56007
car	-9.56036
▁arc	-9.56078
▁relier	-9.5619
gan	-9.56208
ic	-9.56253
police	-9.56318
▁juge	-9.56423
▁victime	-9.56547
arrondissement	-9.56653
▁v	-9.56787
▁précédent	-9.56868
▁nu	-9.56903
▁refuser	-9.56932
off	-9.57086
▁rapport	-9.57224
▁étoile	-9.57234
gon	-9.57339
▁hiver	-9.57387
▁trou	-9.57389
▁chacun	-9.57475
bert	-9.57511
▁expérience	-9.57544
parole	-9.57675
▁tra	-9.57699
rou	-9.57781
▁sainte	-9.57846
nd	-9.57933
▁bra	-9.57943
▁im	-9.57946
▁meilleur	-9.57969
▁tomber	-9.58111
▁bibliothèque	-9.58196
▁sujet	-9.58197
▁monter	-9.58223
▁associer	-9.58301
▁couvrir	-9.5833
▁prisonnier	-9.5841
▁photo	-9.58421
translation	-9.58509
▁hi	-9.58534
▁nourriture	-9.5872
▁détruir	-9.58821
▁piano	-9.58831
▁toit	-9.58862
urs	-9.58888
municipale	-9.58905
▁cal	-9.58975
nne	-9.58977
pierre	-9.59024
▁hommes	-9.59116
▁accident	-9.59231
▁inde	-9.59318
▁voix	-9.59561
▁fuir	-9.59651
▁immédiate	-9.59767
▁droits	-9.59865
qu	-9.59875
gen	-9.59968
après	-9.59999
▁front	-9.60122
ô	-9.60221
▁aurait	-9.60432
isé	-9.60472
▁chien	-9.60474
ran	-9.60593
▁char	-9.60677
▁anti	-9.60685
▁retirer	-9.60775
▁appartient	-9.60828
▁conflit	-9.60934
han	-9.61016
▁producteur	-9.61041
▁baie	-9.61131
▁modèle	-9.61149
▁division	-9.61255
▁victoire	-9.61363
ah	-9.61366
▁sein	-9.61407
▁réseau	-9.61579
▁réalisé	-9.6176
marin	-9.61811
▁édition	-9.61914
▁néné	-9.6196
vint	-9.62004
▁paysage	-9.62231
▁to	-9.623
omni	-9.62352
▁spectacle	-9.62441
▁pan	-9.62478
za	-9.62486
nu	-9.62555
▁élever	-9.62562
▁santé	-9.62694
▁république	-9.62778
▁accè	-9.62799
▁har	-9.62856
monde	-9.63038
▁eaux	-9.63058
▁hôtel	-9.63113
▁quitte	-9.63125
ob	-9.63126
▁manifestation	-9.63202
ient	-9.63302
▁obtien	-9.63305
▁privé	-9.6345
▁particulier	-9.63531
▁étendr	-9.63703
▁international	-9.63997
▁presqu	-9.64028
▁transport	-9.64125
▁britannique	-9.64181
xique	-9.64208
▁grâce	-9.64261
entourer	-9.64399
▁fenêtre	-9.64414
gh	-9.64419
▁cousin	-9.64514
ber	-9.64546
sport	-9.64832
▁accessible	-9.64857
ian	-9.65003
▁suivant	-9.65301
ina	-9.65506
▁couvent	-9.6609
▁page	-9.66211
▁mariage	-9.66266
▁majeur	-9.66371
▁devenu	-9.66379
club	-9.66412
▁latin	-9.66479
om	-9.66741
▁coupe	-9.66758
▁signe	-9.66875
▁libération	-9.6688
we	-9.67074
▁van	-9.67156
▁joué	-9.67236
port	-9.67282
espagne	-9.67329
▁tr	-9.67332
ole	-9.67334
▁hauteur	-9.67384
▁charger	-9.67569
▁mai	-9.67686
argent	-9.67743
▁essentielle	-9.67747
▁joseph	-9.6781
▁réponse	-9.67854
▁district	-9.67863
neuf	-9.68153
▁bu	-9.6822
▁opération	-9.68226
▁russe	-9.68304
ley	-9.68425
▁mission	-9.68472
▁ber	-9.68593
▁robert	-9.68604
ski	-9.68618
▁économie	-9.68645
▁plante	-9.68703
▁silence	-9.68819
▁perd	-9.68899
▁relation	-9.69059
▁fil	-9.6906
juif	-9.69062
york	-9.69074
▁ouvrage	-9.69093
▁rêve	-9.69168
patient	-9.69192
▁assurer	-9.6926
▁déroule	-9.69282
iv	-9.69321
entre	-9.69328
enne	-9.69355
▁débat	-9.69412
▁rire	-9.69536
are	-9.69573
▁nos	-9.69754
tra	-9.69886
▁plat	-9.69974
▁pé	-9.7021
intérieur	-9.70251
fi	-9.70285
▁populaire	-9.70333
▁york	-9.70426
pé	-9.7045
▁ke	-9.70507
▁donné	-9.70533
hé	-9.70564
▁navire	-9.70567
▁référence	-9.70568
▁plage	-9.70596
▁can	-9.70661
tienne	-9.70671
▁outre	-9.70717
▁terrain	-9.70805
▁collection	-9.70921
▁bé	-9.70935
▁cadre	-9.70942
▁vrai	-9.7097
▁prêt	-9.71152
▁san	-9.71239
our	-9.71245
▁sch	-9.71373
▁super	-9.71402
▁pris	-9.71431
avec	-9.71487
▁indien	-9.71488
▁communique	-9.71526
▁américaine	-9.71579
up	-9.71599
▁ad	-9.71603
étend	-9.71795
▁conduir	-9.71879
▁chi	-9.72006
▁wa	-9.72072
istes	-9.72109
▁génération	-9.72119
▁reçu	-9.72127
▁internationale	-9.72158
vis	-9.72179
by	-9.72272
ven	-9.72317
ions	-9.7236
▁pensée	-9.72469
vient	-9.7247
▁fraction	-9.72589
▁données	-9.7267
▁el	-9.72815
▁gourde	-9.72827
▁ben	-9.72848
sortir	-9.7295
▁sort	-9.72998
bu	-9.73199
ça	-9.73221
qué	-9.73222
▁michel	-9.73244
cy	-9.733
▁suit	-9.73308
europe	-9.73391
éli	-9.73473
onne	-9.73491
▁commission	-9.73551
ini	-9.73601
ologie	-9.73776
ign	-9.73866
▁atteint	-9.73975
vé	-9.74023
ils	-9.74045
▁désirer	-9.74077
▁pai	-9.74123
▁décider	-9.74145
▁marié	-9.74248
▁amoure	-9.74306
lon	-9.74329
▁amérique	-9.74368
▁vitesse	-9.74446
▁abandonner	-9.74502
▁véhicule	-9.74524
▁complète	-9.74525
▁retraite	-9.74529
ham	-9.74532
▁ti	-9.74538
deux	-9.74569
tic	-9.74639
▁propriété	-9.75015
▁noire	-9.75063
▁cri	-9.75117
▁vu	-9.7512
ide	-9.75253
▁difficile	-9.75384
▁loi	-9.75414
▁cents	-9.75446
▁réussir	-9.75511
▁table	-9.75559
▁peur	-9.75579
lée	-9.75638
▁création	-9.75655
▁choisi	-9.75676
▁organisé	-9.75784
▁pousser	-9.75787
▁utilise	-9.75799
▁mains	-9.75833
entreprise	-9.75869
▁ingénieur	-9.75869
ho	-9.75873
▁dessin	-9.75939
▁pla	-9.76039
▁peindr	-9.7608
travers	-9.76114
▁br	-9.76138
▁crois	-9.76173
▁personnage	-9.76238
▁total	-9.76332
▁amendement	-9.76427
▁abrite	-9.76484
▁soleil	-9.76504
lic	-9.76642
▁sert	-9.76782
▁allée	-9.768
▁charge	-9.76819
▁lu	-9.76923
non	-9.76947
vent	-9.77043
and	-9.77144
ins	-9.77193
▁centrale	-9.77347
▁jacques	-9.77351
▁frapper	-9.77365
▁sculpture	-9.77382
▁remplacé	-9.77385
▁mu	-9.77391
▁avaient	-9.77437
▁remettre	-9.77521
▁note	-9.77633
ay	-9.7765
▁pêche	-9.77704
out	-9.77889
▁enterré	-9.77893
▁ob	-9.77986
▁ah	-9.77995
iers	-9.78001
▁publié	-9.78023
▁travers	-9.78058
iques	-9.78109
nce	-9.78165
sud	-9.78218
aires	-9.78258
▁manière	-9.78323
sociale	-9.78488
▁divers	-9.78488
▁compter	-9.78513
▁distribution	-9.78519
▁adjoint	-9.78591
▁composée	-9.78711
▁adolescen	-9.78771
abbaye	-9.78772
ster	-9.78799
▁sal	-9.788
▁parallèle	-9.789
▁économique	-9.789
▁froid	-9.78908
▁eut	-9.78963
▁paysan	-9.79106
ten	-9.79153
▁adulte	-9.79381
avait	-9.79489
▁premiers	-9.79552
ène	-9.79573
ff	-9.79658
▁déc	-9.79703
▁payer	-9.79712
ica	-9.79832
marié	-9.79851
ji	-9.79874
installe	-9.79895
em	-9.79898
▁barrage	-9.79936
hu	-9.79949
▁féminin	-9.79959
▁vivant	-9.80043
ny	-9.80053
longueur	-9.80099
▁chasse	-9.80264
▁collégien	-9.80316
â	-9.80319
▁dos	-9.80324
▁rou	-9.80344
sta	-9.80395
tro	-9.80515
▁probable	-9.80575
▁moitié	-9.80705
▁suivi	-9.80721
▁partager	-9.80761
van	-9.8084
▁blessure	-9.81172
tor	-9.81233
▁concevo	-9.81234
main	-9.81309
▁plateau	-9.81451
▁refus	-9.81506
▁visage	-9.81514
âge	-9.81567
▁professionnel	-9.81745
▁officielle	-9.8198
ule	-9.82034
let	-9.82035
▁os	-9.82088
▁mètre	-9.82178
è	-9.82229
aud	-9.82256
ana	-9.82346
mor	-9.82376
▁propose	-9.82491
ya	-9.82506
▁ab	-9.82569
▁chaud	-9.82688
▁animal	-9.82688
pi	-9.82748
▁passage	-9.82777
▁ayant	-9.82817
fait	-9.8287
▁20	-9.82884
cinq	-9.82884
▁chose	-9.82892
▁bataillon	-9.82942
▁ki	-9.83022
▁jeter	-9.83066
▁douze	-9.83073
▁trans	-9.83086
▁do	-9.83122
gre	-9.83148
▁sang	-9.8337
▁affiche	-9.83374
▁collaboration	-9.83487
bre	-9.83731
▁désigner	-9.83747
ade	-9.8384
cal	-9.83988
▁dés	-9.84002
▁situation	-9.84013
▁conférence	-9.84063
▁objets	-9.84205
▁douce	-9.84325
▁ch	-9.84375
▁structure	-9.84418
lles	-9.84465
▁chinois	-9.84773
▁étapes	-9.8479
▁films	-9.84827
▁descendre	-9.84845
▁pareil	-9.84864
épreuve	-9.84929
▁éviter	-9.85001
▁th	-9.85019
▁conservé	-9.85054
▁lire	-9.85068
▁démarche	-9.85094
▁rec	-9.85106
▁oncle	-9.85149
▁canal	-9.85151
▁arabe	-9.85164
▁clocher	-9.85193
▁façon	-9.85205
▁menace	-9.85236
▁bout	-9.85394
▁lien	-9.85522
▁ve	-9.85574
▁locale	-9.8562
▁heures	-9.85662
▁troupe	-9.85725
▁dépend	-9.85778
▁prise	-9.85784
tz	-9.85784
association	-9.85899
▁longue	-9.86141
▁carré	-9.86162
▁longueur	-9.86199
▁veut	-9.86202
ste	-9.86286
▁apparaitr	-9.86297
▁bru	-9.86376
sol	-9.86385
pro	-9.86563
engage	-9.866
▁religion	-9.8663
▁juillet	-9.86739
▁présence	-9.8674
▁tir	-9.86742
▁naturelle	-9.86818
▁siècle	-9.86878
▁représentant	-9.86931
▁document	-9.86993
▁distance	-9.87017
▁tours	-9.87026
▁assister	-9.87055
▁aristocratique	-9.87155
▁piste	-9.87171
ric	-9.87187
▁banque	-9.87187
jo	-9.87278
ales	-9.87369
▁chevauche	-9.87433
ques	-9.87434
▁faisait	-9.87468
▁cardinal	-9.875
▁rep	-9.87575
▁regard	-9.8763
née	-9.87673
action	-9.87821
▁reine	-9.87827
▁bagarre	-9.87852
▁chercher	-9.8789
▁soldat	-9.8791
▁rang	-9.87913
▁septembre	-9.87991
▁issu	-9.87996
ker	-9.88038
erie	-9.88081
▁exposition	-9.88105
wa	-9.88197
éré	-9.8822
▁peuple	-9.88274
▁continent	-9.88357
industrie	-9.8841
▁compagnon	-9.88412
▁op	-9.88435
▁répondit	-9.88444
zi	-9.88661
▁ouvrier	-9.88701
▁tournée	-9.88768
▁inscrit	-9.88818
moi	-9.88908
▁commun	-9.88908
▁échec	-9.8899
ble	-9.89099
▁chrétien	-9.89107
▁défendre	-9.89144
▁classement	-9.89158
▁ciel	-9.89165
▁sélection	-9.89204
▁pen	-9.89233
éloquen	-9.89259
pour	-9.89267
air	-9.89304
dy	-9.89315
▁créé	-9.89449
▁comité	-9.89453
▁mou	-9.89545
▁tournoi	-9.89611
▁classique	-9.89623
▁américain	-9.89651
og	-9.89742
▁femelle	-9.89827
▁congrès	-9.89836
mat	-9.89936
▁lorsque	-9.89968
imp	-9.89973
▁douane	-9.89973
▁actuel	-9.90045
alité	-9.90066
▁canon	-9.90101
▁sub	-9.90113
gar	-9.90147
européen	-9.90149
ik	-9.90217
▁conti	-9.90254
▁chéri	-9.90264
▁née	-9.90274
▁fri	-9.90368
amérique	-9.90463
teur	-9.90532
▁mine	-9.9059
▁roche	-9.90626
rogne	-9.90654
▁restauration	-9.90686
▁cérémonie	-9.9083
▁minute	-9.90867
ek	-9.90927
▁affluent	-9.91101
tif	-9.91111
▁religieuse	-9.91119
ria	-9.91123
ssent	-9.91159
nant	-9.91165
▁tué	-9.91183
▁durée	-9.91202
naire	-9.91314
ori	-9.91388
ange	-9.91487
▁restaurant	-9.91553
5	-9.91572
▁enquête	-9.91629
▁inhumé	-9.91698
oise	-9.92008
▁mainten	-9.9208
rai	-9.92137
berg	-9.92145
▁chansons	-9.92164
▁ge	-9.92259
oli	-9.92381
ze	-9.92396
▁david	-9.92431
▁contact	-9.92573
▁vue	-9.92683
▁demanda	-9.92732
▁juin	-9.92812
▁rive	-9.92895
▁sac	-9.93008
▁moderne	-9.93024
▁majorité	-9.93029
▁neveu	-9.93088
tier	-9.93116
▁pourtant	-9.93203
▁permett	-9.93207
entrée	-9.93251
ap	-9.93285
▁nouvelles	-9.93334
▁reprend	-9.93373
▁dirige	-9.93603
▁vis	-9.93649
▁henri	-9.93712
▁christ	-9.93713
rain	-9.93749
▁séparer	-9.93773
elles	-9.93836
▁fu	-9.93855
▁fier	-9.93882
ev	-9.93897
▁destruction	-9.93901
▁paroisse	-9.93902
acteur	-9.94057
▁pasteur	-9.94059
▁ceci	-9.94114
▁métal	-9.94195
all	-9.94241
écu	-9.94251
▁queue	-9.94256
▁vice	-9.94261
▁bri	-9.94277
▁da	-9.94278
▁bruxelles	-9.94347
▁ban	-9.9444
▁cu	-9.94511
ix	-9.94626
ose	-9.94723
▁principa	-9.94801
▁localité	-9.94817
isée	-9.94911
quel	-9.94916
▁gar	-9.94992
▁gaz	-9.95027
▁proxim	-9.95096
▁voisin	-9.95133
ok	-9.9516
▁instrumentiste	-9.95253
can	-9.95325
▁commerce	-9.95328
▁découverte	-9.95372
▁mâle	-9.95547
▁blessé	-9.95547
▁condition	-9.95547
ach	-9.9563
▁mineur	-9.95825
▁adjectif	-9.9585
▁statue	-9.95851
▁grandes	-9.96005
▁itinéraire	-9.9606
▁traverse	-9.96262
▁protection	-9.96383
▁demeure	-9.96384
ifi	-9.96431
positive	-9.9661
▁aéroport	-9.96704
dessus	-9.96735
été	-9.96766
▁hôpital	-9.96766
trois	-9.96785
nier	-9.96873
▁disponible	-9.96915
▁balle	-9.96926
▁municipalité	-9.96932
▁sauver	-9.96983
▁récompense	-9.97068
▁ren	-9.97147
ancienne	-9.9715
▁30	-9.97295
▁vive	-9.97418
quatre	-9.97526
ège	-9.97593
▁diverse	-9.97601
ami	-9.97604
▁inclu	-9.97838
▁armure	-9.97843
illon	-9.9791
avoir	-9.97941
▁pri	-9.97965
enfant	-9.9798
▁jeton	-9.97983
▁café	-9.97998
ano	-9.98039
▁mieux	-9.98052
ku	-9.98083
▁coureur	-9.98112
ction	-9.98177
▁traduir	-9.98213
▁finit	-9.98247
▁casser	-9.9832
ali	-9.98359
▁connaît	-9.98406
anc	-9.98434
fer	-9.98454
wi	-9.98482
▁médecin	-9.98498
▁bloc	-9.98509
▁manger	-9.98528
irlande	-9.98616
▁allemand	-9.98642
▁sommet	-9.98704
tri	-9.98742
hôpital	-9.98765
lot	-9.98784
pin	-9.9879
ub	-9.98839
▁midi	-9.98874
▁ramasse	-9.98927
cul	-9.98935
▁internet	-9.99017
▁fe	-9.99072
▁cadet	-9.99208
▁directe	-9.99256
▁plaine	-9.99272
sson	-9.99273
▁noter	-9.99356
▁conservatoire	-9.99395
dou	-9.99467
▁température	-9.99606
architecture	-9.99708
▁pousse	-9.99725
▁léger	-9.99869
▁sentir	-9.99894
nel	-10.0003
▁sage	-10.0004
▁colombie	-10.0009
men	-10.0028
bus	-10.0028
▁chant	-10.0036
craie	-10.0065
▁volume	-10.0066
ément	-10.007
▁berlin	-10.0076
▁commerçant	-10.0082
▁moulin	-10.0086
appelle	-10.0089
▁wi	-10.0091
▁lorsqu	-10.0093
▁mars	-10.0093
▁croix	-10.0095
▁mathématique	-10.0098
▁cellule	-10.0098
▁sciences	-10.01
▁octobre	-10.0103
▁tar	-10.0106
▁bruit	-10.0108
aise	-10.0112
▁afin	-10.0113
▁hockey	-10.0113
▁matériel	-10.0113
▁arrêté	-10.0117
▁tor	-10.0118
étude	-10.0128
élève	-10.0133
ty	-10.0141
▁record	-10.0162
orient	-10.0163
▁basse	-10.0164
▁façade	-10.0178
▁sécurité	-10.0178
▁onze	-10.0187
▁seront	-10.0193
▁caractéristique	-10.0194
▁doivent	-10.0194
▁disparu	-10.0194
▁martin	-10.0194
▁calcul	-10.02
▁chat	-10.0208
▁réserve	-10.021
▁mélange	-10.021
tan	-10.0217
ttes	-10.0222
▁découvre	-10.0226
▁vont	-10.0233
ible	-10.0234
union	-10.0239
▁celles	-10.0239
▁voyageur	-10.0257
ili	-10.026
▁tom	-10.0281
▁colonne	-10.0287
▁tient	-10.0288
▁état	-10.0288
▁enregistrer	-10.0294
▁égalité	-10.0294
ate	-10.0296
▁fre	-10.0305
▁all	-10.0306
pu	-10.0311
▁presse	-10.0312
▁actrice	-10.0316
▁tel	-10.0321
ju	-10.0322
▁québec	-10.0332
ud	-10.0333
mère	-10.0335
▁bro	-10.0339
▁fontaine	-10.0342
▁ligue	-10.0343
▁accueille	-10.0348
▁ph	-10.035
issant	-10.035
rin	-10.0352
▁diffuser	-10.0353
▁guitare	-10.0356
▁nécessaire	-10.0356
▁sait	-10.0375
▁ruisseau	-10.0389
▁voilà	-10.0389
av	-10.0393
▁construite	-10.0395
▁clé	-10.0397
espèce	-10.0411
▁her	-10.0415
▁pologne	-10.0422
▁fermer	-10.0425
▁bre	-10.0428
▁augmenter	-10.0434
▁the	-10.044
▁argentine	-10.0446
activité	-10.0447
▁for	-10.0448
▁relative	-10.045
▁auto	-10.0456
▁lo	-10.0459
▁art	-10.0459
▁assemblée	-10.0462
▁syrie	-10.0462
lit	-10.0466
▁accueil	-10.0467
dia	-10.0468
▁combattr	-10.0474
▁essentiel	-10.0475
chaîne	-10.0478
▁occupe	-10.0497
▁photographie	-10.0504
atrice	-10.0518
▁visible	-10.0521
ane	-10.0524
stin	-10.0528
forme	-10.0537
▁drapeau	-10.0543
▁frontière	-10.0559
lis	-10.0564
▁succède	-10.0572
artiste	-10.0573
ém	-10.0576
▁pieds	-10.0577
ê	-10.0581
▁réalise	-10.0597
▁test	-10.062
▁foncé	-10.0621
ég	-10.0622
organisation	-10.0632
ève	-10.0634
▁réduir	-10.0635
▁étudiant	-10.0638
▁cra	-10.0641
▁correspond	-10.0642
tin	-10.0648
▁offre	-10.0649
▁vacance	-10.065
▁fruits	-10.065
nn	-10.0658
▁section	-10.0658
atif	-10.0661
▁attaque	-10.0661
bourg	-10.0665
ama	-10.0669
▁classé	-10.0674
▁vo	-10.0682
▁toile	-10.0696
end	-10.0703
▁bel	-10.0714
▁cla	-10.0715
yer	-10.0725
nder	-10.0735
▁merci	-10.0743
▁inc	-10.0749
▁foi	-10.075
▁napoléon	-10.0756
▁directrice	-10.0756
▁gal	-10.0757
anne	-10.0757
▁petits	-10.078
institut	-10.078
ino	-10.0788
▁documentaire	-10.0796
emp	-10.08
ris	-10.0801
▁seigneur	-10.0805
▁fé	-10.0807
heure	-10.0807
▁descendance	-10.0808
oul	-10.0812
▁don	-10.0813
tée	-10.0822
▁chanter	-10.0824
▁retourne	-10.0829
▁août	-10.0831
▁conte	-10.0844
▁mairie	-10.0844
▁naissance	-10.0844
▁couche	-10.0845
écriture	-10.0845
▁manche	-10.0848
▁avez	-10.0849
▁u	-10.0849
bien	-10.0856
▁tradition	-10.0858
▁chalet	-10.0861
▁quelque	-10.0868
▁naturel	-10.0872
▁guide	-10.0878
▁meurtre	-10.0887
▁câble	-10.0893
ï	-10.0896
palpa	-10.0907
ieux	-10.0908
▁légère	-10.0911
▁épi	-10.0914
▁avril	-10.0922
tal	-10.0924
éri	-10.0926
▁studio	-10.0928
inter	-10.0929
▁environnement	-10.0939
▁logique	-10.0945
▁cabinet	-10.0953
vel	-10.0958
▁bat	-10.096
bou	-10.0963
▁pratiquer	-10.0965
▁soir	-10.0967
ong	-10.0969
▁attention	-10.0981
enseignement	-10.0982
▁bus	-10.0984
ert	-10.0985
▁escalier	-10.1
line	-10.1003
▁africain	-10.1009
oï	-10.1012
▁étudié	-10.1015
▁interpréter	-10.1015
fl	-10.102
lever	-10.1022
▁pal	-10.104
▁musicien	-10.1041
bin	-10.1057
▁cro	-10.1058
▁comte	-10.1062
▁remporté	-10.1067
▁vide	-10.1067
▁telle	-10.1068
▁européen	-10.107
durance	-10.1072
▁fo	-10.1076
▁événement	-10.1076
▁poursuit	-10.1077
émission	-10.1082
▁vague	-10.1092
▁vi	-10.1096
the	-10.1105
net	-10.1111
▁adaptation	-10.1112
▁européenne	-10.1113
gr	-10.1114
▁enceinte	-10.1117
▁avenue	-10.113
tine	-10.114
rée	-10.1146
▁agricole	-10.1156
▁corriger	-10.1156
nelle	-10.1156
din	-10.1157
▁outil	-10.1161
▁origine	-10.1165
bar	-10.1168
ables	-10.1179
ât	-10.1183
ative	-10.1186
▁bronze	-10.1192
mann	-10.1205
dos	-10.1206
▁pouvait	-10.1209
▁11	-10.1211
▁moyenne	-10.1222
▁diocèse	-10.1227
▁désert	-10.1229
ification	-10.1254
hôtel	-10.1254
▁allemande	-10.1273
▁relief	-10.1278
empire	-10.1281
▁analyse	-10.1284
▁points	-10.1285
▁solide	-10.1286
uk	-10.1304
fe	-10.1306
cent	-10.1315
▁peine	-10.1321
▁développe	-10.1322
illé	-10.1346
▁budget	-10.1352
▁blesser	-10.136
information	-10.1372
▁red	-10.1373
▁hongr	-10.1375
▁tache	-10.1379
▁apparaît	-10.1382
▁sûr	-10.1389
▁thème	-10.1389
▁poly	-10.1389
▁contrat	-10.139
manger	-10.1394
▁refuse	-10.1395
amour	-10.1406
▁surface	-10.141
ita	-10.1412
▁gé	-10.1414
▁william	-10.1425
yn	-10.1443
▁salon	-10.1447
illa	-10.1448
▁jeunesse	-10.1452
▁asie	-10.1461
▁théorie	-10.1462
▁passager	-10.1471
▁lit	-10.1473
bri	-10.1479
agriculture	-10.148
nie	-10.1488
rier	-10.1494
▁juriste	-10.1498
ain	-10.151
empereur	-10.1516
ières	-10.1521
ey	-10.1521
six	-10.1525
ral	-10.1526
▁tissu	-10.1526
▁papier	-10.1537
▁colline	-10.1538
▁travaillé	-10.1543
gie	-10.1544
▁officier	-10.1548
▁dispute	-10.1552
▁grandi	-10.1554
0	-10.1556
her	-10.1571
▁kilomètre	-10.1578
▁we	-10.1585
série	-10.1605
aide	-10.1606
▁social	-10.1611
édifice	-10.1613
▁péri	-10.1622
bra	-10.1625
▁décrit	-10.1633
▁valeur	-10.1633
▁sais	-10.1636
▁habiter	-10.1637
▁bur	-10.1639
▁nouveaux	-10.1641
▁quinze	-10.165
▁défunt	-10.1664
▁devait	-10.1666
▁sculpteur	-10.1667
jean	-10.1668
issent	-10.167
administration	-10.167
ib	-10.168
▁arrêt	-10.168
▁lance	-10.1681
▁ram	-10.1681
▁artistique	-10.1683
cho	-10.1688
▁cru	-10.1689
▁soirée	-10.1691
▁considérée	-10.1703
▁recette	-10.1703
inc	-10.1703
▁repose	-10.1704
iser	-10.1712
▁chiffre	-10.172
▁medias	-10.1721
▁philippe	-10.1723
▁malade	-10.1726
▁luc	-10.1727
▁bulletin	-10.1739
▁dépense	-10.1739
▁énergie	-10.174
▁développé	-10.1762
▁élevé	-10.1764
▁saisir	-10.1767
▁papa	-10.1777
▁personnages	-10.1779
ius	-10.178
▁pense	-10.1781
▁15	-10.1781
kh	-10.1783
▁épo	-10.1789
▁défini	-10.1794
▁suède	-10.1796
ima	-10.1802
saint	-10.1813
▁novembre	-10.1815
▁bourg	-10.1815
▁enseigner	-10.1821
▁ombre	-10.1823
▁idée	-10.1829
▁physique	-10.1832
▁littérature	-10.1833
▁fl	-10.1843
▁traditionnelle	-10.1846
omb	-10.1846
▁constitué	-10.1855
▁mac	-10.1863
▁épisode	-10.1867
▁pourrait	-10.1872
ara	-10.1882
tar	-10.1897
idée	-10.1901
▁californie	-10.191
▁compose	-10.1912
▁marc	-10.1913
▁évolution	-10.1916
▁sociale	-10.1918
▁tribuna	-10.1925
▁véritable	-10.1929
▁afficher	-10.1929
az	-10.1936
▁footballeur	-10.1939
▁obtenu	-10.1941
▁secondaire	-10.1945
▁thomas	-10.1948
▁bouche	-10.1955
ow	-10.1957
sch	-10.1961
rons	-10.1974
▁gre	-10.1976
eu	-10.1978
▁compositeur	-10.1979
▁mus	-10.1983
vier	-10.1984
▁ouverte	-10.1986
▁serbie	-10.1986
▁enseigne	-10.1993
économie	-10.1996
bé	-10.1999
▁han	-10.2002
sk	-10.2004
▁couronne	-10.2009
ist	-10.2012
▁orchestre	-10.2026
pen	-10.2031
importance	-10.2044
▁forteresse	-10.2044
▁portugal	-10.2044
çon	-10.2048
▁coffre	-10.2052
▁eh	-10.2057
▁confortable	-10.2064
▁distingue	-10.2064
▁supplémentaire	-10.2064
▁marche	-10.2073
yl	-10.2079
isse	-10.2079
orgue	-10.208
lou	-10.208
▁kar	-10.2093
ssé	-10.2094
peintre	-10.2094
▁enseignement	-10.2101
▁reconnu	-10.2102
▁traduit	-10.2103
enfuir	-10.2105
▁fleuve	-10.2112
▁effectue	-10.2118
ug	-10.2119
▁bor	-10.2129
▁chanteur	-10.2134
▁briser	-10.2135
▁rentrer	-10.2137
▁poule	-10.2138
▁pin	-10.2141
▁responsable	-10.2141
▁guitariste	-10.2141
▁varie	-10.2142
▁joueurs	-10.2146
▁parce	-10.2156
▁banc	-10.2159
phon	-10.2161
rom	-10.2162
▁verre	-10.2164
lier	-10.2164
▁formé	-10.2167
▁interdire	-10.2181
▁lutte	-10.2189
▁aff	-10.2189
▁néo	-10.2194
fils	-10.2196
▁couverture	-10.2198
ult	-10.2199
▁patte	-10.2201
▁sécher	-10.2202
▁prin	-10.2205
▁employé	-10.2217
▁gagne	-10.222
▁convention	-10.222
▁liquide	-10.222
▁principe	-10.224
▁beaux	-10.2259
▁lecture	-10.226
▁produits	-10.2275
bon	-10.2275
▁prédécesseur	-10.2279
com	-10.2282
▁visiteur	-10.2288
ec	-10.2294
éra	-10.2295
cteur	-10.2296
ura	-10.2306
▁italien	-10.2306
har	-10.2308
▁royal	-10.2309
▁titulaire	-10.2319
▁meilleure	-10.233
amb	-10.2337
▁débute	-10.2345
ouv	-10.235
▁accomplir	-10.235
assi	-10.2368
▁calme	-10.2374
▁messe	-10.2377
▁baptême	-10.2379
▁totale	-10.2381
univers	-10.2392
▁réunion	-10.2395
▁autriche	-10.2395
▁cheminée	-10.2397
▁trouvé	-10.24
▁lourd	-10.2409
▁tourne	-10.2415
▁découvert	-10.2422
bl	-10.2426
rez	-10.2429
arts	-10.2433
den	-10.2444
q	-10.2448
emb	-10.2449
▁exercice	-10.2453
▁albert	-10.2465
▁gou	-10.2466
▁essai	-10.2472
fondre	-10.2474
▁petites	-10.2476
cro	-10.2479
tch	-10.2484
▁crise	-10.2487
ling	-10.2492
▁za	-10.2495
regarder	-10.2496
▁sta	-10.2498
uc	-10.2498
▁standard	-10.25
▁belge	-10.2504
▁océan	-10.2504
▁défense	-10.2512
▁publication	-10.2512
▁andré	-10.2515
doux	-10.2515
▁entretien	-10.2519
▁revien	-10.252
▁diamètre	-10.254
▁opéra	-10.2554
▁change	-10.2555
météorologique	-10.2561
▁jésus	-10.2561
édi	-10.2572
▁téléphone	-10.2579
ologue	-10.2586
▁fréquente	-10.259
lie	-10.2593
▁perdu	-10.2599
allema	-10.2599
▁télé	-10.2603
▁marais	-10.2607
▁gl	-10.2615
stre	-10.2616
▁dimanche	-10.2622
▁privée	-10.2623
ida	-10.2626
italie	-10.2634
▁fondateur	-10.2635
▁mag	-10.2643
▁georges	-10.2647
▁supérieur	-10.2648
nage	-10.2655
▁littéraire	-10.2663
▁âgé	-10.2663
▁poète	-10.2664
▁planche	-10.2685
▁langage	-10.2685
▁éléments	-10.2686
dra	-10.2692
▁supérieure	-10.2699
tré	-10.2705
burg	-10.2709
phe	-10.2715
▁jury	-10.2729
▁sauvage	-10.2736
vol	-10.2737
6	-10.2742
▁boîte	-10.2746
▁label	-10.2748
▁opposition	-10.275
▁sentiment	-10.2752
pol	-10.2764
▁administrateur	-10.2767
▁partage	-10.2772
▁14	-10.2775
quelle	-10.2776
▁thé	-10.2779
ouvre	-10.2785
▁basket	-10.2787
▁fédération	-10.2788
▁dou	-10.279
tel	-10.2794
▁cy	-10.2797
▁toucher	-10.2806
▁décision	-10.2808
▁laboratoire	-10.2808
▁nationalité	-10.2819
▁ski	-10.2821
▁masculin	-10.2829
▁affaires	-10.2844
bel	-10.285
arrivée	-10.2851
architecte	-10.2851
▁bec	-10.2852
▁extrême	-10.2852
comp	-10.2856
▁fleuves	-10.2861
▁occupation	-10.2861
▁hé	-10.2861
▁zones	-10.2863
▁climat	-10.2864
▁dessins	-10.2874
▁facteur	-10.2874
▁tre	-10.2879
arme	-10.2882
▁démolir	-10.2887
ras	-10.2887
▁reproduction	-10.2892
▁pluie	-10.2901
▁cave	-10.2901
▁rock	-10.291
ures	-10.2913
▁publie	-10.2913
▁archives	-10.2913
▁adopter	-10.2917
▁croissance	-10.2921
mie	-10.2921
heim	-10.2926
▁lou	-10.2926
▁ros	-10.2929
▁influence	-10.293
▁basé	-10.2931
yo	-10.2932
xi	-10.2951
▁responsabilité	-10.2956
shi	-10.2957
▁fra	-10.2959
▁fais	-10.296
▁dirigé	-10.2962
▁poids	-10.2964
espace	-10.2974
▁madrid	-10.2977
▁trouble	-10.2978
▁risque	-10.2978
pri	-10.2985
arrière	-10.2987
▁neige	-10.2988
zo	-10.2988
▁inf	-10.2992
▁post	-10.2993
▁ten	-10.2996
▁résistance	-10.2998
▁adapter	-10.2998
court	-10.3001
▁x	-10.3007
ologique	-10.3009
ies	-10.301
▁traiter	-10.3011
▁fondation	-10.3014
lia	-10.3018
▁bavarde	-10.302
▁spécialiste	-10.3021
▁hor	-10.3023
uff	-10.3028
▁duc	-10.3029
lus	-10.3039
▁oh	-10.3041
▁fruit	-10.3042
▁briller	-10.3044
▁morceau	-10.3044
ban	-10.3046
pre	-10.3054
▁concours	-10.3062
▁technologie	-10.3065
istan	-10.3069
év	-10.3072
hy	-10.3082
veux	-10.3085
▁poisson	-10.3093
▁journa	-10.3094
cou	-10.3096
▁actif	-10.3098
▁attend	-10.3098
▁racine	-10.3108
▁interdit	-10.3112
▁académie	-10.3114
lla	-10.3117
▁pot	-10.3122
▁futur	-10.3124
mu	-10.3132
▁gen	-10.3132
ell	-10.3134
▁romans	-10.3134
ua	-10.3137
str	-10.3143
ath	-10.3147
▁œil	-10.3148
▁maman	-10.3152
dre	-10.3154
personnelle	-10.3155
▁métro	-10.3156
ford	-10.3161
▁manque	-10.3174
bretagne	-10.3175
▁apport	-10.3186
▁fan	-10.3188
▁richard	-10.3192
▁médical	-10.3194
éducation	-10.3197
ip	-10.3199
▁cuisine	-10.3204
▁orange	-10.3208
▁appartement	-10.3208
▁administrative	-10.3214
▁retrouvé	-10.3214
▁chili	-10.3221
ges	-10.3222
my	-10.3228
▁pou	-10.3228
ome	-10.323
goutte	-10.3238
ié	-10.3255
▁inspiré	-10.3257
▁occasion	-10.3259
▁buts	-10.3264
▁monte	-10.3265
nière	-10.3271
▁image	-10.3273
▁four	-10.3275
appel	-10.3276
▁mandat	-10.3279
▁connaissance	-10.328
▁princesse	-10.3283
uv	-10.329
▁indépendance	-10.3291
▁vécu	-10.3293
▁traitement	-10.3297
▁concerts	-10.33
▁entraîne	-10.3301
▁montréal	-10.3302
ram	-10.3304
▁mène	-10.3306
▁james	-10.3307
▁incendie	-10.3311
▁chevalier	-10.3314
▁formes	-10.3315
tiques	-10.3317
▁réuni	-10.3324
aime	-10.3325
ateurs	-10.3325
exploitation	-10.3326
▁ter	-10.3331
tive	-10.3334
▁ennemi	-10.3339
▁ventre	-10.334
ira	-10.3341
dame	-10.3341
▁agresser	-10.3345
▁immigre	-10.3345
▁critiquer	-10.3348
▁mc	-10.335
mou	-10.3363
▁massif	-10.3367
▁pérou	-10.337
ice	-10.3371
▁apprend	-10.3385
▁concept	-10.3386
existe	-10.3391
intéresse	-10.3395
gg	-10.3397
afrique	-10.3397
▁angleterre	-10.3399
▁animateur	-10.3404
▁ange	-10.3406
table	-10.3407
▁gri	-10.3413
▁ger	-10.3415
▁mit	-10.3418
▁local	-10.3422
▁agence	-10.3425
marie	-10.3426
▁grèce	-10.3434
▁washington	-10.3434
▁galerie	-10.3434
▁royale	-10.3437
aéroport	-10.3442
▁profond	-10.3451
▁faux	-10.3452
▁sénat	-10.3459
▁récit	-10.3462
▁appelée	-10.3464
▁delta	-10.3484
▁romaine	-10.3487
▁rame	-10.349
▁vendu	-10.3499
impôt	-10.3501
▁phénomène	-10.3501
▁machine	-10.3501
▁regroupe	-10.3501
ret	-10.3504
ort	-10.3506
▁associé	-10.351
établissement	-10.3512
▁cartes	-10.3512
kov	-10.3517
▁mil	-10.3517
arrêt	-10.3525
▁amitié	-10.3528
▁sorte	-10.3536
doigt	-10.3541
▁sacrifice	-10.3545
▁portail	-10.3546
▁isra	-10.3547
▁peau	-10.3551
zéland	-10.3555
actrice	-10.3557
▁corde	-10.3558
▁vainqueur	-10.3568
aille	-10.3569
algérie	-10.3572
▁micro	-10.3577
allemand	-10.3579
vit	-10.3582
igne	-10.3582
▁robe	-10.3603
▁acide	-10.361
ial	-10.3632
ticipé	-10.3637
▁cre	-10.3638
avis	-10.3639
amp	-10.3641
▁app	-10.3643
▁marine	-10.3646
br	-10.3649
▁décembre	-10.3659
▁déclaration	-10.3659
▁promouv	-10.3659
gin	-10.3663
▁disputer	-10.3671
▁abri	-10.3676
▁traité	-10.3679
▁meuble	-10.3682
▁von	-10.3696
▁pre	-10.3696
▁single	-10.3705
▁loca	-10.3707
théâtre	-10.3717
gor	-10.3728
▁panneau	-10.3729
louis	-10.3729
▁colonie	-10.3732
▁décor	-10.3743
▁arts	-10.3744
▁professionnelle	-10.3746
vert	-10.3746
▁guérir	-10.375
▁concerne	-10.375
▁êtes	-10.3773
die	-10.3784
▁manquer	-10.3785
assemblée	-10.3785
▁limitrophe	-10.3796
▁envoyé	-10.3796
▁résidence	-10.3797
iff	-10.3801
▁ag	-10.3805
▁devenue	-10.3806
▁remplace	-10.3816
arc	-10.3823
▁décorer	-10.383
imposer	-10.3834
▁étroit	-10.3837
attaque	-10.3839
▁vend	-10.3855
angleterre	-10.3857
▁vente	-10.3859
▁bac	-10.3868
ouverture	-10.3869
rideau	-10.3869
▁réussit	-10.3874
▁villa	-10.3876
▁galet	-10.3876
ave	-10.3878
conserve	-10.388
▁philosophie	-10.3889
▁corne	-10.389
▁hors	-10.3894
▁pente	-10.3907
maison	-10.3909
▁indonésie	-10.391
▁accompagné	-10.3912
▁jou	-10.3916
▁décliner	-10.3919
isa	-10.3919
▁lettres	-10.392
▁servi	-10.392
▁pr	-10.3923
▁nomme	-10.3928
▁oreille	-10.3929
▁poissons	-10.393
▁difficulté	-10.3935
illes	-10.3937
▁daniel	-10.394
avant	-10.394
▁peter	-10.3945
▁retire	-10.3948
ouvrage	-10.3951
fu	-10.3951
▁rémunération	-10.3959
▁caverne	-10.3959
▁enregistré	-10.3959
▁rechercher	-10.3964
kin	-10.3965
otte	-10.3967
▁fermé	-10.3967
▁initiale	-10.3985
▁cache	-10.3986
▁marcher	-10.3998
accè	-10.3999
▁vienne	-10.4
insta	-10.4001
▁lié	-10.4005
▁enterrement	-10.4006
▁pain	-10.4009
èle	-10.401
cor	-10.4014
hal	-10.402
▁serrer	-10.4021
▁cam	-10.4024
▁étrange	-10.4029
▁installé	-10.4035
▁interprète	-10.4051
▁soviétique	-10.4053
▁témoin	-10.4053
nay	-10.4054
▁my	-10.4057
ada	-10.4065
▁graine	-10.4068
▁assure	-10.407
▁sha	-10.4072
▁pie	-10.4073
▁sel	-10.4077
▁achat	-10.4077
▁bourse	-10.408
▁comédie	-10.4082
paravan	-10.4083
▁violon	-10.4101
▁gla	-10.4102
chant	-10.4102
▁rat	-10.4103
▁veux	-10.4106
▁sy	-10.4114
antes	-10.4118
ith	-10.4119
▁turquie	-10.4124
▁évêque	-10.4126
faire	-10.4129
▁réalisée	-10.4131
▁mémoire	-10.4138
▁musicale	-10.4139
▁patient	-10.4145
▁quart	-10.4147
▁condamné	-10.4148
▁photographe	-10.4148
▁réalisateur	-10.4148
gy	-10.415
▁déesse	-10.4152
ado	-10.4153
▁artistes	-10.4154
▁choeu	-10.4154
▁juger	-10.4158
▁accepte	-10.4162
▁chasseur	-10.4165
▁hameau	-10.4177
▁mono	-10.4189
oy	-10.4193
stein	-10.4194
▁remportée	-10.4196
▁malheureux	-10.4197
▁grotte	-10.42
▁épreuve	-10.4201
▁rh	-10.4203
ries	-10.4204
▁placé	-10.4219
▁performance	-10.422
▁auteur	-10.4225
▁euro	-10.4234
▁conservée	-10.4234
iz	-10.4238
▁voter	-10.4248
▁fourni	-10.425
▁ham	-10.4255
▁viv	-10.4258
ium	-10.4273
▁dames	-10.4292
▁christian	-10.4294
plo	-10.4296
▁aîné	-10.4304
▁voler	-10.4312
▁peint	-10.4314
▁capacité	-10.4317
▁description	-10.4317
▁bernard	-10.4319
▁tige	-10.4323
avion	-10.4323
ico	-10.4325
▁file	-10.4326
▁défenseur	-10.4327
▁élèves	-10.4327
ize	-10.4327
bagage	-10.4337
▁administratif	-10.4341
▁phare	-10.4342
▁réside	-10.4343
▁maroc	-10.4345
êt	-10.4353
sme	-10.4357
▁engagé	-10.4366
▁fla	-10.4367
▁conçu	-10.4372
▁lisse	-10.438
▁revanche	-10.439
▁coût	-10.4392
▁amie	-10.4393
▁actuelle	-10.4402
occasion	-10.4412
échec	-10.4412
président	-10.4412
▁représenté	-10.4425
tenir	-10.4433
abbé	-10.4434
▁george	-10.444
▁quatorze	-10.4454
▁los	-10.4461
orchestre	-10.4462
▁chaussée	-10.4462
uch	-10.4463
▁gravure	-10.4464
▁puits	-10.4464
lay	-10.4466
▁herbe	-10.4468
▁hardw	-10.4472
▁lyon	-10.4475
▁tire	-10.4483
▁suiv	-10.4493
▁gratuit	-10.4499
▁échange	-10.4503
ige	-10.4513
▁lieutenant	-10.4513
▁filles	-10.4515
▁crée	-10.4517
▁rem	-10.454
▁détruit	-10.4542
▁iran	-10.4545
▁ku	-10.455
occupe	-10.4562
▁universitaire	-10.4563
▁cycliste	-10.4567
▁cuir	-10.4571
▁japonais	-10.4598
▁case	-10.4613
▁py	-10.4616
niste	-10.4617
char	-10.4623
hiver	-10.4624
én	-10.4631
aff	-10.4635
▁cinquième	-10.4638
tromper	-10.4638
▁représentation	-10.464
▁active	-10.4641
▁touriste	-10.4646
▁corée	-10.4647
▁nicolas	-10.465
▁impulsion	-10.4653
▁propos	-10.4654
upp	-10.4655
▁fonde	-10.4657
▁claire	-10.4658
▁treize	-10.4659
▁passion	-10.4659
▁registre	-10.4663
▁supprimer	-10.4663
▁domestique	-10.4663
édition	-10.4665
▁insecte	-10.4671
▁process	-10.4684
quer	-10.4686
▁kr	-10.4687
baptiste	-10.4688
▁buisson	-10.4688
▁effectué	-10.4688
▁comb	-10.469
▁16	-10.4693
▁poche	-10.4694
▁vos	-10.4698
▁dure	-10.4698
▁battu	-10.4708
▁vir	-10.4713
▁toulouse	-10.4713
pas	-10.472
▁sommes	-10.4723
▁bla	-10.4728
▁plate	-10.473
▁autorité	-10.4733
▁exerce	-10.4735
▁dor	-10.4735
▁dia	-10.4738
arn	-10.4739
▁moniteur	-10.4739
▁basée	-10.4743
▁cré	-10.4751
trop	-10.4753
▁centaine	-10.4755
▁forment	-10.4758
▁espace	-10.4762
articles	-10.4762
▁flanc	-10.4765
roi	-10.4769
raient	-10.4769
▁imm	-10.477
▁couvre	-10.4788
▁ministère	-10.479
▁batterie	-10.479
physique	-10.4792
▁détail	-10.4793
gal	-10.4797
▁clo	-10.4798
▁and	-10.48
igné	-10.4803
rique	-10.4807
▁gorge	-10.4815
▁hy	-10.4816
▁aragon	-10.4821
trice	-10.4823
tron	-10.4827
▁répond	-10.4837
▁arrière	-10.4838
▁dédiée	-10.4839
▁circonscription	-10.4841
▁conséquence	-10.4841
▁plume	-10.4841
▁écoss	-10.4841
▁internat	-10.4841
bout	-10.4842
▁foule	-10.4846
lait	-10.4846
▁norv	-10.4846
▁maria	-10.4848
▁mat	-10.485
▁rendez	-10.4854
▁support	-10.4855
roy	-10.4858
▁bis	-10.4864
▁organise	-10.4864
expression	-10.4864
▁voile	-10.4867
iel	-10.4869
▁code	-10.487
▁promettr	-10.4875
▁égypte	-10.4888
▁célébrer	-10.4892
▁implication	-10.4892
vra	-10.4902
bes	-10.4906
▁ali	-10.491
ième	-10.4912
▁primaire	-10.4912
▁dessiner	-10.4915
▁planter	-10.4915
ulaire	-10.4921
article	-10.4928
▁sauf	-10.493
▁édité	-10.4937
▁établi	-10.494
▁surprise	-10.494
▁intérêt	-10.4942
▁mini	-10.4942
rio	-10.4943
▁victor	-10.4943
▁remarquable	-10.4944
▁commencé	-10.4944
▁remonte	-10.4945
▁quasi	-10.4946
nent	-10.4946
naturelle	-10.4948
▁ed	-10.4956
▁mariée	-10.4958
▁électrique	-10.4966
▁dizaine	-10.497
▁terrasse	-10.497
▁conduit	-10.4974
▁souvenir	-10.4979
▁pol	-10.4986
oire	-10.4989
▁soutien	-10.4992
▁créée	-10.4994
▁graphique	-10.4994
▁claude	-10.4995
▁fouille	-10.5001
▁multi	-10.5003
rat	-10.5005
▁courte	-10.5008
étage	-10.5011
▁relie	-10.5013
▁tro	-10.502
af	-10.5021
▁sucre	-10.5024
nom	-10.5025
▁réalité	-10.5027
▁rai	-10.5028
▁monstre	-10.5028
bul	-10.503
▁gouverneur	-10.5034
▁mart	-10.5036
▁forêts	-10.5039
▁sable	-10.5042
▁exemplaire	-10.5045
▁spécifique	-10.5048
▁réalisation	-10.5049
publique	-10.505
ches	-10.5059
nais	-10.506
mba	-10.5061
▁tou	-10.5061
▁inaugurer	-10.5074
▁inondation	-10.5074
ographie	-10.5074
▁enseignant	-10.5075
▁chanteuse	-10.5078
rage	-10.5083
cré	-10.5089
▁marchand	-10.5099
▁organe	-10.51
hen	-10.51
mme	-10.5106
▁diplômé	-10.5107
uses	-10.5108
vois	-10.511
vélo	-10.511
▁venu	-10.5111
ola	-10.5113
bal	-10.5116
▁ét	-10.5119
▁prit	-10.5122
illi	-10.5126
▁perpendiculaire	-10.5126
▁sportive	-10.5127
avantage	-10.5136
▁consul	-10.514
nés	-10.5144
▁éclater	-10.5147
▁land	-10.5159
▁athlète	-10.5159
▁avons	-10.5163
▁continu	-10.5173
▁héro	-10.5174
ici	-10.5179
▁justice	-10.5179
▁ai	-10.5181
criminelle	-10.5183
▁gardien	-10.5183
▁favoris	-10.5184
nch	-10.5185
olo	-10.5197
▁nef	-10.5201
▁reprit	-10.5206
▁endroit	-10.5207
utilisation	-10.5214
ît	-10.522
ves	-10.5221
gl	-10.5224
▁hommage	-10.5232
▁progressive	-10.5232
▁conception	-10.5236
▁million	-10.5237
visite	-10.5243
aka	-10.5246
▁similaire	-10.5259
▁oublier	-10.5259
auto	-10.526
▁vêtements	-10.5263
rine	-10.5264
▁ste	-10.527
▁vaste	-10.5272
impose	-10.5272
▁chœur	-10.5286
▁danemark	-10.5286
▁religieux	-10.5286
▁séjour	-10.5286
nk	-10.5299
ault	-10.5301
aut	-10.5301
▁loup	-10.5301
illard	-10.531
▁humain	-10.5311
▁dragon	-10.5313
▁jambe	-10.5314
▁coll	-10.5322
ern	-10.5323
▁voisine	-10.5323
hom	-10.5329
dic	-10.533
▁coin	-10.5339
▁favorable	-10.5339
▁trouvait	-10.5343
▁anne	-10.5348
▁consacre	-10.5352
▁soldats	-10.5355
▁anglaise	-10.5359
ssement	-10.5364
▁cosmos	-10.5366
▁vais	-10.5368
▁mesurer	-10.5371
ines	-10.5372
▁urbaine	-10.5378
▁ty	-10.538
▁objectif	-10.5385
▁laisser	-10.5387
▁veuve	-10.5393
▁chaise	-10.5398
▁guinée	-10.5399
gel	-10.5399
développer	-10.5404
10	-10.5404
anglais	-10.5405
▁laissé	-10.5413
▁hémicycl	-10.5421
cla	-10.5422
▁auteurs	-10.5434
▁consacré	-10.5435
▁dame	-10.5436
▁angle	-10.5438
▁ref	-10.5439
idé	-10.5444
▁lancement	-10.5444
illy	-10.5445
▁répertoire	-10.5448
▁abus	-10.5448
arrêter	-10.5453
▁étape	-10.5453
▁chute	-10.5454
▁pat	-10.546
▁bêtes	-10.5461
bain	-10.5466
▁échelle	-10.5471
▁cho	-10.5472
▁règne	-10.5475
▁fusion	-10.5475
autoriser	-10.5476
▁simon	-10.5478
igny	-10.5486
esprit	-10.5486
déplacer	-10.5486
▁maisons	-10.5487
▁couvert	-10.5489
▁vieille	-10.5494
▁via	-10.55
ote	-10.5502
▁moscou	-10.5502
▁italienne	-10.5516
▁dater	-10.5516
ich	-10.5519
éc	-10.5519
ther	-10.5522
▁légion	-10.553
▁acqui	-10.553
▁dormir	-10.553
▁bill	-10.5535
▁jan	-10.5539
▁maîtresse	-10.5546
▁of	-10.5547
▁gr	-10.5548
▁traversée	-10.5549
▁originale	-10.5551
▁prier	-10.5553
▁emblématique	-10.5557
▁revenu	-10.5557
▁trésor	-10.5557
▁dessinateur	-10.556
▁dessert	-10.5561
assa	-10.557
▁volcan	-10.5574
▁em	-10.5576
▁fonctionne	-10.5578
▁brique	-10.5579
▁acte	-10.5582
▁humide	-10.5589
nard	-10.5593
environ	-10.5598
différence	-10.5602
▁fossile	-10.5612
gra	-10.5612
▁douleur	-10.5612
elli	-10.5613
▁hol	-10.5614
▁liée	-10.5619
▁quitter	-10.5623
▁guillaume	-10.5624
▁phil	-10.5626
▁chapeau	-10.5628
▁cloche	-10.5639
▁géant	-10.5641
▁doré	-10.5641
▁variété	-10.5642
▁év	-10.5643
cour	-10.5647
▁smith	-10.565
appareil	-10.5655
▁huile	-10.5659
▁min	-10.5659
▁dû	-10.566
▁minutes	-10.5661
▁emb	-10.5664
ost	-10.5665
pit	-10.5667
impression	-10.5668
▁boulevard	-10.5668
▁considérable	-10.5669
▁officiel	-10.5675
▁che	-10.5685
lique	-10.5693
▁solution	-10.5696
▁permis	-10.5696
▁poème	-10.5696
jou	-10.5698
▁secouri	-10.5701
▁prête	-10.5717
▁organisée	-10.5717
▁agression	-10.5724
▁respecter	-10.5734
ppe	-10.5737
bro	-10.574
▁maurice	-10.5752
tern	-10.5753
▁régional	-10.5755
hor	-10.5757
▁mau	-10.5759
▁race	-10.5759
ète	-10.5763
ombre	-10.5767
cimetière	-10.5767
▁respect	-10.5769
▁kilomètres	-10.5769
milieu	-10.5777
ala	-10.5785
image	-10.5794
commerce	-10.5795
uel	-10.58
▁symbole	-10.5808
▁expert	-10.5808
▁œufs	-10.5811
▁majeure	-10.5821
mit	-10.5822
▁déposer	-10.5822
▁humaine	-10.5823
occupation	-10.5824
▁règlement	-10.5828
cle	-10.5838
▁chasser	-10.5841
▁culturel	-10.5841
▁cur	-10.5845
phy	-10.5846
form	-10.5848
▁rené	-10.5851
océan	-10.5852
▁sacré	-10.5854
entend	-10.5855
field	-10.5856
nda	-10.5861
▁plaque	-10.5862
▁michael	-10.5864
▁finlande	-10.5865
▁alex	-10.5868
▁entra	-10.587
▁glace	-10.5872
▁présenté	-10.5875
▁écrite	-10.5878
dan	-10.5882
▁nid	-10.5885
▁flotte	-10.5886
cht	-10.5893
▁gau	-10.5899
▁descend	-10.5901
cri	-10.5907
▁avis	-10.5907
▁chau	-10.5908
arroser	-10.5908
▁pôle	-10.5921
ç	-10.5922
▁voici	-10.5922
▁municipal	-10.5932
▁etait	-10.5933
demi	-10.5935
fo	-10.5937
▁aime	-10.594
mine	-10.5947
▁prennent	-10.595
▁quai	-10.5952
nal	-10.5953
tha	-10.5953
▁commercial	-10.5955
▁bible	-10.5956
▁explorer	-10.596
▁remplir	-10.5968
australie	-10.5968
olympique	-10.5973
▁ruine	-10.5974
sous	-10.5978
▁barcelone	-10.5979
▁goût	-10.5979
▁dépasser	-10.5983
▁dimension	-10.5985
▁réveil	-10.5993
iale	-10.5994
▁joie	-10.5997
▁unité	-10.6025
sciences	-10.6025
croissance	-10.6026
esse	-10.603
▁moto	-10.6047
▁amour	-10.6049
▁décoré	-10.6051
▁direct	-10.6051
▁luxembourg	-10.6065
▁majoritaire	-10.6065
▁concerna	-10.6065
▁occidentale	-10.6068
▁patron	-10.6069
▁séisme	-10.6069
âtre	-10.6078
ati	-10.6084
pré	-10.6087
▁concierge	-10.6094
▁identique	-10.6094
▁logiciel	-10.6094
▁rugby	-10.6094
▁invité	-10.6094
▁catalogue	-10.6096
▁enfer	-10.6109
▁40	-10.611
▁hum	-10.6114
▁apparition	-10.6119
▁cameroun	-10.6123
▁phrase	-10.6123
▁aimante	-10.6123
▁constituée	-10.6129
gène	-10.6129
▁may	-10.6132
▁roue	-10.6138
faisant	-10.6143
▁pleine	-10.6143
zz	-10.6145
▁civile	-10.6146
▁personnalité	-10.6152
▁créer	-10.6153
coup	-10.6154
tho	-10.6158
empêche	-10.616
▁cuba	-10.6167
hr	-10.6172
▁financer	-10.6172
▁occupé	-10.6176
▁brave	-10.6176
▁indi	-10.6176
▁fédéral	-10.6181
prim	-10.6191
▁destiné	-10.6213
▁tableaux	-10.6215
▁léon	-10.6218
▁ressources	-10.6225
▁tur	-10.6231
era	-10.6239
hn	-10.6244
▁habit	-10.6248
venant	-10.625
▁amateur	-10.6253
nourrir	-10.6263
suicider	-10.6263
one	-10.6266
ides	-10.6266
nait	-10.6267
▁adapté	-10.627
▁repos	-10.627
▁wal	-10.6272
▁semi	-10.6272
▁west	-10.6273
▁gay	-10.6275
▁réaction	-10.6276
▁bénéficie	-10.628
issa	-10.6283
œ	-10.6285
▁différence	-10.6286
gou	-10.6286
matique	-10.6291
analyse	-10.6293
zan	-10.6297
▁lune	-10.6298
▁légende	-10.6299
▁serpent	-10.6299
▁fonctionnaire	-10.6302
▁ép	-10.6303
affaire	-10.6316
lli	-10.6323
▁réglage	-10.6329
▁olivier	-10.6329
▁compris	-10.6329
▁hériter	-10.6346
▁rendu	-10.6357
▁ouvre	-10.6357
▁détective	-10.6359
▁sponsor	-10.6359
▁secret	-10.6359
▁écouter	-10.6359
▁signal	-10.6372
▁bern	-10.6375
▁nouvel	-10.6377
▁boutique	-10.6382
emploi	-10.6383
▁défend	-10.6385
▁colon	-10.6388
▁signature	-10.6389
▁gestion	-10.6389
▁soi	-10.6398
▁contemporain	-10.6404
▁matur	-10.6407
▁préci	-10.6408
1	-10.6409
▁franc	-10.641
poissons	-10.6413
▁allemands	-10.6415
▁mary	-10.6417
old	-10.6418
appuyer	-10.6419
▁trône	-10.6419
▁vapeur	-10.6419
▁définitive	-10.6419
way	-10.642
▁chaleur	-10.6421
iennes	-10.6422
▁form	-10.6426
▁nuage	-10.6427
▁vau	-10.643
▁malheureuse	-10.6449
ède	-10.6451
▁batteur	-10.6452
▁désir	-10.6454
tsu	-10.6458
prendre	-10.6466
finale	-10.6471
▁couper	-10.6474
▁nar	-10.6477
▁républicain	-10.6479
▁provoque	-10.6479
▁raisin	-10.6479
▁gronder	-10.6479
▁sentier	-10.6484
▁cible	-10.6486
▁signé	-10.6486
▁approcher	-10.6505
▁commander	-10.6506
▁cultive	-10.6508
▁patrimoine	-10.6509
▁kh	-10.6513
▁pon	-10.6514
thé	-10.6516
▁parcours	-10.6519
▁organisation	-10.6523
▁cherche	-10.6524
▁tôt	-10.6528
bilité	-10.6529
▁pur	-10.6531
gard	-10.6531
▁demeurer	-10.6535
rand	-10.6535
▁preuve	-10.6539
rich	-10.6545
isant	-10.6549
beth	-10.655
ouche	-10.6555
▁baron	-10.6559
ock	-10.656
▁antenne	-10.657
▁absent	-10.657
▁proposition	-10.657
hon	-10.6571
andre	-10.6572
zu	-10.6575
▁angeles	-10.6583
oxy	-10.6584
▁patri	-10.6584
ballon	-10.6584
chon	-10.6586
▁descendant	-10.6589
▁ze	-10.6598
▁typique	-10.66
▁retard	-10.66
▁aura	-10.6611
avais	-10.662
▁grec	-10.6623
voir	-10.6626
mm	-10.6626
▁terres	-10.6628
agglomération	-10.6631
▁considère	-10.6631
▁dollar	-10.6631
▁bay	-10.6637
lage	-10.6641
sky	-10.6643
▁renne	-10.6648
▁présentent	-10.6648
▁rentre	-10.665
▁retrouver	-10.6652
stra	-10.6654
▁50	-10.6656
▁mol	-10.6656
énergie	-10.6659
▁bonheur	-10.6661
▁désigne	-10.6662
étique	-10.6676
évêque	-10.669
▁podium	-10.6692
▁acc	-10.6699
chet	-10.6704
▁vote	-10.6704
plan	-10.6708
inde	-10.6709
▁pyrénées	-10.671
▁subit	-10.6711
▁gro	-10.6713
▁intègre	-10.6716
omp	-10.6718
face	-10.672
▁commandant	-10.6723
▁trait	-10.6723
▁inviter	-10.6723
fon	-10.6724
▁bombe	-10.6724
▁music	-10.6725
pp	-10.6728
▁feuille	-10.6732
bré	-10.6732
▁communiste	-10.6736
▁pres	-10.6738
▁marqué	-10.674
▁issue	-10.6741
▁échapper	-10.6753
▁manuscrit	-10.6754
▁épaule	-10.6754
▁juive	-10.6757
▁parties	-10.6763
▁tribu	-10.6766
▁tourisme	-10.6767
pli	-10.6768
▁institution	-10.6768
▁conduite	-10.678
▁assoupli	-10.6785
▁procès	-10.6785
▁liberté	-10.6787
▁boire	-10.6788
▁appeler	-10.6796
▁habite	-10.6798
tage	-10.68
▁anneau	-10.6807
î	-10.6807
écria	-10.6809
▁far	-10.6812
▁cycle	-10.6814
▁malheur	-10.6814
▁contamine	-10.6816
▁clinique	-10.6816
▁science	-10.6823
oni	-10.6825
affaires	-10.6826
▁av	-10.6835
▁ambassade	-10.6839
vivant	-10.6846
opposer	-10.6853
culaire	-10.6855
▁consta	-10.6859
ato	-10.6863
lais	-10.6866
▁croyance	-10.6879
▁neu	-10.6883
▁sh	-10.689
plaire	-10.689
▁porté	-10.69
▁cheva	-10.6902
▁géorgie	-10.691
secondaire	-10.6911
▁orientale	-10.6912
▁sorti	-10.6912
asie	-10.6914
▁billet	-10.6919
▁chante	-10.6925
gén	-10.6928
▁établissement	-10.6929
▁bière	-10.6933
▁canadien	-10.6933
▁ven	-10.6935
yan	-10.6938
▁péninsule	-10.6942
▁roumani	-10.6942
impasse	-10.6942
quet	-10.6947
▁attraction	-10.6953
por	-10.6954
ung	-10.6958
échapper	-10.6959
▁crème	-10.6973
▁défaite	-10.6974
épi	-10.6975
▁vache	-10.6983
▁repris	-10.6989
▁grosse	-10.6989
viennent	-10.6994
▁équilibre	-10.6995
avi	-10.6998
▁marseille	-10.7005
▁autonome	-10.7005
▁major	-10.7005
intérêt	-10.7007
chaussée	-10.7007
▁fixe	-10.7007
▁roger	-10.7008
épouse	-10.7008
désolé	-10.7011
cacher	-10.7015
▁lignes	-10.7022
▁influencé	-10.7037
▁projection	-10.7037
▁puissance	-10.7037
▁volontaire	-10.7039
▁civil	-10.7043
▁américains	-10.7044
▁mark	-10.7049
▁amoureuse	-10.7049
écart	-10.7062
ick	-10.7062
étranger	-10.7062
▁inconnue	-10.7063
▁horizontal	-10.7069
élevage	-10.7069
alliance	-10.707
▁sam	-10.7071
existence	-10.7072
graph	-10.7073
▁resté	-10.7077
▁web	-10.7079
zar	-10.708
▁rez	-10.7086
▁portrait	-10.7092
bois	-10.7093
▁introduit	-10.7101
▁praxi	-10.7102
géographique	-10.7105
▁impact	-10.7108
▁abandonné	-10.7114
▁zo	-10.7118
▁rayon	-10.7119
▁dal	-10.7121
zy	-10.7121
▁régionale	-10.7123
▁régiment	-10.7126
unité	-10.7128
▁bio	-10.713
▁entend	-10.7132
▁allumer	-10.7133
attentif	-10.7133
▁tunnel	-10.7133
▁cirque	-10.7134
▁bl	-10.7134
▁utilisa	-10.7142
▁bour	-10.7143
lly	-10.7146
▁hon	-10.7147
▁tante	-10.7148
▁mouru	-10.7153
nou	-10.7157
▁communal	-10.716
▁hou	-10.717
mée	-10.7175
iller	-10.7175
▁antoine	-10.7176
▁sec	-10.718
ature	-10.7181
martin	-10.7181
cation	-10.7184
▁lion	-10.7188
▁pêcheur	-10.7197
franche	-10.7198
attaquant	-10.7198
pon	-10.72
gna	-10.7205
▁blo	-10.7213
▁sportif	-10.7222
▁scénario	-10.723
tou	-10.723
▁intégré	-10.7231
etait	-10.7234
▁60	-10.724
▁charbon	-10.7247
ture	-10.7252
cela	-10.7254
▁voulu	-10.7258
▁faites	-10.7262
▁navires	-10.7263
▁néerlandais	-10.7263
▁disposition	-10.7263
▁apprécié	-10.7264
agissait	-10.7264
▁alexandre	-10.7264
▁aspect	-10.7264
▁émission	-10.7267
électric	-10.7268
spécialisée	-10.7268
écrivain	-10.7268
étaient	-10.7268
rica	-10.7269
plus	-10.727
lam	-10.7273
lip	-10.7275
▁masse	-10.7277
cat	-10.7279
nord	-10.7286
▁mad	-10.7287
exploit	-10.7288
▁classée	-10.7291
▁profession	-10.7295
▁infusion	-10.7295
euses	-10.7296
▁auberge	-10.7301
ting	-10.7302
▁réparti	-10.7305
météo	-10.7311
ème	-10.7312
▁marcel	-10.7315
eaux	-10.7318
▁bob	-10.7322
▁kat	-10.7323
▁étudiants	-10.7323
▁ras	-10.7326
▁baccalauréat	-10.7328
▁madagascar	-10.7328
▁vaincr	-10.7329
▁désigné	-10.7329
▁touristique	-10.7331
▁lancé	-10.7334
mesure	-10.7336
▁médicament	-10.7343
▁côtes	-10.7351
▁barre	-10.7352
nat	-10.7353
ssin	-10.7357
mond	-10.736
▁cuivre	-10.7361
▁février	-10.7361
▁accusé	-10.7362
opération	-10.7367
influence	-10.7368
▁industriel	-10.7369
courbe	-10.7375
▁commerciale	-10.7376
▁gui	-10.7389
sseur	-10.7398
▁rappelle	-10.7407
▁libéré	-10.7413
▁conserv	-10.7419
len	-10.7424
▁fidèle	-10.7427
ft	-10.7431
▁franco	-10.7432
zon	-10.7432
eff	-10.7434
ish	-10.7441
▁essay	-10.7452
▁fromage	-10.746
▁solo	-10.7462
town	-10.7463
spir	-10.7464
▁talent	-10.7464
ligne	-10.747
axe	-10.7475
▁tan	-10.7484
▁ana	-10.749
nois	-10.7493
▁fantôme	-10.7494
▁éliminé	-10.7494
▁relève	-10.7494
▁conquér	-10.7494
▁souhaite	-10.7498
▁resta	-10.75
itz	-10.7502
lig	-10.7509
▁clip	-10.7509
euil	-10.7519
▁pose	-10.7521
bor	-10.7522
▁assistant	-10.7526
▁logo	-10.7531
▁mouton	-10.7532
▁pomme	-10.7533
divorce	-10.7536
change	-10.7537
▁rom	-10.7539
moteur	-10.754
▁poil	-10.7541
agir	-10.7543
▁final	-10.7552
▁construir	-10.7561
▁kidnappe	-10.7561
▁fera	-10.7561
▁chimie	-10.7562
▁méta	-10.7563
▁tropicale	-10.7565
▁dar	-10.7566
ym	-10.7567
où	-10.7572
ston	-10.7585
▁diffusée	-10.7586
och	-10.7592
▁qualifié	-10.7598
chel	-10.7602
opéra	-10.7607
arbre	-10.7608
▁adam	-10.7616
nov	-10.7618
▁allait	-10.7618
▁frank	-10.762
▁illégal	-10.7621
hum	-10.7624
▁mauvaise	-10.7626
▁largeur	-10.7629
gur	-10.7629
mettre	-10.7629
▁jette	-10.7634
▁coque	-10.7635
▁notion	-10.7638
rite	-10.7643
dal	-10.7648
▁réussi	-10.7652
stru	-10.7656
▁magazine	-10.7662
identité	-10.7662
▁viande	-10.7662
▁jazz	-10.7663
vet	-10.7665
▁garage	-10.767
▁emp	-10.7681
▁élevée	-10.7684
▁éclair	-10.7688
▁inconnu	-10.7689
▁viennent	-10.7691
▁nor	-10.7694
▁repondit	-10.7696
▁exclusive	-10.7696
▁commença	-10.7696
orm	-10.7699
▁fosse	-10.77
▁compl	-10.7701
▁client	-10.7701
issement	-10.7724
habi	-10.7725
onique	-10.7727
▁étrangère	-10.773
▁malaisie	-10.7731
▁rac	-10.7736
▁autel	-10.774
▁déjeuner	-10.7741
▁syn	-10.7759
▁dîner	-10.7765
▁préfecture	-10.7765
▁consiste	-10.7765
aga	-10.7766
tori	-10.7766
▁déménage	-10.7767
▁colère	-10.7769
▁culte	-10.7771
▁raconte	-10.7781
oïde	-10.7784
▁ressort	-10.7786
▁wo	-10.7787
chose	-10.7788
▁fondé	-10.7788
▁ours	-10.7789
▁cul	-10.7792
▁tourné	-10.7792
irent	-10.7798
▁attitude	-10.7799
▁promotion	-10.78
▁déco	-10.78
asseoir	-10.7801
▁dôme	-10.7801
humain	-10.7811
plier	-10.7815
▁culturelle	-10.7816
pied	-10.7816
▁séparé	-10.7819
▁vélo	-10.783
▁qualifie	-10.7834
▁guerrier	-10.7834
rot	-10.7843
clo	-10.7846
idi	-10.7849
▁sourd	-10.7849
alisme	-10.7853
élé	-10.7853
▁équat	-10.7857
éni	-10.7858
dale	-10.7859
▁tuer	-10.786
dire	-10.7865
équipage	-10.7868
▁interprété	-10.7869
anda	-10.7874
▁archéologique	-10.7874
▁pra	-10.7877
quin	-10.7879
▁subsiste	-10.7879
▁contribue	-10.788
▁cubis	-10.7884
uri	-10.7886
usage	-10.7887
▁prévu	-10.789
▁penser	-10.7891
chev	-10.7897
▁variante	-10.7903
▁flèche	-10.7903
▁gor	-10.7917
mpo	-10.7919
uz	-10.7919
▁nations	-10.7919
▁tam	-10.7921
vêtement	-10.7926
▁ap	-10.7927
▁réce	-10.793
▁spéciale	-10.7932
ndi	-10.7932
▁réputation	-10.7938
▁souverain	-10.7938
▁living	-10.7938
bb	-10.7942
▁hier	-10.7944
point	-10.7956
tisme	-10.7957
▁contribu	-10.7959
▁cavalier	-10.7973
▁disputé	-10.7973
▁restaurer	-10.7973
▁renvoye	-10.7973
▁caisse	-10.7975
roulette	-10.7978
classique	-10.7989
uer	-10.7992
bach	-10.7993
ney	-10.7995
abilité	-10.8006
▁discipline	-10.8008
▁possibilité	-10.8008
▁révèle	-10.8008
▁janvier	-10.8008
▁attire	-10.8009
▁socialiste	-10.8017
▁deviennent	-10.8019
issue	-10.8021
▁faute	-10.8023
▁sélectionné	-10.8031
▁soul	-10.8039
▁eff	-10.804
▁panorama	-10.8043
▁suédois	-10.8043
▁thaïland	-10.8043
▁fréquem	-10.8043
▁voulez	-10.8044
▁mod	-10.8047
isent	-10.8047
▁dirigeant	-10.8048
anti	-10.8048
wan	-10.8048
▁placée	-10.8048
nan	-10.8054
▁traditionnel	-10.8056
▁minéral	-10.8057
▁collabore	-10.8059
orb	-10.8064
▁vestige	-10.8078
▁matériau	-10.8078
▁bolivie	-10.8078
oz	-10.8079
terie	-10.8088
▁larve	-10.8089
indépendance	-10.8095
▁entouré	-10.8098
▁danseur	-10.81
▁vigne	-10.8104
▁lecteur	-10.8109
kar	-10.8111
▁contracte	-10.8112
▁desservie	-10.8112
▁frein	-10.8112
▁sensible	-10.8116
imi	-10.8117
▁réforme	-10.812
▁espagnole	-10.8123
▁approche	-10.8129
gué	-10.813
▁murs	-10.8132
▁shi	-10.8135
hl	-10.8137
▁provien	-10.8139
▁aveugle	-10.8149
▁essence	-10.8149
▁gabriel	-10.8149
▁cadeau	-10.815
▁exprimer	-10.815
▁fau	-10.815
ava	-10.8155
clé	-10.8155
abandon	-10.8163
mel	-10.8164
mus	-10.8178
▁honneur	-10.8181
▁opposé	-10.8185
▁apparaisse	-10.8185
chin	-10.8189
activ	-10.8194
chère	-10.8195
app	-10.8207
titude	-10.8217
▁bénévole	-10.8221
▁ressemble	-10.8221
pouvant	-10.8224
arm	-10.8231
ute	-10.8238
▁conscience	-10.8239
▁war	-10.8241
▁indique	-10.8244
rick	-10.8247
ague	-10.825
ovi	-10.8255
attend	-10.8255
▁transformé	-10.8257
▁soumis	-10.8257
▁discrète	-10.8257
▁dossier	-10.8258
win	-10.8271
▁emprisonne	-10.8273
▁tester	-10.8284
▁pointe	-10.8286
▁tennis	-10.8292
▁traduction	-10.8293
▁archipel	-10.8293
▁liaison	-10.8294
▁modeste	-10.8297
▁modifié	-10.8298
▁médiateur	-10.8304
▁arrivé	-10.8324
▁contr	-10.8324
mannequin	-10.8329
▁orienter	-10.8329
▁passa	-10.8329
▁finance	-10.833
▁sauter	-10.8331
▁carreau	-10.8332
▁manuel	-10.8333
▁hydro	-10.8333
▁tels	-10.8346
▁coule	-10.8347
duc	-10.835
▁esprit	-10.835
▁ordinateur	-10.8352
▁rappel	-10.8358
cker	-10.8359
▁régul	-10.8359
▁citoyen	-10.8365
▁poursuivi	-10.8365
▁marquis	-10.8366
▁théologie	-10.8367
▁dépendance	-10.8368
▁stock	-10.837
▁adresse	-10.837
▁accompagne	-10.8374
rice	-10.8375
▁profit	-10.8376
ij	-10.8378
▁réelle	-10.8386
▁soutenu	-10.8403
▁sixième	-10.8405
hol	-10.8405
▁évide	-10.8407
ût	-10.841
▁musical	-10.8416
asse	-10.8416
▁venait	-10.8416
▁vas	-10.8417
▁juifs	-10.8418
▁palm	-10.8421
voy	-10.8421
not	-10.8427
▁berg	-10.8427
paul	-10.8427
▁orgue	-10.843
lain	-10.8433
▁éponyme	-10.8439
▁fabrication	-10.8439
▁évoque	-10.8439
▁loisir	-10.844
▁chinoise	-10.8453
▁berger	-10.8463
▁var	-10.8472
del	-10.8474
▁agrandir	-10.8476
▁participation	-10.8476
▁biographie	-10.8478
▁cochon	-10.8478
▁gentil	-10.8479
▁coupole	-10.848
murale	-10.848
▁masque	-10.8482
alexandr	-10.8483
▁thi	-10.8486
▁forge	-10.8498
▁prédi	-10.8499
▁existent	-10.85
▁déclin	-10.8502
▁publiée	-10.8508
▁plastique	-10.8509
▁exécuté	-10.8512
▁aérienne	-10.8513
▁muraille	-10.8514
▁scolaire	-10.8515
nique	-10.852
▁vér	-10.8523
▁aimé	-10.8524
▁patin	-10.8525
lem	-10.8527
luc	-10.8533
importe	-10.8537
▁déf	-10.8538
▁0	-10.8541
élite	-10.8545
▁fixé	-10.855
▁guy	-10.8553
aison	-10.8559
▁navig	-10.856
▁vaut	-10.8563
▁pop	-10.8565
▁objet	-10.8566
▁diable	-10.8567
eg	-10.8568
aw	-10.8569
▁brillant	-10.8574
▁monuments	-10.8576
▁arche	-10.8579
▁loge	-10.8584
▁deviendra	-10.8586
▁nez	-10.8588
▁inspecteur	-10.8588
▁libéral	-10.8589
▁surmonté	-10.8591
avez	-10.8594
▁alcool	-10.86
▁genou	-10.8601
▁travailla	-10.861
vre	-10.8613
▁hall	-10.8614
▁jud	-10.8614
mir	-10.8615
▁mel	-10.862
icule	-10.862
▁sénégal	-10.8624
▁cerveau	-10.8624
▁faveur	-10.8624
▁tentative	-10.8624
plaindr	-10.8626
▁atteindr	-10.8635
▁seigneurie	-10.8636
▁jules	-10.8639
▁somme	-10.8642
▁écho	-10.8642
uré	-10.8649
pel	-10.8649
▁épais	-10.8651
ago	-10.8653
▁batt	-10.8659
▁réservé	-10.8661
▁protéine	-10.8661
▁grecque	-10.8669
for	-10.8681
▁urbain	-10.8683
rig	-10.8683
évolution	-10.8685
patin	-10.8687
▁jon	-10.869
▁pollution	-10.8699
▁drogue	-10.8699
▁max	-10.87
▁boucle	-10.8701
▁abandonne	-10.8706
éti	-10.8712
▁questions	-10.8722
▁saisi	-10.8733
photo	-10.8733
▁mécanique	-10.8737
▁successeur	-10.8737
tran	-10.8737
cueillir	-10.8739
▁spécialisé	-10.874
▁indiquer	-10.874
▁motif	-10.8748
▁instrument	-10.8749
ight	-10.8752
phi	-10.8755
▁ronde	-10.8755
médiateur	-10.8763
well	-10.8766
roulant	-10.8767
▁fermée	-10.877
▁châ	-10.8772
▁aménagé	-10.8774
▁camarade	-10.8774
▁habituelle	-10.8774
▁pistolet	-10.8774
▁pâte	-10.8774
▁semblable	-10.8775
▁toxique	-10.8777
▁fréquent	-10.878
▁précédente	-10.878
▁tandi	-10.878
▁jet	-10.8781
▁parfaite	-10.8782
▁leader	-10.8784
midi	-10.8786
▁sénateur	-10.8788
èse	-10.879
issait	-10.8809
▁bau	-10.8811
▁put	-10.8811
▁chicago	-10.8812
▁faculté	-10.8812
▁mammifère	-10.8812
▁militant	-10.8812
▁sépare	-10.8812
▁plafond	-10.8813
lio	-10.8819
▁financière	-10.882
▁vision	-10.8823
▁musulman	-10.8824
pres	-10.8824
adi	-10.8824
enberg	-10.8831
étal	-10.8837
▁industrielle	-10.8842
oma	-10.8845
▁rectangle	-10.8851
▁licence	-10.8851
▁rassemble	-10.8851
▁répartition	-10.8852
▁grenouille	-10.8854
▁franchir	-10.8858
ller	-10.8861
applique	-10.8863
▁tru	-10.8876
illage	-10.8878
▁star	-10.8879
ky	-10.8879
▁spécialisée	-10.888
▁str	-10.8885
▁ceinture	-10.8889
▁déclare	-10.8889
▁thèse	-10.8889
▁nat	-10.889
▁changé	-10.889
▁college	-10.889
▁liban	-10.8891
▁grade	-10.8892
▁recueil	-10.8905
▁décidé	-10.8907
▁appelle	-10.8915
▁tal	-10.8917
▁normale	-10.8918
ambi	-10.8925
▁pil	-10.8927
▁calendrier	-10.8927
▁possédai	-10.8927
▁variable	-10.8927
▁partenaire	-10.8928
▁flo	-10.8928
évo	-10.8928
▁accueilli	-10.8931
▁allons	-10.8931
▁exploité	-10.8932
▁villages	-10.8937
nic	-10.8943
▁pacifique	-10.8944
▁trompe	-10.8951
von	-10.8954
animaux	-10.8957
▁partielle	-10.8957
effet	-10.8962
ula	-10.8965
▁chêne	-10.8966
▁dictionnaire	-10.8966
▁éco	-10.8967
▁kan	-10.897
nation	-10.897
▁lundi	-10.8971
agé	-10.8974
▁profil	-10.8975
èvre	-10.8978
var	-10.8981
▁santa	-10.8984
▁suffisa	-10.8985
▁ol	-10.8986
▁noble	-10.8992
▁secour	-10.8993
ordonn	-10.8993
entraîneur	-10.8998
▁canne	-10.8999
nia	-10.9001
illo	-10.9002
▁absolu	-10.9005
▁johann	-10.9005
▁timbre	-10.9005
ctor	-10.9018
▁laurent	-10.9019
▁puissant	-10.9031
ison	-10.9033
▁constitution	-10.9035
▁rejet	-10.9037
▁opérateur	-10.9042
▁portugais	-10.9044
enfui	-10.9053
▁fabrique	-10.9053
asso	-10.9056
▁rempli	-10.9059
▁japonaise	-10.9061
▁tenu	-10.9064
▁marquée	-10.9066
mbo	-10.9071
▁comm	-10.9076
érer	-10.9077
▁métropolitain	-10.9083
▁transféré	-10.9083
▁crâne	-10.9083
▁opérer	-10.9083
▁chart	-10.9083
▁mauvais	-10.9085
dro	-10.9085
▁renaissance	-10.9086
archi	-10.9086
▁complet	-10.9087
chu	-10.909
▁précise	-10.9108
▁cyr	-10.9109
▁bâton	-10.9122
▁philippine	-10.9122
▁chenille	-10.9124
▁ajouté	-10.9124
▁tend	-10.9125
▁camion	-10.913
▁promu	-10.9131
▁étroite	-10.9131
bilis	-10.9134
lès	-10.915
▁bretagne	-10.9152
opposition	-10.9155
house	-10.9156
accompagne	-10.9157
▁baisser	-10.9158
▁catherine	-10.9161
▁chauffeur	-10.9161
▁numérique	-10.9161
▁henry	-10.9161
amuser	-10.9162
▁explique	-10.9167
▁familiale	-10.9169
▁king	-10.9175
américain	-10.9181
▁colonel	-10.9193
▁barbe	-10.9194
jeunesse	-10.9194
▁interne	-10.92
▁impossible	-10.9201
▁éteindre	-10.9201
▁circulaire	-10.9201
▁emporter	-10.9202
inspire	-10.9203
élection	-10.9212
▁présentée	-10.9216
▁golfe	-10.9217
▁donna	-10.9224
▁souci	-10.9227
▁cyclis	-10.9233
ray	-10.9236
▁multiplication	-10.9241
▁négatif	-10.9241
▁fallait	-10.9241
▁modification	-10.9241
▁voulait	-10.9245
▁allié	-10.9245
▁alain	-10.9245
ifier	-10.9247
▁tape	-10.9254
ographe	-10.9257
▁maritime	-10.9267
aliste	-10.9269
▁installation	-10.9271
▁décè	-10.9272
▁francophone	-10.928
hard	-10.9286
▁aigu	-10.929
▁seiz	-10.929
▁réanim	-10.9293
toire	-10.9294
▁répandu	-10.9298
▁passionné	-10.9299
▁déplacer	-10.9305
clav	-10.9309
▁féminine	-10.931
oncle	-10.9318
shire	-10.9318
▁additionne	-10.932
▁révise	-10.9323
▁bonjou	-10.933
▁versant	-10.9331
gro	-10.9331
gio	-10.9335
ota	-10.9339
▁frédéric	-10.9341
gui	-10.9342
bol	-10.9344
▁passerelle	-10.9344
▁confi	-10.9345
cut	-10.9347
▁gai	-10.9349
agrandi	-10.935
▁adopté	-10.9352
▁poursuivre	-10.9361
▁policier	-10.9361
intervention	-10.9361
▁pression	-10.9361
logie	-10.9375
▁vé	-10.9377
▁participant	-10.9379
arrête	-10.9381
▁mour	-10.9394
▁mani	-10.9398
▁collègue	-10.9401
▁texa	-10.9403
▁attribué	-10.9412
▁joe	-10.9416
▁arrivée	-10.9417
zer	-10.9421
▁monts	-10.9428
▁ker	-10.9433
▁commandement	-10.9434
▁figurine	-10.9441
▁retiré	-10.9441
▁union	-10.9442
▁carlo	-10.9444
▁dessus	-10.9446
▁mah	-10.9447
▁oiseaux	-10.9448
▁glo	-10.945
urent	-10.945
onnais	-10.9458
▁spe	-10.946
admir	-10.9461
▁associée	-10.9465
▁rond	-10.9467
oche	-10.9473
infanterie	-10.9482
▁capturé	-10.9482
▁prolonge	-10.9482
▁apparu	-10.9484
▁dédié	-10.9486
▁city	-10.9486
▁croat	-10.9486
▁dom	-10.9488
▁dodo	-10.9503
▁garnir	-10.9504
▁ordonner	-10.9504
▁win	-10.9506
▁q	-10.9512
▁édifice	-10.9513
▁riz	-10.9513
▁lait	-10.9517
extérieur	-10.952
culturelle	-10.9521
▁conséquent	-10.9523
grès	-10.9524
▁aidant	-10.9526
▁guéri	-10.9528
lac	-10.9533
▁grim	-10.9534
▁proposé	-10.9534
▁représentée	-10.9539
▁conservateur	-10.9541
▁frais	-10.9553
▁décède	-10.9553
opp	-10.9554
▁mots	-10.9559
érien	-10.9561
émie	-10.9563
▁particularité	-10.9564
▁bouteille	-10.9564
rê	-10.9565
atoire	-10.9571
dio	-10.958
▁profondeur	-10.9581
nous	-10.9582
▁excellent	-10.9596
▁milan	-10.9597
▁profonde	-10.9598
▁asiatique	-10.9605
▁dépression	-10.9605
▁multiple	-10.9605
métrage	-10.9605
▁collecte	-10.9606
▁allez	-10.9609
▁jugement	-10.9616
aca	-10.9622
▁consacrée	-10.9625
▁ron	-10.9626
accorder	-10.963
▁pay	-10.9635
faucher	-10.9642
▁séminaire	-10.9646
▁fichier	-10.9646
▁retenu	-10.9646
▁fabriqué	-10.9647
▁pétrole	-10.9647
▁bébé	-10.9648
▁panama	-10.9648
▁bordeaux	-10.9648
péri	-10.965
▁diminuer	-10.965
▁jack	-10.9652
▁josé	-10.9652
▁application	-10.9653
▁clan	-10.9657
▁pau	-10.9657
actuel	-10.9657
▁cli	-10.9657
▁poli	-10.9667
▁capable	-10.9667
▁chercheur	-10.9671
▁will	-10.9672
û	-10.968
archipel	-10.9687
▁doctorat	-10.9688
▁poitrine	-10.9688
ben	-10.9688
▁anna	-10.969
▁croissant	-10.9694
▁répét	-10.97
▁boy	-10.9707
▁fro	-10.9712
comm	-10.9713
▁faite	-10.9716
▁dirigée	-10.9718
atti	-10.9718
gli	-10.972
cale	-10.9722
▁ari	-10.9731
culture	-10.9733
▁black	-10.9734
▁violent	-10.9736
just	-10.9737
▁brûler	-10.9737
ffer	-10.9738
ora	-10.9743
▁attente	-10.9746
œil	-10.9747
▁dessinée	-10.9756
▁entendu	-10.9757
▁lord	-10.9757
▁breton	-10.9758
▁efficace	-10.9771
▁irlandais	-10.9771
▁circulation	-10.9771
vor	-10.9774
boy	-10.9787
▁viol	-10.9793
aile	-10.9797
uf	-10.9799
aye	-10.9801
▁vise	-10.9805
▁suspendr	-10.9813
inspiration	-10.9813
▁systèmes	-10.9813
▁encourager	-10.9814
absence	-10.9814
responsable	-10.9814
▁vou	-10.9815
▁destinée	-10.9816
▁converti	-10.9817
▁barrière	-10.9818
▁cad	-10.9826
igu	-10.9829
▁hans	-10.9833
neuve	-10.9836
▁tiré	-10.9839
iforme	-10.9842
▁mr	-10.9845
▁christophe	-10.9846
▁roux	-10.9849
▁sand	-10.9853
▁vois	-10.9855
▁défavorable	-10.9855
▁marguerite	-10.9855
▁banlieue	-10.9855
▁détenu	-10.9856
▁attacher	-10.9856
▁genève	-10.9856
tennis	-10.9857
▁misère	-10.9862
▁vaisseau	-10.9863
▁cesse	-10.9864
aki	-10.9864
▁millier	-10.9866
▁électronique	-10.9872
▁fran	-10.9881
▁équipé	-10.9881
▁réduit	-10.9883
attache	-10.9886
▁costa	-10.9892
▁souhait	-10.9892
iez	-10.9893
▁subi	-10.9894
▁attaché	-10.9898
▁cratère	-10.9898
▁doublé	-10.9898
▁birman	-10.9898
▁affecté	-10.9898
▁costaud	-10.9898
▁historien	-10.9902
▁jugé	-10.9902
▁lumine	-10.9905
▁robin	-10.9912
▁comportement	-10.9913
nik	-10.9913
lyn	-10.9925
mala	-10.9925
▁chair	-10.9931
▁trafic	-10.994
évacuer	-10.994
▁chronique	-10.994
▁tâche	-10.994
▁rédaction	-10.994
antiquité	-10.994
▁bactérie	-10.994
▁défi	-10.9941
oud	-10.9949
▁mince	-10.9955
▁souffle	-10.9957
ken	-10.9962
▁exposé	-10.9963
▁ky	-10.9964
▁renommée	-10.9973
arre	-10.9974
▁tablette	-10.9979
▁complexité	-10.9983
▁menstruation	-10.9983
▁procédé	-10.9983
artillerie	-10.9983
▁dérivé	-10.9983
▁strasbourg	-10.9983
▁automobile	-10.9984
essentiel	-10.9987
ingénieur	-10.9987
▁notable	-10.9993
▁notaire	-10.9993
▁mul	-11.0011
▁affronte	-11.0014
▁chan	-11.002
▁psych	-11.0025
▁junior	-11.0026
▁fusillade	-11.0026
▁tendance	-11.0027
▁connait	-11.003
▁personnelle	-11.003
étang	-11.0031
alli	-11.0031
▁roy	-11.0032
usine	-11.0034
▁épée	-11.004
▁hal	-11.0042
héli	-11.005
▁blé	-11.0053
▁veille	-11.0068
exception	-11.0069
▁pakistan	-11.0069
▁gérant	-11.0069
▁bourgeois	-11.007
▁serge	-11.0075
▁indépendante	-11.0081
▁posé	-11.0082
écoute	-11.0086
▁gel	-11.0086
▁couverte	-11.0088
aya	-11.0093
▁bol	-11.0097
▁plaît	-11.0099
▁mette	-11.01
▁karl	-11.0106
▁morte	-11.0106
accueil	-11.0106
▁corre	-11.0106
▁river	-11.0112
▁gêne	-11.0112
▁sultan	-11.0112
▁confiance	-11.0114
inscrit	-11.0118
▁fré	-11.0128
▁pratiqué	-11.0137
▁natale	-11.0139
pat	-11.0139
▁longues	-11.0141
▁favori	-11.0148
▁documents	-11.0149
▁tirer	-11.0152
▁paraît	-11.0154
ington	-11.0155
▁catastrophe	-11.0156
▁nécessite	-11.0156
▁glacier	-11.0156
igna	-11.0158
▁reconstruit	-11.016
▁ferroviaire	-11.0161
fauteuil	-11.0161
▁tronc	-11.0162
▁fondée	-11.0163
chou	-11.0163
france	-11.0165
hin	-11.0167
installer	-11.0169
▁lunette	-11.0175
▁francs	-11.0176
ache	-11.018
▁zi	-11.0191
▁joua	-11.0195
orléans	-11.02
▁composant	-11.02
▁calcaire	-11.02
▁tombé	-11.0201
▁casque	-11.0202
pan	-11.0202
▁altern	-11.0203
▁partisan	-11.0203
▁produite	-11.0204
▁fortune	-11.0212
atelier	-11.0212
▁voy	-11.0212
▁rio	-11.0216
▁développer	-11.0219
▁parfum	-11.0226
obten	-11.023
orn	-11.023
▁bad	-11.0231
▁rejoign	-11.0243
ndo	-11.0244
▁huitième	-11.0245
▁appartenait	-11.0247
▁présidé	-11.0249
▁format	-11.025
internet	-11.0251
▁rapporter	-11.0252
▁vitrail	-11.0254
hel	-11.0255
▁boisson	-11.0256
▁émigr	-11.0261
nette	-11.0262
cca	-11.0266
▁francis	-11.0269
▁voleur	-11.0276
manufacturé	-11.0278
▁tranchée	-11.0287
▁déclaré	-11.0288
▁préfère	-11.0288
▁puisqu	-11.0291
bil	-11.0292
▁démon	-11.0298
omi	-11.03
▁kur	-11.0302
▁automne	-11.0304
▁tim	-11.0305
▁disc	-11.0308
▁élément	-11.0314
▁couloir	-11.0332
▁allongé	-11.0332
▁connecte	-11.0332
▁assassiné	-11.0333
▁she	-11.0333
ffe	-11.0333
▁appareils	-11.0334
▁partagé	-11.0335
▁continua	-11.0342
▁park	-11.0348
▁électro	-11.0348
aigle	-11.035
▁magn	-11.0351
échappe	-11.0353
▁fonds	-11.0354
▁carl	-11.0366
rey	-11.0367
▁maintien	-11.0375
graphie	-11.0376
▁impliqué	-11.0376
▁mosquée	-11.0376
▁contexte	-11.0376
▁plainte	-11.0376
▁signifie	-11.0376
provence	-11.0376
▁vierge	-11.0377
▁grève	-11.0377
▁pencr	-11.0377
▁raymond	-11.0379
fiction	-11.038
▁bijou	-11.0381
▁niche	-11.0386
▁coura	-11.0388
orientation	-11.0389
▁bell	-11.0392
▁écoles	-11.0395
▁médias	-11.0406
rol	-11.0408
vid	-11.0411
▁soin	-11.0413
âme	-11.0414
▁traite	-11.0418
oto	-11.0419
apprentissage	-11.0421
glacée	-11.0421
▁champignon	-11.0421
▁implanté	-11.0422
éno	-11.0424
autriche	-11.043
aventure	-11.043
exposition	-11.0431
aube	-11.0431
ova	-11.0435
▁réel	-11.0439
▁publicité	-11.0441
▁isolé	-11.0442
étais	-11.0452
vu	-11.0454
▁cheveux	-11.0457
▁flori	-11.046
▁pit	-11.0464
▁emprisonné	-11.0466
▁dépôt	-11.0466
▁papillon	-11.0466
▁terminé	-11.0468
élie	-11.0468
▁étendu	-11.0468
▁forcé	-11.0469
▁grange	-11.047
▁larme	-11.047
▁obten	-11.0471
chasse	-11.0471
aix	-11.0474
▁chamb	-11.0475
autorité	-11.0476
effectue	-11.0476
▁portée	-11.0478
ulation	-11.0478
emplacement	-11.0479
▁restera	-11.0485
▁domine	-11.0486
rog	-11.0488
▁polonais	-11.0489
issi	-11.0491
▁tomba	-11.0492
▁lèvre	-11.0495
slav	-11.0496
blanc	-11.0505
▁géographique	-11.0507
▁content	-11.0509
▁fragile	-11.0511
▁surveiller	-11.0511
▁dauphin	-11.0511
▁champagne	-11.0511
▁échoue	-11.0516
primaire	-11.0524
aigne	-11.0525
écrire	-11.0526
▁antique	-11.0531
bat	-11.0538
ébri	-11.0542
▁diffusion	-11.0556
▁excursion	-11.0556
▁juridiction	-11.0556
▁school	-11.0556
▁exploser	-11.0556
études	-11.0558
ark	-11.0561
▁mange	-11.0561
▁circ	-11.0562
▁déplie	-11.0563
arménie	-11.0563
repas	-11.0565
▁coach	-11.0565
françois	-11.0567
ffect	-11.0568
▁divisé	-11.0573
aura	-11.0576
oth	-11.0581
ord	-11.0586
▁règles	-11.0587
bour	-11.0587
▁divorce	-11.0588
▁veni	-11.0588
▁terrestre	-11.0597
haut	-11.0598
dney	-11.0598
initiative	-11.0601
▁compétence	-11.0601
▁dispositif	-11.0601
▁superficie	-11.0601
▁tranquille	-11.0601
▁autorisé	-11.0602
aménagement	-11.0605
lette	-11.0608
▁individu	-11.0615
porte	-11.0619
▁fal	-11.0625
▁prêter	-11.0625
cin	-11.0626
▁chrétienne	-11.063
▁rod	-11.0637
indi	-11.064
▁chapitre	-11.0647
▁décennie	-11.0647
▁basilique	-11.0647
éry	-11.0648
▁touche	-11.0665
▁étudia	-11.067
▁mention	-11.0673
▁copie	-11.0673
loire	-11.0679
kan	-11.068
▁reçut	-11.0685
œuf	-11.0686
▁bouclier	-11.0693
▁mécanisme	-11.0693
▁discours	-11.0693
▁rabbin	-11.0693
▁menacé	-11.0693
extrémité	-11.0706
▁conten	-11.071
▁quantité	-11.071
▁fondateurs	-11.0718
▁rattachée	-11.0718
▁incertaine	-11.0719
▁règle	-11.072
▁lot	-11.073
▁soutient	-11.0732
▁hel	-11.0734
▁dépendant	-11.0736
▁juridique	-11.0739
▁satellite	-11.0739
▁éléphant	-11.0739
pêche	-11.0741
arth	-11.0743
▁maxim	-11.0743
emporte	-11.0745
expérience	-11.0753
affronte	-11.0753
▁crime	-11.0755
▁lampe	-11.0757
▁mentionné	-11.0758
hyper	-11.0759
▁sara	-11.076
▁adversaire	-11.0762
▁gré	-11.0765
▁chirurgien	-11.0769
▁instruments	-11.0769
utilisateur	-11.0777
sexuelle	-11.0778
▁dan	-11.0785
▁appliqué	-11.0785
▁spectateur	-11.0785
▁successive	-11.0785
▁terrible	-11.0785
▁tranche	-11.0786
étoile	-11.08
objectif	-11.08
guerre	-11.08
enregistrement	-11.08
▁pure	-11.0802
mag	-11.0805
èche	-11.0807
▁contenu	-11.081
▁correspondant	-11.0817
▁verte	-11.0822
▁thor	-11.0829
▁popular	-11.0832
▁témoigne	-11.0832
paddle	-11.0832
▁internationa	-11.0834
▁augmente	-11.0838
▁seine	-11.0838
lég	-11.0844
▁renard	-11.0844
jacques	-11.0847
avocat	-11.0847
politique	-11.0847
▁distribué	-11.085
▁cage	-11.0852
▁âme	-11.0869
▁détruite	-11.0871
▁funérai	-11.0873
oppose	-11.0877
▁samedi	-11.0879
▁animé	-11.088
▁transforme	-11.088
▁kenya	-11.0881
▁patrick	-11.0881
▁définition	-11.0881
environnement	-11.0894
michel	-11.0897
top	-11.0898
▁lucien	-11.0905
▁affaire	-11.0909
▁tré	-11.0913
▁installée	-11.0915
ibérique	-11.0926
▁potentiel	-11.0926
▁érigé	-11.0926
▁rapproche	-11.0928
▁fortuné	-11.0929
▁exige	-11.0931
▁spi	-11.0934
▁bonnet	-11.0945
ello	-11.0949
▁nazi	-11.0949
nisme	-11.0949
aître	-11.0958
dom	-11.0962
▁extérieur	-11.0971
▁baptisé	-11.0973
▁dynastie	-11.0973
▁scénariste	-11.0973
▁trentaine	-11.0973
▁monarchie	-11.0973
bur	-11.0973
▁découvrir	-11.0973
▁corsaire	-11.0974
issé	-11.0974
▁autoroute	-11.0975
toi	-11.0977
▁granit	-11.0984
▁arm	-11.0986
▁canadienne	-11.0986
▁intérieur	-11.0993
card	-11.1001
panier	-11.1003
▁rein	-11.1006
chen	-11.1016
▁impeccable	-11.102
▁obscurité	-11.102
▁sanctuaire	-11.102
▁statistique	-11.102
▁réparer	-11.102
▁monaco	-11.102
▁message	-11.1021
▁ukraine	-11.1022
în	-11.1041
▁pié	-11.1042
▁flot	-11.1043
orne	-11.1045
ographique	-11.1048
▁profite	-11.1055
andré	-11.1056
▁pseudonyme	-11.1068
▁auguste	-11.1068
▁déposé	-11.1068
incident	-11.1068
▁uruguay	-11.1069
▁démissionne	-11.1069
▁por	-11.1069
angle	-11.1072
▁parisien	-11.1073
▁top	-11.1077
▁tournage	-11.1077
▁nourrir	-11.108
ika	-11.1083
nombreuse	-11.1088
▁handicap	-11.1088
arch	-11.1092
bonne	-11.1093
▁kou	-11.1097
▁marius	-11.1101
adopti	-11.1109
lière	-11.111
vait	-11.111
▁déranger	-11.1116
▁cascade	-11.1116
fond	-11.1118
▁modern	-11.1119
▁cup	-11.112
▁rival	-11.1123
▁précisé	-11.1126
▁doigts	-11.1126
▁étrangers	-11.1127
▁regarde	-11.1129
alice	-11.1132
▁participa	-11.114
▁infection	-11.1142
▁lourde	-11.1142
▁original	-11.1144
▁céramique	-11.1164
▁souterrain	-11.1164
▁commissaire	-11.1164
▁dominant	-11.1165
kel	-11.1173
▁olive	-11.1173
▁intérieure	-11.1176
frère	-11.1176
▁malades	-11.1183
▁denis	-11.1186
▁portraits	-11.1187
kins	-11.1196
▁développée	-11.1201
▁disait	-11.1204
▁erreur	-11.1205
▁logement	-11.1207
▁discrimin	-11.1208
▁financier	-11.1212
▁reli	-11.1218
▁vincent	-11.1222
▁limitée	-11.1224
offre	-11.1231
▁appri	-11.1239
▁disparaît	-11.1239
reuil	-11.124
▁buste	-11.1242
▁récupér	-11.1248
▁protestant	-11.1257
▁gobelet	-11.126
▁possession	-11.126
▁réservoir	-11.126
▁supprimé	-11.126
▁astronome	-11.1262
▁respective	-11.1262
▁munich	-11.1262
▁défilé	-11.1262
▁méchant	-11.1263
▁hill	-11.1263
▁vil	-11.1265
▁prétend	-11.1288
vik	-11.1288
▁gard	-11.1288
▁ken	-11.1291
▁tiers	-11.1292
nombre	-11.1294
▁formée	-11.1295
tig	-11.13
appelles	-11.1303
▁procédure	-11.1309
rhône	-11.131
▁clef	-11.1311
▁croqui	-11.1312
▁fusil	-11.1315
▁moine	-11.1318
▁fur	-11.1318
▁messi	-11.132
▁box	-11.1323
▁retrait	-11.1327
yama	-11.1327
avenue	-11.1331
ndra	-11.1332
huile	-11.1333
mier	-11.1334
avance	-11.1335
▁expose	-11.1336
▁sèche	-11.134
ménage	-11.1342
agence	-11.1346
rière	-11.1348
traire	-11.135
pot	-11.1356
▁amer	-11.1356
▁évangile	-11.1359
▁automatique	-11.1359
▁destination	-11.1359
demoiselle	-11.136
▁suicide	-11.137
▁wil	-11.1382
ophi	-11.1385
▁naval	-11.1387
nny	-11.1391
▁coton	-11.1394
▁mut	-11.1396
ella	-11.1398
▁viru	-11.1405
▁reconnaissance	-11.1408
▁rencontré	-11.1408
▁missile	-11.1408
▁discret	-11.1408
▁antonio	-11.1408
▁triangle	-11.1408
▁reconnue	-11.141
fé	-11.1418
anna	-11.142
▁castel	-11.1421
etti	-11.1423
unique	-11.1428
enquête	-11.1431
wood	-11.1431
▁ray	-11.1434
▁arbitre	-11.1437
▁couler	-11.1441
exprime	-11.1444
rate	-11.1448
▁islam	-11.1448
▁sculpte	-11.1453
▁caractérise	-11.1457
▁judiciaire	-11.1457
▁lézard	-11.1457
▁fiancé	-11.1457
▁curieux	-11.1458
▁cancer	-11.1458
ense	-11.1459
▁gothique	-11.1459
▁révolutionnaire	-11.146
▁envoie	-11.1461
grad	-11.1471
▁rapporteur	-11.1472
▁rocher	-11.1476
script	-11.1479
événement	-11.1481
▁green	-11.1481
branche	-11.1483
mobilité	-11.1486
▁cabine	-11.1488
▁succéd	-11.149
utiliser	-11.1492
▁boule	-11.1494
champ	-11.1497
▁exclu	-11.1498
▁pâle	-11.1507
▁explosion	-11.1507
▁défaut	-11.1507
▁évènement	-11.1508
▁correspondance	-11.151
▁bach	-11.1518
apparence	-11.152
▁triste	-11.1525
▁tiens	-11.1526
▁entame	-11.1533
▁traversé	-11.1547
▁abouti	-11.155
▁radi	-11.155
▁intervien	-11.1553
neur	-11.1555
▁confession	-11.1557
▁paraguay	-11.1557
▁recevoir	-11.1557
▁soigner	-11.1557
▁illustre	-11.1557
▁indiqué	-11.1558
▁deviner	-11.156
▁ann	-11.1561
▁parlé	-11.1562
▁verser	-11.1563
▁romantique	-11.1569
amants	-11.1577
mobile	-11.1581
▁serve	-11.1588
▁nicol	-11.1591
▁jeanne	-11.1591
▁végéta	-11.1604
▁célibataire	-11.1607
▁délégué	-11.1607
▁prélèvement	-11.1607
▁écurie	-11.1607
▁dégo	-11.1607
▁jacob	-11.1607
▁pavillon	-11.1607
▁nav	-11.1609
urban	-11.1612
▁nourrit	-11.1615
▁cardin	-11.1627
▁chou	-11.1633
lettre	-11.1637
écri	-11.1637
feld	-11.1651
▁représent	-11.1652
▁fauteuil	-11.1653
▁trouva	-11.1655
▁congédie	-11.1658
▁pouvaient	-11.1658
▁rectangulaire	-11.1658
▁singapour	-11.1658
▁résistant	-11.1658
tatouage	-11.1658
▁courriel	-11.1658
▁souffre	-11.1658
▁rotation	-11.1658
▁gagné	-11.1658
▁cab	-11.1661
▁orphelin	-11.1661
▁juan	-11.1662
▁nobles	-11.1681
▁julien	-11.1682
olf	-11.1683
▁passant	-11.169
▁gil	-11.1696
▁rap	-11.1697
▁courage	-11.17
▁carbon	-11.17
▁lang	-11.1703
▁temporaire	-11.1708
▁acquiesce	-11.1708
▁automate	-11.1708
▁filiale	-11.1709
▁identifié	-11.171
▁particule	-11.1711
vic	-11.1717
aîné	-11.1725
tivité	-11.173
dessinée	-11.1736
▁divisée	-11.174
gramme	-11.1745
dine	-11.1749
▁qualifiée	-11.1753
▁symbolis	-11.1759
▁gérard	-11.1759
▁liber	-11.1763
▁tracé	-11.1765
rico	-11.1775
▁pet	-11.1776
gla	-11.1776
mur	-11.1778
fre	-11.1782
▁éthiopie	-11.1786
apa	-11.1796
▁axe	-11.1796
▁stan	-11.1802
▁admis	-11.1805
plomb	-11.181
▁tramway	-11.1811
▁dramatique	-11.1811
▁florence	-11.1811
▁correction	-11.1811
▁préparation	-11.1811
▁couteau	-11.1812
▁éditeur	-11.1818
aviation	-11.1819
étr	-11.1836
musicale	-11.184
oubli	-11.1842
mble	-11.1844
marne	-11.1851
▁gmin	-11.1851
▁confirme	-11.1857
▁effort	-11.1859
▁piscine	-11.1862
▁boulanger	-11.1862
▁globale	-11.1862
▁refuge	-11.1862
▁césar	-11.1863
encourage	-11.1863
▁touché	-11.1864
▁blue	-11.1864
▁septième	-11.1865
▁souris	-11.187
▁liane	-11.1872
▁faim	-11.1874
▁diffusé	-11.1875
▁connaisse	-11.1878
▁chap	-11.1879
▁collabor	-11.1881
▁fréquenté	-11.1883
durable	-11.1891
voyant	-11.1895
▁ô	-11.1903
érité	-11.1903
pic	-11.1903
tain	-11.1905
▁disparition	-11.1914
▁indicateur	-11.1914
▁évolué	-11.1914
▁restauré	-11.1914
▁vocation	-11.1915
▁demandé	-11.1915
▁manteau	-11.1916
▁hong	-11.1919
lumin	-11.1919
arque	-11.1923
▁observe	-11.1924
ongle	-11.1932
▁logis	-11.1936
▁livret	-11.1939
éné	-11.1941
▁assis	-11.1941
gno	-11.1944
▁comédien	-11.1946
▁creuser	-11.1951
haus	-11.1952
▁nam	-11.1959
audiovisuel	-11.1966
▁biceps	-11.1966
fatigué	-11.1966
▁sociaux	-11.1966
▁pianiste	-11.1966
effectif	-11.1966
▁dénonce	-11.1966
▁formule	-11.1967
▁serveur	-11.1975
▁doté	-11.1976
éco	-11.1986
nz	-11.1994
méri	-11.1997
▁péni	-11.2002
▁vase	-11.2002
pou	-11.2007
avaient	-11.201
▁kal	-11.2013
▁voul	-11.2018
▁linguistique	-11.2018
▁humoriste	-11.2018
▁renforce	-11.2018
▁nationaux	-11.2019
▁politicienne	-11.2019
vard	-11.202
▁accepté	-11.2021
écoule	-11.2025
▁termina	-11.2025
▁assurée	-11.2028
istique	-11.2031
▁bureaux	-11.2032
▁viens	-11.2032
▁violet	-11.2032
acier	-11.2036
▁soient	-11.2037
▁cow	-11.2043
▁média	-11.2049
électronique	-11.2051
▁bull	-11.2058
essai	-11.2061
américaine	-11.2069
écoss	-11.2071
intellectuel	-11.2071
▁utile	-11.2071
▁arthur	-11.2071
électora	-11.2071
▁trophée	-11.2072
▁berceau	-11.2072
▁nancy	-11.2072
▁dominique	-11.2072
▁fièvre	-11.2073
▁pharmacienne	-11.2075
▁régulier	-11.2081
bot	-11.2083
appar	-11.2083
▁turc	-11.2109
▁homo	-11.2114
▁montée	-11.2114
▁protégé	-11.2114
aéro	-11.2123
logue	-11.2123
▁absorber	-11.2124
▁philosophe	-11.2124
▁chanoine	-11.2124
▁trembler	-11.2124
▁spa	-11.2124
achète	-11.2126
▁piège	-11.2128
mina	-11.2128
▁paradis	-11.213
rvan	-11.2137
▁veine	-11.2137
▁apporte	-11.2138
▁hay	-11.2142
▁pav	-11.2143
▁kam	-11.2146
▁pêcher	-11.2149
▁portant	-11.216
▁quotidien	-11.217
▁réalisa	-11.2176
▁banquier	-11.2177
▁enseigné	-11.2177
▁baroque	-11.2177
▁fernand	-11.2178
shirt	-11.2178
actuelle	-11.2178
▁empire	-11.2179
explos	-11.2182
▁arriva	-11.2184
▁sculpté	-11.2203
châtel	-11.2206
pie	-11.2207
antoine	-11.2213
▁châteaux	-11.2217
▁manier	-11.2219
▁cheveu	-11.2223
ralisateur	-11.2229
▁chaussures	-11.2231
▁expulser	-11.2231
▁recrute	-11.2231
▁éclat	-11.2235
▁radical	-11.2237
▁maternelle	-11.2238
long	-11.2246
▁rattaché	-11.2255
▁cheffe	-11.2258
▁sauve	-11.226
nam	-11.2261
▁fred	-11.2264
éloigner	-11.2266
appellation	-11.2271
▁remarque	-11.2277
▁vain	-11.2277
▁établie	-11.2282
▁embrasser	-11.2284
▁maîtrise	-11.2284
▁éleveur	-11.2284
▁mixte	-11.2284
▁sprint	-11.2285
▁métallique	-11.2285
opinion	-11.2286
▁allé	-11.2287
▁atmosphère	-11.2289
▁moindre	-11.2293
▁énorme	-11.2293
tag	-11.2297
▁vic	-11.23
ulf	-11.2302
▁rest	-11.2306
▁confirmé	-11.231
▁recouvert	-11.2311
beau	-11.2316
▁chimique	-11.2317
▁cata	-11.2317
row	-11.2318
▁alfred	-11.2327
rina	-11.2328
▁provenan	-11.2335
hou	-11.2335
viv	-11.2337
▁génér	-11.2338
▁intéressé	-11.2338
▁renonce	-11.2338
▁débarquer	-11.2339
▁déguisement	-11.2351
zé	-11.2356
oko	-11.2356
▁volet	-11.2357
▁réduite	-11.2359
habitation	-11.2363
guère	-11.2367
thi	-11.2373
▁récente	-11.2375
ido	-11.2377
office	-11.2378
▁observatoire	-11.2382
encre	-11.2388
▁charpentier	-11.2393
▁scrutin	-11.2393
▁monnaie	-11.2393
▁tenue	-11.2394
▁violence	-11.2394
▁colle	-11.2398
▁pertes	-11.2407
étienne	-11.2407
▁vif	-11.2407
sexuel	-11.2413
▁copier	-11.242
▁chris	-11.242
▁julie	-11.2424
accept	-11.2428
▁seraient	-11.2428
▁bag	-11.2428
approche	-11.243
▁utilisation	-11.2434
jeu	-11.2434
▁individuelle	-11.2435
▁contente	-11.2438
pénitentiaire	-11.2447
▁aéroplane	-11.2447
▁succession	-11.2447
▁constructeur	-11.2447
▁tambour	-11.2448
▁précision	-11.2448
▁survécu	-11.2448
▁foyer	-11.2449
▁quitté	-11.2449
▁distinction	-11.2452
▁big	-11.2454
▁fonctionnement	-11.2459
soi	-11.2464
dorf	-11.2467
lation	-11.2467
onné	-11.2469
▁calculer	-11.2482
▁savez	-11.249
▁assuré	-11.2492
war	-11.2494
zel	-11.25
▁donnée	-11.2502
▁enveloppe	-11.2502
métrique	-11.2502
▁voûte	-11.2502
ellipse	-11.2502
aisne	-11.2502
▁testament	-11.2503
▁détache	-11.2504
ivoire	-11.2505
▁hypothèse	-11.2506
ciel	-11.2508
▁servit	-11.2509
▁fumée	-11.2509
▁créateur	-11.251
ignon	-11.2514
épo	-11.2527
▁marqua	-11.2529
path	-11.253
ifiée	-11.2539
▁remplacée	-11.2554
▁ajoute	-11.2555
▁fournit	-11.2557
▁analgési	-11.2558
▁éruption	-11.2558
▁museum	-11.2558
▁pli	-11.2558
▁débit	-11.2559
▁gamme	-11.256
▁stra	-11.2562
▁archéologi	-11.2563
zin	-11.2564
nin	-11.2566
▁sonner	-11.2569
ajoute	-11.2569
▁brou	-11.2574
▁cria	-11.2579
ignan	-11.2582
animation	-11.2584
organis	-11.2596
cast	-11.2596
▁enver	-11.2601
hop	-11.2603
pétersbourg	-11.2613
tabernacle	-11.2613
▁consommation	-11.2613
▁tokyo	-11.2613
▁engagement	-11.2615
▁épuise	-11.2619
udi	-11.2624
▁vendredi	-11.2629
▁remplacer	-11.263
▁office	-11.263
▁annuelle	-11.2632
▁impériale	-11.2633
parents	-11.2639
▁entourée	-11.264
▁contemporaine	-11.264
▁boucher	-11.2645
mètre	-11.265
établit	-11.2651
▁estime	-11.2656
duire	-11.2656
▁affirme	-11.2663
▁annoncé	-11.2669
▁consécutive	-11.2669
▁disciple	-11.2669
▁pionnier	-11.2669
▁slalom	-11.2669
▁classification	-11.2669
▁décroche	-11.2669
▁miracle	-11.2669
▁vaincu	-11.267
▁revers	-11.2671
▁victoria	-11.2672
▁inférieure	-11.2674
▁taxi	-11.2676
▁gold	-11.2677
▁protégée	-11.2679
▁spécial	-11.2681
empare	-11.2688
▁congo	-11.2699
▁proposée	-11.271
amitié	-11.2713
joseph	-11.2713
▁orage	-11.2713
▁électric	-11.2716
ridge	-11.2717
olle	-11.272
argentine	-11.2721
▁géré	-11.2722
▁pul	-11.2722
▁suspendu	-11.2725
▁handball	-11.2725
▁prieuré	-11.2725
▁épousé	-11.2725
▁gustav	-11.2725
imo	-11.2727
achève	-11.2727
▁semblait	-11.2729
▁extension	-11.2731
▁frappe	-11.2732
▁vern	-11.2735
nova	-11.2735
▁pleur	-11.2737
▁équipée	-11.2747
▁nucléaire	-11.275
▁occup	-11.2754
▁roc	-11.2754
▁connais	-11.2761
▁natal	-11.2764
▁botanique	-11.2766
religion	-11.277
▁nerve	-11.2774
▁inscription	-11.2775
ignac	-11.2777
▁concerné	-11.2782
▁québécois	-11.2782
▁décédé	-11.2782
▁manifeste	-11.2782
▁lituanie	-11.2782
▁qualification	-11.2782
▁syndicat	-11.2782
▁confondu	-11.2782
▁abondante	-11.2782
▁brouillard	-11.2782
ssel	-11.2784
fra	-11.2786
▁fuite	-11.2786
gam	-11.2788
▁songe	-11.2791
▁rav	-11.2795
▁desservi	-11.2798
▁béni	-11.2802
ape	-11.2807
▁casse	-11.2814
▁lâcher	-11.2824
▁perte	-11.2824
amiral	-11.2825
extinction	-11.2839
▁benjamin	-11.2839
▁scolari	-11.2839
▁vietnam	-11.2839
▁venezuel	-11.2839
awa	-11.2843
▁artère	-11.2843
▁mouri	-11.2843
jan	-11.2847
portable	-11.2851
▁apprendre	-11.2851
▁artisana	-11.2852
▁savant	-11.2855
venait	-11.2856
▁jouait	-11.286
▁peuplée	-11.2865
▁restée	-11.2868
▁accent	-11.2884
ouille	-11.2885
▁latine	-11.2889
▁alpes	-11.2895
explication	-11.2896
▁fragment	-11.2896
▁isolement	-11.2896
▁inédit	-11.2896
▁divorcer	-11.2898
▁liège	-11.2899
▁collaborateur	-11.2901
▁savon	-11.2901
▁degré	-11.2902
▁brand	-11.2907
alphab	-11.2911
▁chal	-11.2913
neau	-11.2918
thier	-11.2918
dieu	-11.292
▁auraient	-11.292
▁north	-11.2923
morte	-11.2929
musique	-11.2946
guinée	-11.2946
▁crypte	-11.2953
instruction	-11.2953
▁caroline	-11.2953
▁transformation	-11.2953
▁terroriste	-11.2957
oka	-11.2961
abri	-11.2963
▁tapis	-11.2963
▁corse	-11.2976
▁abc	-11.2976
▁teint	-11.2977
hem	-11.2977
▁miel	-11.2981
▁étienne	-11.2982
▁béton	-11.2983
▁prépare	-11.2989
rouge	-11.299
▁paire	-11.2996
▁hongrois	-11.2997
▁matt	-11.3001
application	-11.3002
▁blond	-11.3004
▁tchèque	-11.3008
amine	-11.3008
▁kra	-11.301
▁évêché	-11.3011
symbolique	-11.3011
▁cordillère	-11.3011
▁soupçon	-11.3011
▁nièce	-11.3011
▁sévère	-11.3011
▁rythme	-11.3011
▁mérite	-11.3013
kk	-11.3014
▁high	-11.3015
infini	-11.3018
▁échanger	-11.3028
avère	-11.3035
ovo	-11.3038
▁écran	-11.3039
▁nul	-11.3041
▁regarder	-11.3047
wald	-11.3053
▁perdue	-11.3053
escalier	-11.3061
▁chor	-11.3061
▁préau	-11.3062
▁esca	-11.3063
low	-11.3066
▁absence	-11.3068
▁circonstance	-11.3069
▁costume	-11.3069
▁féministe	-11.3069
▁giovanni	-11.3069
▁obligatoire	-11.3069
▁réfugie	-11.3069
▁ordonné	-11.3071
▁institut	-11.3072
▁observé	-11.3072
gny	-11.3075
▁quotidienne	-11.3077
▁marbre	-11.308
chal	-11.3083
▁courbe	-11.3084
▁marron	-11.309
atique	-11.3091
▁hard	-11.3092
▁vocal	-11.3097
▁inverse	-11.3099
▁vraie	-11.3107
▁pragu	-11.3107
▁rhin	-11.3108
▁nantes	-11.3109
osse	-11.3112
naissance	-11.3113
cité	-11.3117
adresse	-11.312
▁alla	-11.3126
▁gran	-11.3126
▁concurrent	-11.3128
▁témoignage	-11.3128
▁entraîné	-11.3128
▁plaisir	-11.3128
▁brown	-11.3128
arabie	-11.3128
▁edward	-11.3128
▁psycho	-11.3128
▁contribution	-11.313
▁comprenait	-11.3131
▁latérale	-11.3134
clair	-11.3139
▁neuro	-11.314
▁pensa	-11.3145
▁ajouta	-11.3147
▁enregistre	-11.3148
astro	-11.3156
albert	-11.3157
indre	-11.3158
▁louise	-11.3164
▁reprendre	-11.3169
▁quinz	-11.317
log	-11.3177
▁froide	-11.3182
▁déterminé	-11.3186
▁hélicoptère	-11.3186
▁djinn	-11.3186
▁stopper	-11.3186
▁chariot	-11.3186
▁révolte	-11.3186
accéder	-11.3186
▁prairie	-11.3186
▁arête	-11.3186
▁pneu	-11.3187
▁habitat	-11.3187
▁hasard	-11.3187
▁tigre	-11.3189
cz	-11.3195
aucun	-11.3197
▁pala	-11.3199
éta	-11.3209
▁exposée	-11.3214
atta	-11.3215
▁conclu	-11.3223
liv	-11.3226
▁virginie	-11.3229
fille	-11.3231
▁rob	-11.3233
▁acco	-11.3234
embras	-11.3238
▁ravi	-11.3238
major	-11.3239
technologie	-11.3239
▁enterrée	-11.3241
▁vel	-11.3242
▁philip	-11.3246
▁agréable	-11.3246
▁byzantin	-11.3246
▁chèque	-11.3246
▁claviériste	-11.3246
▁licencié	-11.3246
▁synagogue	-11.3246
▁tempéré	-11.3246
▁brigade	-11.3246
autonomie	-11.3246
côtier	-11.3246
▁miroir	-11.3246
▁spatial	-11.3246
argument	-11.3246
▁offert	-11.3246
alimentation	-11.3246
▁pèlerinage	-11.3248
assembl	-11.325
▁cote	-11.3251
▁boxe	-11.3254
▁caché	-11.3258
▁gru	-11.326
bru	-11.3261
▁arr	-11.3263
acre	-11.3266
chard	-11.3267
foc	-11.3269
▁assurance	-11.3271
▁napl	-11.3275
▁solaire	-11.3277
▁louer	-11.3279
mbe	-11.3281
▁apôtre	-11.3281
▁repli	-11.3284
▁poul	-11.3289
▁remet	-11.3292
poser	-11.3298
extrême	-11.3299
phile	-11.3302
folklorique	-11.3305
▁protocole	-11.3305
▁maillot	-11.3305
▁ernest	-11.3306
▁compta	-11.3307
yre	-11.3308
▁boston	-11.3309
▁nan	-11.3311
▁déchet	-11.3313
cq	-11.3316
▁nette	-11.3317
▁démocrate	-11.3319
▁considér	-11.3324
écraser	-11.3325
aurait	-11.3326
▁chirurgie	-11.3326
▁anton	-11.3336
gique	-11.334
▁maintenu	-11.334
▁avance	-11.3341
rose	-11.3343
etta	-11.3346
▁démocratique	-11.3347
historien	-11.336
voyait	-11.3361
animal	-11.3365
▁agressif	-11.3365
▁maréchal	-11.3365
▁slovaqu	-11.3365
▁maquette	-11.3365
▁ghana	-11.3365
invasion	-11.3365
intention	-11.3365
▁fab	-11.3365
▁remis	-11.3366
▁tortue	-11.3367
habitude	-11.3367
laurent	-11.3369
▁organisme	-11.3375
zen	-11.3394
▁mobile	-11.3395
▁recour	-11.3395
éto	-11.3397
▁guat	-11.3398
▁chen	-11.34
▁presser	-11.3403
▁gang	-11.3407
▁wei	-11.3413
ssier	-11.3416
ding	-11.3417
attention	-11.3421
▁légumes	-11.3425
▁norvégien	-11.3425
▁remporta	-11.3425
▁clôture	-11.3426
▁mitraille	-11.3426
▁devrait	-11.3427
▁ignorer	-11.3428
▁yu	-11.3428
uli	-11.3431
▁loire	-11.3436
▁pleurer	-11.3437
▁théo	-11.3438
▁franchi	-11.3441
▁édit	-11.3448
inger	-11.345
▁group	-11.3452
volcanique	-11.3453
▁armé	-11.3456
gère	-11.3457
▁pompier	-11.3459
▁bab	-11.3461
entraînement	-11.3463
▁rab	-11.3466
▁assiste	-11.3478
▁exacte	-11.3482
expédition	-11.3482
▁ful	-11.3483
▁discussion	-11.3486
▁magistrat	-11.3486
▁montpellier	-11.3486
▁orthodoxe	-11.3486
▁théorème	-11.3486
▁grenade	-11.3486
▁intéressant	-11.3486
▁francisco	-11.3489
▁combattant	-11.3493
hib	-11.35
angers	-11.3501
▁mill	-11.3504
▁tromper	-11.3505
gni	-11.3506
▁brûl	-11.3506
▁morale	-11.3529
aspect	-11.3544
endroit	-11.3544
▁amérindien	-11.3547
archidiocèse	-11.3547
pharyngé	-11.3547
▁dialecte	-11.3547
▁dynamique	-11.3547
▁remorque	-11.3547
▁illustré	-11.3547
▁émile	-11.3547
iano	-11.3548
▁concentre	-11.3548
▁localisé	-11.3553
▁attribue	-11.3554
▁séparée	-11.3557
motion	-11.3557
chaise	-11.3559
▁gratte	-11.3563
▁pilier	-11.3567
▁extrait	-11.3571
▁pince	-11.3579
▁remise	-11.3586
gia	-11.359
ferrée	-11.3592
▁termin	-11.3603
▁alt	-11.3604
instrument	-11.3606
famille	-11.3606
▁endommagé	-11.3608
▁jupiter	-11.3608
▁stratégique	-11.3608
érosion	-11.3608
▁résulte	-11.3608
▁servait	-11.3608
▁fougère	-11.3609
observation	-11.361
coco	-11.3614
saoudi	-11.3623
▁franz	-11.3624
▁deuil	-11.3626
▁croit	-11.363
▁importe	-11.3633
▁rétabli	-11.3639
▁obti	-11.3641
igo	-11.3643
ward	-11.3644
▁peux	-11.3651
▁pascal	-11.3655
▁kim	-11.3659
▁confiée	-11.366
▁sho	-11.366
colo	-11.3661
monoparentale	-11.367
▁reconstruction	-11.367
▁suprême	-11.367
▁inquiet	-11.367
▁toronto	-11.367
▁présidence	-11.367
▁samuel	-11.367
autel	-11.3671
voix	-11.3672
▁délai	-11.3672
amazon	-11.3672
▁expédition	-11.3674
▁séance	-11.3677
chemin	-11.3679
▁rosa	-11.3682
invite	-11.3684
▁rail	-11.3688
▁confine	-11.369
▁domin	-11.3695
▁fief	-11.3697
▁puissante	-11.3701
italien	-11.3705
▁ignore	-11.3708
▁gramm	-11.3708
▁mouche	-11.3714
▁accède	-11.3714
▁investi	-11.3725
▁stocke	-11.3729
▁band	-11.3729
▁tenant	-11.3729
préfecture	-11.3731
▁délégation	-11.3732
▁provisoire	-11.3732
▁commandé	-11.3732
▁produisent	-11.3732
▁hollande	-11.3732
interdiction	-11.3732
▁télévisée	-11.3733
biller	-11.3733
▁livré	-11.3733
▁flamand	-11.3734
▁imagin	-11.3734
▁horizon	-11.3734
▁désaccord	-11.3741
▁master	-11.3754
coucher	-11.3756
▁championne	-11.3759
occupa	-11.376
passer	-11.3762
herm	-11.3765
type	-11.3767
hang	-11.3769
▁bénéfici	-11.3773
train	-11.3778
▁filmer	-11.378
roux	-11.3782
▁écossais	-11.3788
▁catalog	-11.3793
▁abd	-11.3794
éditeur	-11.3794
▁grenoble	-11.3794
▁jérusalem	-11.3794
▁livraison	-11.3794
inventaire	-11.3795
horloge	-11.3796
▁brook	-11.3796
▁devaient	-11.3797
▁maigre	-11.3798
▁antérieure	-11.3799
achat	-11.3805
▁interprétation	-11.382
▁architectural	-11.3822
▁athléti	-11.3826
▁immeuble	-11.3831
ayant	-11.3836
▁informatique	-11.3837
▁herb	-11.3843
orge	-11.385
▁antilope	-11.3857
▁cambodg	-11.3857
▁caractérisé	-11.3857
▁paroissiale	-11.3857
▁réflexion	-11.3857
dinosaure	-11.3857
▁intact	-11.3858
ieu	-11.3858
▁illusion	-11.3858
▁modéré	-11.3858
▁fresque	-11.386
▁doyen	-11.3861
interromp	-11.3862
▁metal	-11.3864
▁tony	-11.3869
▁contrainte	-11.3878
▁médiévale	-11.3879
▁feux	-11.3883
▁apparten	-11.3897
▁brisé	-11.3897
▁bah	-11.3899
▁historiquement	-11.3902
acte	-11.3905
▁plonge	-11.3905
▁emplacement	-11.3907
ntement	-11.3914
▁milieux	-11.3916
▁ecclésiastique	-11.3921
▁projectile	-11.3921
▁suspect	-11.3921
▁transfert	-11.3921
▁chevelu	-11.3921
▁céréale	-11.3921
▁débouche	-11.3921
sébastien	-11.3922
claude	-11.3923
inématographique	-11.3923
▁séparation	-11.3923
riez	-11.3924
germain	-11.3926
▁haïti	-11.3927
colomb	-11.3931
▁charle	-11.3932
▁renommé	-11.3936
lène	-11.3936
▁fac	-11.394
optim	-11.3941
mmer	-11.3944
denis	-11.395
▁joli	-11.395
▁kon	-11.3953
▁blog	-11.3953
familial	-11.3954
▁gib	-11.3958
▁existant	-11.398
alcool	-11.398
idae	-11.3983
amsterdam	-11.3984
▁critiqué	-11.3984
▁critère	-11.3984
▁génétique	-11.3984
▁stable	-11.3984
▁incarne	-11.3985
embarqu	-11.3985
▁alimenté	-11.3986
▁génie	-11.3986
▁alpin	-11.3986
▁eugène	-11.3987
étape	-11.3988
▁piéton	-11.4005
wo	-11.4005
▁iso	-11.4009
▁poursuite	-11.4012
▁basque	-11.4013
▁angel	-11.4025
▁bruno	-11.4025
ifère	-11.4029
fleur	-11.4033
ouvrir	-11.4033
▁marco	-11.4035
▁bateaux	-11.4035
▁ranger	-11.4044
espère	-11.4046
ascension	-11.4048
▁bulgari	-11.4048
▁célébré	-11.4048
▁librairie	-11.4048
▁clermont	-11.4048
▁croire	-11.4049
douze	-11.4056
▁examiner	-11.4056
▁gère	-11.4058
kou	-11.4062
graphique	-11.4066
▁tube	-11.4073
▁pru	-11.4075
pont	-11.4077
▁équivalent	-11.4079
igno	-11.408
▁convoi	-11.4084
▁emil	-11.4086
cheva	-11.4094
organise	-11.4096
▁circuler	-11.4113
▁controverse	-11.4113
▁controversé	-11.4113
▁empreinte	-11.4113
▁prestigieu	-11.4113
▁sauvé	-11.4114
▁embelli	-11.4114
▁marchandise	-11.4115
lumière	-11.4117
olé	-11.4118
allergie	-11.4121
▁bouger	-11.4121
jour	-11.413
▁troupeau	-11.4148
stone	-11.4152
▁abandonnée	-11.4152
▁rouen	-11.4154
▁quarant	-11.4155
▁occupée	-11.4156
▁conçue	-11.416
▁assise	-11.4165
▁chanté	-11.4171
▁ultérieure	-11.4174
▁oppose	-11.4174
▁cavalerie	-11.4178
▁injection	-11.4178
▁remarqué	-11.4178
▁existence	-11.4179
▁guill	-11.418
▁poutre	-11.4182
exécution	-11.4183
▁nomination	-11.4187
sieste	-11.4188
sportive	-11.4188
▁adopte	-11.4189
ming	-11.419
▁curé	-11.4195
▁restait	-11.4196
abside	-11.4197
uth	-11.4199
soft	-11.4213
▁gallo	-11.4219
▁diplômée	-11.4225
▁avantage	-11.4226
▁limité	-11.4227
▁pharmacie	-11.4229
▁extra	-11.4233
▁infirmier	-11.4243
▁simultané	-11.4243
▁jordan	-11.4243
▁alimentaire	-11.4243
▁atteign	-11.4243
▁censure	-11.4243
métrie	-11.4244
▁percevo	-11.4245
▁capture	-11.4245
▁maximum	-11.4246
▁flore	-11.4248
accident	-11.4249
▁suc	-11.4256
▁distincte	-11.4264
▁diacritée	-11.4266
▁flam	-11.4271
▁secrète	-11.4272
▁ple	-11.4275
▁convainc	-11.4276
▁estimé	-11.4281
▁immense	-11.4288
▁orne	-11.4288
▁contraint	-11.4288
islam	-11.4297
▁éteint	-11.4298
▁assaisonne	-11.4309
▁culminant	-11.4309
▁lorraine	-11.4309
▁naufrage	-11.4309
▁négociation	-11.4309
▁rédigé	-11.4309
▁comprenne	-11.4309
élargi	-11.4309
▁cahier	-11.4309
▁abattu	-11.4309
oxford	-11.4309
▁transmission	-11.4309
assassinat	-11.4311
▁play	-11.4315
ndel	-11.4315
▁tunisie	-11.4317
▁boxeur	-11.4321
▁gilles	-11.4322
stimulation	-11.4323
▁promet	-11.433
lder	-11.4332
▁pac	-11.4341
▁donnant	-11.4349
uze	-11.4349
▁golf	-11.435
iza	-11.4362
▁puy	-11.4366
ecria	-11.437
▁adhérer	-11.4375
▁mercredi	-11.4375
urgence	-11.4375
▁charlotte	-11.4375
▁scott	-11.4376
associe	-11.4376
org	-11.4376
ontario	-11.4376
▁déplacement	-11.4376
▁chèvre	-11.4376
▁habité	-11.4377
▁acheté	-11.4377
▁cigarette	-11.4381
affluent	-11.4383
▁survivant	-11.4386
▁barba	-11.4392
▁préféré	-11.4394
▁polonaise	-11.4408
existait	-11.4418
gorge	-11.4421
▁escalade	-11.443
▁varié	-11.4431
▁remue	-11.4431
▁brian	-11.4435
vy	-11.4437
▁muni	-11.4438
▁chu	-11.4438
▁constellation	-11.4442
▁stratégie	-11.4442
▁bourgogne	-11.4442
▁obligé	-11.4442
▁solitaire	-11.4442
▁annulé	-11.4442
▁square	-11.4442
▁théorique	-11.4442
▁écoulement	-11.4442
brunswick	-11.4443
▁résiste	-11.4444
▁neutre	-11.4444
▁idéal	-11.4447
▁discrimination	-11.4448
▁viendra	-11.4449
apparition	-11.4451
électrique	-11.4451
▁choisir	-11.4455
rupt	-11.4467
▁prévue	-11.4468
▁terminée	-11.4469
▁brit	-11.4469
▁pap	-11.449
▁envahi	-11.4494
bla	-11.45
ingham	-11.4501
▁diriger	-11.4501
▁dict	-11.4502
▁résident	-11.4502
améliore	-11.4508
▁perpétu	-11.4509
▁biblique	-11.4509
▁mécanicien	-11.4509
▁tempête	-11.4509
▁révélé	-11.4509
▁venue	-11.4509
▁obéir	-11.4509
▁fût	-11.4511
▁épiscopal	-11.4511
position	-11.4511
▁jackson	-11.4512
▁parking	-11.4512
▁blague	-11.4513
▁protestante	-11.4514
élément	-11.4515
▁entreprend	-11.4516
égypte	-11.4519
▁gagnant	-11.4521
hara	-11.4525
▁confie	-11.4526
▁gy	-11.4538
▁galle	-11.4541
▁jolie	-11.4551
▁guer	-11.4551
veillée	-11.4552
▁conique	-11.4554
bord	-11.456
▁signa	-11.4562
wich	-11.4563
▁montré	-11.4565
▁rampe	-11.4567
▁pèlerin	-11.4574
efficacité	-11.4577
▁ottoman	-11.4577
exécutif	-11.4577
humanité	-11.4577
▁navarre	-11.4577
▁voudrai	-11.4577
urinaire	-11.4578
▁toilettes	-11.4579
▁visuel	-11.4581
▁diffère	-11.4582
▁extérieure	-11.4584
▁volant	-11.4584
▁coupé	-11.4585
échelle	-11.4588
aider	-11.4597
équation	-11.4599
▁préparer	-11.4603
▁choc	-11.4604
▁noto	-11.4605
▁individuel	-11.4608
alisation	-11.4609
▁beauté	-11.4614
▁wood	-11.4615
▁chauve	-11.4623
▁indienne	-11.4634
ortho	-11.464
▁réfugié	-11.4645
▁white	-11.4645
riété	-11.4645
▁enlevé	-11.4645
xavier	-11.4645
▁indication	-11.4645
▁épousa	-11.4645
▁alternative	-11.4645
èze	-11.4647
▁observation	-11.4648
▁pencher	-11.4649
▁bordée	-11.4651
accus	-11.4658
croix	-11.4658
croisement	-11.4661
boul	-11.4669
▁thu	-11.4673
▁jane	-11.4675
échange	-11.468
▁démoli	-11.468
▁halle	-11.4686
▁cross	-11.4696
▁facilit	-11.4696
employé	-11.47
▁oxygène	-11.4702
belle	-11.4703
▁médicale	-11.4706
ingue	-11.4708
arctique	-11.4711
▁congrégation	-11.4713
▁floraison	-11.4713
▁poussière	-11.4713
▁relégué	-11.4713
▁chocolat	-11.4713
▁crête	-11.4713
▁mêle	-11.4713
▁bosnie	-11.4714
▁hôte	-11.4715
▁décret	-11.4715
▁voyez	-11.4716
▁luci	-11.4718
▁griffe	-11.4719
▁tol	-11.4719
▁dotée	-11.4721
▁grille	-11.4725
enceinte	-11.4726
▁canot	-11.4726
migration	-11.4726
treize	-11.4728
▁héri	-11.4728
▁dresse	-11.473
▁plonger	-11.473
oblige	-11.4735
▁pom	-11.4738
▁poll	-11.4742
class	-11.4756
▁atlantique	-11.4763
important	-11.4765
▁peinte	-11.4771
▁chercha	-11.4772
établir	-11.4776
chy	-11.478
▁rapprocher	-11.478
▁autopsie	-11.4782
▁fréquence	-11.4782
▁refléter	-11.4782
▁déclenche	-11.4782
▁nageoire	-11.4782
▁sphère	-11.4782
▁soudain	-11.4783
▁inclusion	-11.4783
▁glena	-11.4783
▁pension	-11.4783
▁eric	-11.4783
▁intermédiaire	-11.4785
▁retourna	-11.4786
hiro	-11.4786
albanie	-11.4787
▁baiser	-11.4788
▁tai	-11.4794
▁khan	-11.4795
semaine	-11.4796
▁suffit	-11.4797
bury	-11.4798
▁universel	-11.4799
▁ash	-11.4799
intégral	-11.4809
▁vitra	-11.4825
▁island	-11.4829
▁amant	-11.4835
▁géo	-11.4848
▁défendu	-11.4849
▁accrédite	-11.4852
▁collectif	-11.4852
▁concentration	-11.4852
▁renverser	-11.4852
▁chuchote	-11.4852
▁rédacteur	-11.4852
▁squelette	-11.4852
▁imprimé	-11.4852
▁germain	-11.4852
▁rapace	-11.4852
▁déporté	-11.4852
▁bouquet	-11.4855
▁walter	-11.4856
▁martyr	-11.4862
observatoire	-11.4866
enrichi	-11.4871
▁mali	-11.4872
kha	-11.4873
▁pleuv	-11.4877
▁god	-11.4879
arrive	-11.489
▁capital	-11.4898
▁dominé	-11.4911
▁lind	-11.4917
azerbaïdjan	-11.4922
funèbre	-11.4922
▁emmanuel	-11.4922
▁nocturne	-11.4922
▁explosif	-11.4922
▁lanterne	-11.4922
invention	-11.4922
▁nageur	-11.4922
▁gilbert	-11.4922
▁brevet	-11.4923
▁végétation	-11.4923
▁norme	-11.4931
▁diffuse	-11.4932
▁jim	-11.4936
épisode	-11.4937
nac	-11.4938
marc	-11.494
▁kha	-11.4948
▁guid	-11.495
▁nice	-11.4953
▁drôle	-11.4957
▁manga	-11.4963
▁gite	-11.4971
▁savait	-11.4972
ship	-11.4981
chlor	-11.4992
hollywood	-11.4992
▁araignée	-11.4992
▁bombarde	-11.4992
▁détroit	-11.4992
▁protège	-11.4992
arracher	-11.4992
alsace	-11.4993
▁joint	-11.4993
▁transparent	-11.4993
▁week	-11.4994
▁roumain	-11.4995
▁lignée	-11.4996
▁prière	-11.4999
▁pochette	-11.5
▁relais	-11.5002
▁vendue	-11.5006
▁biologi	-11.5006
▁travaillait	-11.5006
▁calci	-11.5007
terrestre	-11.5011
▁normal	-11.5012
▁menée	-11.5014
▁mike	-11.5016
▁nulle	-11.5018
▁fortifié	-11.5021
promene	-11.5026
▁malte	-11.5029
▁jones	-11.5034
acide	-11.5034
allier	-11.5038
observ	-11.5039
▁jeudi	-11.5044
identifi	-11.5047
phin	-11.5054
harmonie	-11.5061
▁examen	-11.5063
▁récompensé	-11.5063
▁varsovie	-11.5063
▁disposé	-11.5063
▁préfet	-11.5063
▁coiffe	-11.5065
horreur	-11.5066
▁reims	-11.5066
▁missionnaire	-11.5066
▁sarah	-11.5068
▁franchise	-11.5071
▁clouer	-11.5074
voiture	-11.508
▁tension	-11.5081
installation	-11.5081
▁pese	-11.5084
▁camping	-11.5084
▁puni	-11.5096
▁steve	-11.51
▁prévoi	-11.5102
▁commercialisé	-11.5106
▁garanti	-11.5115
▁coupable	-11.5117
ferrand	-11.5117
▁serre	-11.512
▁héritier	-11.5121
▁édouard	-11.5126
▁inspecte	-11.5129
▁satisfait	-11.5134
embouchure	-11.5134
▁académique	-11.5134
▁afghan	-11.5134
▁fatigue	-11.5134
▁jésuite	-11.5134
▁esclave	-11.5134
▁finlandais	-11.5134
▁embarquer	-11.5134
augmentation	-11.5134
▁saluer	-11.5136
▁poison	-11.5136
▁normandie	-11.5139
intégrer	-11.5145
▁spécialise	-11.5147
ambassade	-11.5153
quinze	-11.5154
▁tenait	-11.5157
▁surnom	-11.5157
illac	-11.5159
humaine	-11.5159
▁méditerranéen	-11.516
▁noyau	-11.5161
▁florent	-11.5161
▁clou	-11.5167
icité	-11.5168
gné	-11.5174
▁pétr	-11.5176
▁méditerranée	-11.5181
▁préside	-11.5184
arri	-11.5185
▁attribuée	-11.5186
▁hein	-11.5187
▁préserv	-11.5188
▁gain	-11.52
rousse	-11.5201
odo	-11.5204
▁carrosserie	-11.5206
▁consommé	-11.5206
▁pouvez	-11.5206
▁molécule	-11.5206
▁frappé	-11.5206
▁radar	-11.5206
▁prestation	-11.5207
▁timide	-11.5208
▁émotion	-11.5209
▁score	-11.5209
▁décida	-11.5209
alban	-11.521
▁eût	-11.5214
▁craint	-11.5217
▁filet	-11.5218
explique	-11.5226
georges	-11.5227
oria	-11.523
▁foire	-11.523
appuie	-11.5231
officier	-11.5235
ncourt	-11.5236
ennemi	-11.5242
tourisme	-11.5245
▁jam	-11.525
▁recueilli	-11.5262
ppa	-11.5263
pper	-11.5264
▁martiniqu	-11.5266
géné	-11.5268
égalité	-11.5278
▁concurrence	-11.5279
▁gendarme	-11.5279
▁déroulé	-11.5279
▁plateforme	-11.528
▁chypr	-11.528
▁jumeau	-11.5285
▁régi	-11.5285
▁rouler	-11.5285
▁fame	-11.5286
▁simul	-11.5286
▁manœuvre	-11.5287
▁pharmacien	-11.5289
▁imaginer	-11.5292
investissement	-11.5292
nuit	-11.5293
▁canard	-11.5293
▁constitutionnel	-11.5296
rena	-11.5299
atlantique	-11.5299
▁honte	-11.5299
espagnol	-11.5299
général	-11.53
écrit	-11.5306
henri	-11.5309
ober	-11.5314
▁danois	-11.5319
▁faune	-11.5321
ango	-11.5333
pondre	-11.5333
anthrop	-11.5339
thérapie	-11.5352
▁attaqué	-11.5352
▁kazakhstan	-11.5352
▁gâteau	-11.5352
▁pendule	-11.5352
▁arbor	-11.5352
▁cardiaque	-11.5354
▁fusée	-11.5356
▁jerse	-11.5357
▁montra	-11.5363
vacance	-11.5373
▁tenta	-11.5374
▁parisienne	-11.5377
angu	-11.538
égi	-11.538
gall	-11.538
▁apporté	-11.5382
thon	-11.5388
▁annivers	-11.5394
étant	-11.5396
lanka	-11.5398
▁modifie	-11.5399
oreille	-11.5406
▁reconnaît	-11.5413
▁refusé	-11.5419
ailier	-11.5422
polis	-11.5423
▁effective	-11.5425
▁prononcé	-11.5425
▁imposé	-11.5425
▁appartienne	-11.5425
▁vedette	-11.5425
iya	-11.5427
▁poussé	-11.5428
▁certificat	-11.5428
▁fire	-11.5434
▁divin	-11.5438
▁biologique	-11.5439
▁richesse	-11.5443
international	-11.5448
communication	-11.5448
magasin	-11.5448
▁rugueu	-11.5449
▁vertu	-11.5454
▁relié	-11.5457
▁accueillir	-11.5463
▁conduis	-11.5466
▁serra	-11.5473
chan	-11.5475
▁normand	-11.5476
▁nab	-11.549
▁pilot	-11.5495
▁permanente	-11.5496
chirurgicale	-11.5499
expansion	-11.5499
▁comparé	-11.5499
▁pectora	-11.55
▁stefan	-11.55
▁versailles	-11.55
accélér	-11.55
▁achevé	-11.5501
▁parvenu	-11.5501
urbanisme	-11.5501
▁savane	-11.5501
▁disney	-11.5502
▁avorte	-11.5502
▁réclame	-11.5502
▁aidé	-11.5503
▁mobilier	-11.5504
▁islande	-11.5512
▁serbe	-11.5512
▁manoir	-11.5515
▁gérée	-11.5519
informatique	-11.5523
▁requi	-11.5524
▁pique	-11.5525
amand	-11.5527
▁bourbon	-11.5534
osette	-11.5548
▁héberge	-11.5548
▁dense	-11.5551
▁gand	-11.5551
gnac	-11.5551
▁restant	-11.5553
▁florid	-11.5554
▁pendr	-11.5561
▁natif	-11.5564
▁rit	-11.5568
osité	-11.557
infrastructure	-11.5574
offensive	-11.5574
▁doublage	-11.5574
▁variation	-11.5574
▁affilié	-11.5574
▁croîtr	-11.5574
▁détient	-11.5574
▁triple	-11.5574
▁acclame	-11.5574
▁crue	-11.5583
mol	-11.5584
iana	-11.5586
▁adopt	-11.5587
put	-11.5589
magnétique	-11.5593
▁tournant	-11.5594
exercice	-11.5599
africain	-11.5599
exemple	-11.5599
étudie	-11.5599
▁cultivée	-11.56
▁bordure	-11.5602
arrange	-11.5607
▁souligner	-11.5607
équilibre	-11.5608
▁madeleine	-11.5609
▁tort	-11.5609
outre	-11.561
ajout	-11.5612
▁fru	-11.5613
▁neuvième	-11.5613
▁argile	-11.5619
▁quitta	-11.5635
▁singe	-11.564
▁résolu	-11.5648
▁coalition	-11.5649
▁ordinaire	-11.5649
▁protagoniste	-11.5649
▁reçoivent	-11.5649
▁trajet	-11.5649
▁prototype	-11.5649
▁abeille	-11.565
▁interrompu	-11.565
▁consoler	-11.565
précoce	-11.565
▁fermier	-11.5651
plaît	-11.5653
▁comptait	-11.5657
héritage	-11.5662
▁retable	-11.5664
seine	-11.5666
▁metz	-11.5672
maritime	-11.5675
▁permettait	-11.5677
avril	-11.5678
▁triomphe	-11.568
utilise	-11.568
▁reliée	-11.5682
▁georg	-11.5689
▁travailleur	-11.5692
actif	-11.5695
▁cinquant	-11.5712
▁confié	-11.5716
camp	-11.5717
▁cort	-11.5723
lection	-11.5725
amélioration	-11.5725
▁forestière	-11.5725
thermale	-11.5725
▁strat	-11.5726
▁kol	-11.5727
▁ennui	-11.5728
▁prouve	-11.5728
▁habitée	-11.5728
▁gabon	-11.573
attr	-11.5732
▁sexe	-11.5737
▁montant	-11.5738
▁tendre	-11.5739
▁exceptionnelle	-11.5741
mund	-11.5743
▁trinit	-11.5745
▁battant	-11.5752
cheveux	-11.576
hydra	-11.576
▁recouverte	-11.5763
▁campu	-11.5763
fried	-11.5768
▁porto	-11.5771
▁bienfaisan	-11.5781
▁démo	-11.5791
▁dépasse	-11.5795
▁faudra	-11.5796
▁nick	-11.5799
▁mira	-11.5799
▁observa	-11.5801
▁côtière	-11.5801
▁mystère	-11.5801
▁recherché	-11.5801
▁secrétariat	-11.5801
▁ardoise	-11.5801
▁anglo	-11.5802
▁complété	-11.5802
▁chevet	-11.5802
▁hausse	-11.5802
▁négoc	-11.5804
▁releva	-11.5805
▁drame	-11.5807
▁éclate	-11.5811
▁hache	-11.582
▁contienne	-11.5823
▁succéda	-11.5827
ordinateur	-11.583
surprise	-11.583
▁expérimenta	-11.5833
▁synthèse	-11.5834
▁distinct	-11.5847
▁baisse	-11.5849
abat	-11.5849
▁caus	-11.5849
crète	-11.5851
▁bosse	-11.5854
▁fam	-11.5857
▁abonda	-11.5861
owski	-11.5867
▁gardé	-11.5875
épine	-11.5876
éducative	-11.5878
▁cadavre	-11.5878
▁mexicain	-11.5878
▁surveillance	-11.5878
▁sourire	-11.5878
▁décharge	-11.5878
conscient	-11.5878
innovation	-11.5878
▁antarctique	-11.5878
▁sher	-11.588
▁clavier	-11.588
▁cerf	-11.5882
▁gravé	-11.5888
▁apprécie	-11.5888
▁élémentaire	-11.5891
▁halte	-11.5892
ophone	-11.5896
▁sapin	-11.5897
▁omer	-11.5898
ensuit	-11.5908
▁sabre	-11.5911
▁provinciale	-11.5919
▁garc	-11.592
▁ignor	-11.5921
▁dessiné	-11.5934
▁kong	-11.594
▁orientée	-11.594
▁shin	-11.5945
orange	-11.5951
▁clandestin	-11.5956
▁postérieure	-11.5956
▁évoqué	-11.5956
▁savoie	-11.5956
▁jumelle	-11.5956
▁london	-11.5957
▁garnison	-11.5957
▁oublié	-11.5959
▁pourvu	-11.596
▁flamme	-11.5962
▁constitu	-11.5963
loi	-11.5964
▁variée	-11.5966
▁tombeau	-11.5983
chimique	-11.5987
archevêque	-11.5987
▁commentateur	-11.5991
mbourg	-11.5996
▁award	-11.6003
▁agriculteur	-11.6003
coréen	-11.6019
▁financement	-11.6028
▁gymnast	-11.6034
obstacle	-11.6034
▁friedrich	-11.6034
▁mathématicien	-11.6034
▁mythologie	-11.6034
▁philadelphi	-11.6034
▁vampire	-11.6034
▁éloigné	-11.6034
▁massacre	-11.6034
▁glisser	-11.6034
▁thierry	-11.6034
▁édifié	-11.6034
▁lotissement	-11.6034
▁dispersé	-11.6037
▁spécialité	-11.6038
▁noyer	-11.6042
interroge	-11.6043
assaut	-11.6043
ouf	-11.6047
▁gonfle	-11.6048
▁territoriale	-11.6052
▁nationaliste	-11.6053
▁skieur	-11.6055
wal	-11.6058
▁roll	-11.6059
▁généra	-11.6065
quatorze	-11.6066
aurais	-11.6068
azur	-11.6071
▁arrosée	-11.6076
indique	-11.6082
▁schu	-11.6088
▁harr	-11.6091
burn	-11.6095
▁crédit	-11.61
grav	-11.61
importante	-11.6101
▁serai	-11.6108
réflexe	-11.6112
▁conjoint	-11.6112
▁bénédiction	-11.6112
▁sépulture	-11.6112
▁toponyme	-11.6112
▁vaccin	-11.6112
▁vraisemblable	-11.6112
▁carnaval	-11.6112
▁dommage	-11.6113
▁littoral	-11.6113
▁viticole	-11.6113
▁implique	-11.6113
▁rupture	-11.6113
▁fécond	-11.6113
▁entrevue	-11.6113
abdom	-11.6113
▁constante	-11.6113
▁épuisé	-11.6113
▁servant	-11.6114
accumul	-11.6114
▁hambourg	-11.6115
▁exporte	-11.6117
▁francesco	-11.6119
▁méridional	-11.6124
▁procession	-11.6126
email	-11.613
intégr	-11.6144
immeuble	-11.6146
▁fasci	-11.6153
fel	-11.6158
▁préfér	-11.6159
▁ornée	-11.6174
offici	-11.6185
intelligence	-11.6192
▁conquête	-11.6192
▁relâche	-11.6192
▁sorcière	-11.6192
▁pelouse	-11.6192
▁karaté	-11.6192
▁reporter	-11.6192
▁reptile	-11.6192
▁travée	-11.6192
▁attiré	-11.6192
▁thématique	-11.6193
▁crochet	-11.6193
▁fossé	-11.6194
▁united	-11.6194
▁dérive	-11.6194
▁pirate	-11.6194
▁fallu	-11.6195
▁dixième	-11.6197
llier	-11.6199
▁demeura	-11.6203
▁vallon	-11.6204
malade	-11.6205
▁assisté	-11.6206
incline	-11.6206
▁diamant	-11.6207
▁vivait	-11.621
▁baseball	-11.6215
▁plé	-11.6217
avignon	-11.622
otti	-11.6232
▁pire	-11.6244
tech	-11.625
▁déterminer	-11.6272
▁ferdinand	-11.6272
▁perspective	-11.6272
▁précédé	-11.6272
▁réception	-11.6272
▁vétérinaire	-11.6272
▁différenci	-11.6272
▁pommade	-11.6272
entrepreneur	-11.6272
▁nauti	-11.6272
envoler	-11.6272
▁coordonne	-11.6273
acquisition	-11.6273
▁descente	-11.6274
entretien	-11.628
▁entité	-11.628
▁folle	-11.6283
fais	-11.6287
▁johnson	-11.6289
▁permanent	-11.6294
▁croyai	-11.6295
ân	-11.6305
migrant	-11.6305
▁supporter	-11.6308
civile	-11.6308
romaine	-11.6312
▁furie	-11.6315
olymp	-11.6318
alger	-11.6319
▁recul	-11.6323
▁south	-11.6326
▁précéde	-11.633
▁fen	-11.634
▁australien	-11.6349
imagination	-11.6349
herzégovine	-11.6353
▁déplacé	-11.6353
▁vignoble	-11.6353
▁félix	-11.6353
▁métropole	-11.6353
▁massive	-11.6353
▁reproche	-11.6353
▁lauréat	-11.6353
▁préparé	-11.6353
effacer	-11.6353
▁excuser	-11.6353
▁créature	-11.6353
▁designer	-11.6354
▁prenant	-11.6354
▁venger	-11.6355
▁sauce	-11.6355
▁pénal	-11.6357
▁renseignement	-11.6359
▁patien	-11.6361
▁casino	-11.6361
▁fortification	-11.6363
esthétique	-11.6365
▁orné	-11.6365
▁pam	-11.6366
stadt	-11.637
amiens	-11.6373
▁respira	-11.6373
centime	-11.6373
▁marge	-11.6374
▁paulin	-11.6375
▁divise	-11.6383
historique	-11.6389
dentaire	-11.6393
herbe	-11.6395
▁poussa	-11.6396
andy	-11.6403
▁vig	-11.6406
borg	-11.6407
▁sérieuse	-11.6412
▁initial	-11.6424
▁turin	-11.6425
essor	-11.6431
▁bicyclette	-11.6434
▁inutile	-11.6434
▁invitation	-11.6434
▁législative	-11.6434
▁perfection	-11.6434
▁procureur	-11.6434
▁pédagogique	-11.6434
▁randonnée	-11.6434
attentat	-11.6434
pulmonaire	-11.6434
▁intense	-11.6434
▁démence	-11.6434
▁envisage	-11.6434
▁transmis	-11.6434
▁colombe	-11.6438
entraîne	-11.6439
▁dijon	-11.644
▁option	-11.6441
▁pier	-11.6441
omètre	-11.6441
▁remplaçant	-11.6442
▁farine	-11.6443
éternel	-11.6443
▁noix	-11.6443
back	-11.6444
▁roland	-11.6444
▁pressé	-11.6447
▁mousse	-11.6449
▁bilan	-11.6451
▁tardive	-11.6455
▁parlant	-11.6456
▁libér	-11.6465
▁estonie	-11.6466
▁tolér	-11.647
▁mongolie	-11.6471
individu	-11.6472
annonce	-11.6473
▁arrose	-11.6474
ghi	-11.6489
▁moule	-11.6492
▁brésilien	-11.6497
artisan	-11.6503
▁rosé	-11.6506
▁borne	-11.651
▁avancée	-11.6511
▁destinataire	-11.6516
▁piscicole	-11.6516
▁significative	-11.6516
▁street	-11.6516
▁quadrill	-11.6519
▁amené	-11.6521
▁fourmi	-11.6524
▁comédienne	-11.6527
▁remarquer	-11.6527
▁menteur	-11.653
▁orienté	-11.6534
▁algue	-11.6536
▁occidental	-11.6541
▁anime	-11.6544
▁fum	-11.6545
doub	-11.6547
▁hell	-11.6551
▁mardi	-11.6551
disputer	-11.6556
adaptation	-11.6556
▁tang	-11.6562
▁wu	-11.6564
appui	-11.6572
▁mich	-11.6574
wang	-11.6579
barre	-11.6581
hof	-11.6586
▁légal	-11.6587
▁débarque	-11.6598
hebdomadaire	-11.6598
▁ascenseur	-11.6598
▁récolte	-11.6598
▁stricte	-11.6598
▁remercie	-11.6598
▁tonnerre	-11.6598
▁poignée	-11.6598
▁mâchoire	-11.6599
▁décerné	-11.6599
▁maltrait	-11.6599
▁coloré	-11.66
▁sociologi	-11.66
▁caméra	-11.66
▁habiller	-11.66
▁bowl	-11.6601
▁renfort	-11.6602
intégration	-11.6603
▁intégrale	-11.6604
▁générique	-11.6605
▁haï	-11.6605
▁récent	-11.661
▁finaliste	-11.6617
▁verra	-11.6619
zou	-11.6627
avière	-11.6631
▁sabot	-11.6635
▁stéphane	-11.6637
alor	-11.664
inverse	-11.664
▁convaincu	-11.664
athléti	-11.6642
▁tib	-11.6652
arabe	-11.6653
▁nourriss	-11.666
▁schw	-11.6666
▁arrondi	-11.6679
▁cauchemar	-11.6682
▁défensif	-11.6682
▁invisible	-11.6682
▁magnifique	-11.6682
▁terrifiant	-11.6682
▁contrôlé	-11.6682
▁pigeon	-11.6682
phosph	-11.6682
▁prolongé	-11.6682
▁publicitaire	-11.6682
▁conducteur	-11.6682
▁capsule	-11.6682
▁murmura	-11.6682
▁précipitation	-11.6682
▁taureau	-11.6684
▁murray	-11.6684
vènement	-11.6685
▁wolf	-11.6685
▁couronné	-11.6685
▁comtesse	-11.6689
▁valence	-11.6693
▁fumer	-11.6701
▁gravit	-11.6709
▁ouvr	-11.6709
▁ursu	-11.6709
apparente	-11.6711
poésie	-11.6725
écran	-11.6727
anvers	-11.673
▁présentation	-11.6732
▁carton	-11.6734
▁amende	-11.6734
accent	-11.6741
▁commissariat	-11.6766
▁économise	-11.6766
▁couvée	-11.6766
▁spirale	-11.6766
▁cintre	-11.6766
▁caserne	-11.6766
▁cyclo	-11.6767
▁brusque	-11.6767
▁fermeture	-11.6768
athène	-11.6769
▁toulon	-11.677
franc	-11.6771
paléontologique	-11.6777
▁marocain	-11.6793
▁kit	-11.6806
équivalent	-11.681
incendie	-11.681
moto	-11.6816
▁rétro	-11.6822
▁charme	-11.6829
▁wall	-11.6837
blo	-11.6847
alumini	-11.6847
▁reconverti	-11.6851
▁solidarité	-11.6851
▁séquence	-11.6851
▁désastre	-11.6851
▁principauté	-11.6851
▁veulent	-11.6851
▁dignité	-11.6851
▁transplant	-11.6851
▁vénér	-11.6851
▁émet	-11.6852
▁catalan	-11.6852
approcha	-11.6854
▁gloire	-11.6854
▁forum	-11.686
▁hugue	-11.6861
▁raff	-11.6868
▁pluton	-11.689
▁butin	-11.6905
shima	-11.6926
▁hil	-11.6931
hospital	-11.6936
▁compréhension	-11.6936
▁diagnostique	-11.6936
▁galaxie	-11.6936
▁indemnité	-11.6936
▁suspension	-11.6936
▁enfiler	-11.6936
▁écaille	-11.6936
▁pénétr	-11.6936
▁noeud	-11.6936
▁rumeur	-11.6936
▁israélien	-11.6936
▁crayon	-11.6936
▁sylvi	-11.6937
▁thermo	-11.6937
▁confusion	-11.6938
nçon	-11.6938
▁découper	-11.694
▁barbara	-11.6942
associa	-11.6944
▁balance	-11.6947
▁rentra	-11.6952
▁mentionne	-11.6966
▁revint	-11.697
▁sortant	-11.6971
cœur	-11.6984
▁créa	-11.6985
celles	-11.6991
▁annuel	-11.6994
ichi	-11.7003
attribu	-11.7011
▁compilation	-11.7022
▁dénomination	-11.7022
▁envisagé	-11.7022
▁jérôme	-11.7022
▁organique	-11.7022
▁rencontra	-11.7022
▁symptom	-11.7022
▁taïwan	-11.7022
▁télécharge	-11.7022
▁extraterrestre	-11.7022
▁lausanne	-11.7022
▁rédige	-11.7022
▁annexe	-11.7023
▁fournisseur	-11.7023
▁rebelle	-11.7028
▁oriental	-11.7029
▁funéraire	-11.7032
auvergne	-11.7039
ousse	-11.7047
▁creuse	-11.7061
pleu	-11.7068
nucléaire	-11.7071
corail	-11.7073
▁prescri	-11.7083
guin	-11.7092
▁eli	-11.7094
terra	-11.7105
actualité	-11.7109
relâché	-11.7109
▁compatriote	-11.7109
▁démonstration	-11.7109
▁programmation	-11.7109
▁précurseur	-11.7109
▁thermique	-11.7109
▁suscite	-11.7109
▁wilhelm	-11.7109
▁relevé	-11.7109
▁salarié	-11.7109
effondre	-11.7109
▁externe	-11.7109
▁coloniale	-11.711
installa	-11.7113
▁générateur	-11.7114
▁contesté	-11.7115
▁robot	-11.7117
saxon	-11.7126
enseigne	-11.7128
assurance	-11.7159
archiv	-11.7166
▁enseigna	-11.7174
couper	-11.7189
▁puce	-11.7193
ouin	-11.7193
orium	-11.7196
aérodrome	-11.7197
▁cambridge	-11.7197
▁nœud	-11.7197
▁positif	-11.7197
▁renforcé	-11.7197
▁tibétain	-11.7197
▁respirer	-11.7197
▁yougoslav	-11.7197
▁transition	-11.7197
▁écologique	-11.7197
▁mépris	-11.7197
▁indigène	-11.7198
iraq	-11.7198
▁falaise	-11.7198
▁brève	-11.72
▁wilson	-11.72
▁bœuf	-11.72
▁beige	-11.7201
▁graisse	-11.7201
▁volaille	-11.7202
▁prime	-11.7203
excuse	-11.7203
▁mérid	-11.7209
▁accompli	-11.722
▁conclut	-11.723
▁yves	-11.723
énat	-11.7233
▁terminal	-11.724
développement	-11.7249
poste	-11.7266
loup	-11.7277
▁autrichien	-11.7277
▁marteau	-11.7285
▁combinaison	-11.7285
▁extraordinaire	-11.7285
▁kennedy	-11.7285
▁gwynpla	-11.7285
▁jamaïqu	-11.7285
adapte	-11.7285
▁console	-11.7286
▁distributeur	-11.7286
apparaît	-11.7286
▁faubourg	-11.7286
▁claudi	-11.7287
▁alerte	-11.7287
▁chao	-11.7287
▁maïs	-11.7288
▁administré	-11.7288
▁poétique	-11.7288
▁briève	-11.7288
affection	-11.7288
▁sanction	-11.7289
▁venez	-11.7289
▁fiscal	-11.7289
▁drap	-11.7292
▁blason	-11.7296
▁ivan	-11.7297
▁vigue	-11.7298
▁naqui	-11.7299
▁contenant	-11.73
presse	-11.7305
ovsk	-11.7314
▁fesse	-11.7315
▁lanceur	-11.7322
▁bête	-11.7332
▁gouverna	-11.7333
▁scie	-11.7335
▁passait	-11.7339
poids	-11.7339
interprétation	-11.7341
▁cartouche	-11.7342
omorph	-11.7353
occident	-11.7357
oblast	-11.7362
▁constantin	-11.7374
espérance	-11.7375
▁indispensable	-11.7375
▁regroupé	-11.7375
▁reprenne	-11.7375
▁prononce	-11.7375
▁andrew	-11.7375
▁pétale	-11.7375
▁consomme	-11.7375
▁financé	-11.7375
▁culmine	-11.7375
▁ralenti	-11.7376
▁rapha	-11.7378
▁isabelle	-11.738
▁camille	-11.738
interface	-11.7397
▁tuile	-11.7397
hausen	-11.7406
mouth	-11.7411
▁puisse	-11.7413
attente	-11.743
nicolas	-11.743
août	-11.743
batte	-11.7432
▁wallon	-11.7438
appréci	-11.745
aperçoi	-11.7465
maçonnerie	-11.7465
▁collective	-11.7465
▁impulse	-11.7465
▁percussion	-11.7465
▁scandale	-11.7465
▁systématique	-11.7465
▁tablier	-11.7465
▁franciscain	-11.7465
▁nettoy	-11.7465
▁certifié	-11.7465
▁réélu	-11.7465
▁refroidissement	-11.7465
▁organisateur	-11.7465
inventeur	-11.7465
▁diego	-11.7466
▁affût	-11.7466
▁lyonnais	-11.7466
▁occasionnelle	-11.7466
▁démontre	-11.7467
▁exist	-11.7468
▁aplati	-11.7469
▁gillia	-11.747
▁pratiquant	-11.7476
▁multiplie	-11.7484
▁recensement	-11.7485
▁journalism	-11.749
▁session	-11.7493
histo	-11.7494
▁toiture	-11.7504
▁relique	-11.7505
▁paille	-11.751
▁brûlé	-11.751
▁andrea	-11.7521
automne	-11.7521
étudiant	-11.7521
octobre	-11.7522
retraite	-11.7522
▁flux	-11.7552
épaisseur	-11.7552
▁cinéaste	-11.7556
▁ensemence	-11.7556
▁fabricant	-11.7556
▁fracture	-11.7556
▁influent	-11.7556
▁syndical	-11.7556
▁suggère	-11.7556
▁paganel	-11.7556
▁vénus	-11.7556
mobiliser	-11.7556
▁parasite	-11.7556
exclam	-11.7556
▁cultivateur	-11.7558
▁gaston	-11.7563
zio	-11.7564
▁justin	-11.7565
▁palmar	-11.7568
baud	-11.7569
▁schéma	-11.7569
▁reich	-11.7573
▁convient	-11.7575
électro	-11.7576
▁tirage	-11.7576
▁usé	-11.7588
▁commercia	-11.76
▁steven	-11.7608
▁vibr	-11.7613
attraction	-11.7615
▁proportion	-11.7629
sémina	-11.7634
▁évolua	-11.764
homosexu	-11.7642
apport	-11.7643
trisomie	-11.7647
évaluation	-11.7647
▁complémentaire	-11.7647
▁interviewe	-11.7647
▁nécessité	-11.7647
atterrissage	-11.7647
obligation	-11.7647
▁bertrand	-11.7647
▁construis	-11.7648
▁prédateur	-11.7648
▁repousse	-11.7648
worth	-11.7649
▁cabane	-11.7649
▁résidentiel	-11.765
▁nerf	-11.765
▁galipe	-11.765
wick	-11.765
▁verger	-11.7656
▁contract	-11.7657
▁buck	-11.7659
▁reparti	-11.7661
▁proto	-11.7665
▁espion	-11.7668
▁commis	-11.767
arpent	-11.7675
▁cube	-11.7678
▁hondur	-11.7679
assu	-11.7692
naga	-11.7693
cake	-11.7706
adolescen	-11.7708
assassin	-11.7711
mberg	-11.7713
gram	-11.7719
▁cristal	-11.7725
▁surpris	-11.7726
▁brasse	-11.7729
▁dispers	-11.7736
▁légitim	-11.774
tricolore	-11.774
▁autodidacte	-11.774
▁cylindre	-11.774
▁honoraire	-11.774
▁mélodie	-11.774
▁polémique	-11.774
▁périodique	-11.774
échantillon	-11.774
escrime	-11.774
▁alentour	-11.774
▁réduction	-11.774
▁manager	-11.774
▁facture	-11.774
▁tumul	-11.7742
▁civilisation	-11.7742
▁grenier	-11.7742
▁routier	-11.7744
▁heurt	-11.7744
▁trompette	-11.7746
▁maitre	-11.7748
▁autrichienne	-11.7748
▁peign	-11.7749
▁volley	-11.7749
folk	-11.7751
▁porche	-11.7756
▁tuteur	-11.7757
▁insist	-11.7771
▁appartenan	-11.7771
▁moul	-11.7774
issaient	-11.7787
▁michi	-11.7789
▁peuplé	-11.779
rendez	-11.7802
▁signalé	-11.7809
oiseaux	-11.7819
assurer	-11.7823
▁amélioré	-11.7833
▁condescendan	-11.7833
▁diplomatique	-11.7833
▁dépourvu	-11.7833
▁repoussé	-11.7833
▁reproduit	-11.7833
▁chemise	-11.7833
▁flûte	-11.7833
▁méditation	-11.7833
▁linéaire	-11.7833
▁margaret	-11.7833
▁météore	-11.7834
▁mitigé	-11.7834
▁aimait	-11.7834
villiers	-11.7835
écorce	-11.7836
▁cheville	-11.7839
▁paléo	-11.7842
▁fabri	-11.7845
▁fausse	-11.7848
gosse	-11.7849
ptère	-11.7851
saône	-11.7871
▁brise	-11.7886
book	-11.7898
hydro	-11.7899
▁hugo	-11.7902
envoi	-11.7903
tête	-11.7907
municipal	-11.7913
▁portefeuille	-11.7928
▁restriction	-11.7928
▁scarabée	-11.7928
▁substance	-11.7928
▁textile	-11.7928
▁belgrade	-11.7928
▁stephen	-11.7928
intrigue	-11.7928
▁propag	-11.7928
▁yacht	-11.7928
▁cendre	-11.7928
▁collectionneur	-11.7929
▁muscle	-11.7929
▁géographie	-11.7929
▁paternel	-11.793
▁eliza	-11.793
▁survivr	-11.7938
work	-11.7941
▁collier	-11.7944
▁apparait	-11.7947
▁farce	-11.7948
▁visité	-11.795
▁tribune	-11.7962
▁requin	-11.7967
▁java	-11.7972
▁examin	-11.7974
carpe	-11.7978
▁porc	-11.7988
éviter	-11.7993
▁spirituel	-11.7999
▁connaissai	-11.8006
élec	-11.8014
▁diminue	-11.8015
ogène	-11.802
▁collectivité	-11.8023
▁désespéré	-11.8023
▁promenade	-11.8023
▁wagonnet	-11.8023
affichage	-11.8023
hémisphère	-11.8023
▁réparation	-11.8023
▁dégât	-11.8023
▁débarras	-11.8023
▁délivre	-11.8023
▁transept	-11.8023
▁dégage	-11.8024
▁guichet	-11.8024
arrestation	-11.8024
▁superposer	-11.8024
▁angola	-11.8024
▁sollicit	-11.8025
turgique	-11.8025
▁téléfilm	-11.8026
admission	-11.8034
hésite	-11.8038
▁rejette	-11.8044
cope	-11.8048
avons	-11.8049
▁revend	-11.8055
▁jadi	-11.8055
▁inégal	-11.8057
musulman	-11.809
déjeuner	-11.809
insecte	-11.809
▁chrono	-11.8111
▁desserv	-11.8112
calais	-11.8117
introduction	-11.8119
▁compagne	-11.8119
▁confronté	-11.8119
▁distingué	-11.8119
▁psychiatre	-11.8119
▁spécimen	-11.8119
▁germanique	-11.8119
▁zurich	-11.8119
▁limoges	-11.8119
▁dorsale	-11.812
▁sierra	-11.812
▁chapiteau	-11.812
▁testicule	-11.812
▁poudre	-11.8121
▁viêt	-11.8121
▁siffle	-11.8122
▁consultant	-11.8123
▁permit	-11.8125
▁réaliste	-11.8126
▁islamique	-11.8127
extraction	-11.8127
▁balaye	-11.8127
▁miami	-11.8128
chaud	-11.8143
▁épice	-11.8151
▁iris	-11.8155
employ	-11.8157
omination	-11.8171
▁harris	-11.8172
atteindr	-11.8189
▁arriv	-11.8198
anjou	-11.8204
▁goute	-11.8206
▁concession	-11.8216
▁apostolique	-11.8216
▁conversation	-11.8216
▁intelligent	-11.8216
▁pennsylvani	-11.8216
▁prolifique	-11.8216
▁répertorié	-11.8216
▁vladimir	-11.8216
▁voilier	-11.8216
thérèse	-11.8216
▁sophie	-11.8217
▁coéquipier	-11.8217
alvado	-11.8226
nderson	-11.8228
▁potage	-11.8232
▁revêt	-11.8234
▁garni	-11.8237
▁castr	-11.8245
▁voyelle	-11.8247
▁soupe	-11.8261
commercial	-11.8287
privée	-11.8288
affiche	-11.8288
archéologi	-11.8288
▁alto	-11.8305
▁comprena	-11.8309
institution	-11.8311
▁carrefour	-11.8314
▁coquillage	-11.8314
▁slovénie	-11.8314
▁tchécoslovaqu	-11.8314
▁encadré	-11.8314
▁massachus	-11.8314
▁résoudr	-11.8314
▁saxophone	-11.8314
ordination	-11.8314
▁young	-11.8314
▁cologne	-11.8314
▁lombard	-11.8314
▁patrouille	-11.8314
▁gestation	-11.8315
▁soulève	-11.8316
▁jurer	-11.8316
▁rattache	-11.8318
▁saumon	-11.8318
▁paquet	-11.8319
▁rayure	-11.8321
down	-11.8326
▁scén	-11.8327
▁comporta	-11.833
▁reculer	-11.833
▁bref	-11.8331
centre	-11.8339
▁jalo	-11.8343
éloigne	-11.8348
▁jimm	-11.8353
now	-11.8353
pec	-11.8361
station	-11.8362
▁bog	-11.8384
▁giuseppe	-11.8413
▁philosophique	-11.8413
▁privilégié	-11.8413
▁taylor	-11.8413
▁exercé	-11.8413
▁patronyme	-11.8413
▁contrebasse	-11.8413
▁citerne	-11.8413
▁renouvelé	-11.8414
inscriv	-11.8414
▁configuration	-11.8415
▁colorad	-11.8415
▁cultivé	-11.8415
▁mouillé	-11.8416
▁forfait	-11.8417
autorisation	-11.8418
géologi	-11.8419
▁oscar	-11.842
▁tonneau	-11.8423
bâ	-11.8431
▁blanchi	-11.8446
▁vendée	-11.8447
▁ordonne	-11.8464
▁permettra	-11.8471
▁mino	-11.848
▁tasse	-11.8487
public	-11.8489
christ	-11.8489
▁payé	-11.8495
▁trahi	-11.8496
▁émis	-11.8506
▁sommeil	-11.8512
▁ensoleillé	-11.8513
▁progression	-11.8513
▁publia	-11.8513
▁élaboré	-11.8513
▁dénommé	-11.8513
emblème	-11.8513
▁merveille	-11.8513
▁bétail	-11.8513
▁éventuelle	-11.8513
benoît	-11.8513
emmène	-11.8513
▁opposant	-11.8514
▁heinrich	-11.8514
▁étamine	-11.8514
rôme	-11.8514
▁ultra	-11.8514
▁clark	-11.8515
▁bannière	-11.8516
sorbonne	-11.8516
▁foudre	-11.8517
▁commentaire	-11.8518
▁divinité	-11.8518
▁ruban	-11.8518
▁fibre	-11.8522
▁originelle	-11.8522
▁morgan	-11.8523
▁pompe	-11.8525
▁gamb	-11.8533
▁poing	-11.8536
courrier	-11.8539
▁turque	-11.8544
▁héla	-11.8544
▁corona	-11.8554
▁correcte	-11.856
▁appare	-11.8562
▁impérial	-11.8578
▁constate	-11.8582
ishi	-11.8583
tension	-11.8589
athlète	-11.859
ocène	-11.8594
▁turk	-11.8595
charles	-11.8605
▁sembla	-11.8609
▁suffi	-11.8614
▁expulsé	-11.8614
▁pantalon	-11.8614
▁récupère	-11.8614
▁triangulaire	-11.8614
▁exerça	-11.8614
▁hamilton	-11.8614
▁jaunâtre	-11.8614
▁minorité	-11.8614
▁consultation	-11.8614
▁forestier	-11.8614
▁aquatique	-11.8615
▁ventrale	-11.8615
▁dublin	-11.8615
▁népal	-11.8615
▁combiné	-11.8615
▁prospère	-11.8615
attribution	-11.8616
▁brasserie	-11.8617
▁distill	-11.8617
ambiance	-11.8617
▁écrivi	-11.8618
▁poumon	-11.8618
▁segment	-11.8619
▁kiev	-11.8619
▁formateur	-11.8625
▁jarre	-11.8627
▁talon	-11.8628
andro	-11.8637
▁prépara	-11.8638
▁lâche	-11.8641
▁bug	-11.8669
potable	-11.8669
▁aborde	-11.8681
démocrate	-11.8693
français	-11.8694
aragon	-11.8697
maintenance	-11.8698
▁wild	-11.8715
infirmière	-11.8716
▁aquarium	-11.8716
▁bouddha	-11.8716
▁columbia	-11.8716
▁diagnostic	-11.8716
▁fantastique	-11.8716
▁reflète	-11.8716
▁spectre	-11.8716
▁groenland	-11.8716
▁planning	-11.8716
▁magicien	-11.8716
▁néolithique	-11.8717
▁apparenté	-11.8717
▁flandre	-11.8718
▁guyane	-11.8718
▁géologique	-11.8718
▁greff	-11.872
▁palette	-11.8724
eizième	-11.873
hôte	-11.8742
▁préservé	-11.8743
▁douve	-11.8749
baï	-11.8753
▁chaine	-11.8753
▁partition	-11.8754
born	-11.8763
▁revoi	-11.8773
linois	-11.8786
▁harpe	-11.8786
▁santo	-11.8795
retourner	-11.8798
occidentale	-11.88
habitant	-11.8801
métier	-11.8806
geneviève	-11.8819
▁douzaine	-11.8819
▁mathieu	-11.8819
▁onzième	-11.8819
▁biéloruss	-11.8819
▁bologne	-11.8819
▁renvoyé	-11.8819
nonciation	-11.8819
▁ampoule	-11.8819
▁chahut	-11.882
▁carafe	-11.882
▁inventé	-11.882
▁accompagnante	-11.882
▁gisement	-11.882
▁constantinop	-11.8821
▁arène	-11.8821
▁vocab	-11.8823
siège	-11.8828
▁surnommé	-11.8831
estomac	-11.8834
▁express	-11.8835
▁taxe	-11.8837
▁accepta	-11.8841
feu	-11.8843
petit	-11.8869
▁cardi	-11.8885
espoir	-11.8903
impact	-11.8903
▁maternel	-11.8907
seigneur	-11.8912
▁hub	-11.8915
inflorescence	-11.8924
▁communautaire	-11.8924
▁gymnase	-11.8924
▁restreint	-11.8924
▁sommaire	-11.8924
▁tubercul	-11.8924
▁éliminatoire	-11.8924
▁récréation	-11.8924
▁pouvons	-11.8924
▁chauffag	-11.8924
▁comparable	-11.8924
▁plantation	-11.8924
▁valentin	-11.8926
▁brill	-11.8926
approuv	-11.8927
▁ouvrière	-11.8927
▁lointain	-11.8928
▁gorille	-11.8929
▁milite	-11.8931
▁sentait	-11.8931
▁module	-11.8933
▁laïc	-11.8937
▁alimente	-11.8939
▁reconnaître	-11.8941
▁formant	-11.8945
▁spirituelle	-11.895
mineure	-11.8953
▁senti	-11.8953
▁dangereuse	-11.8954
▁cadette	-11.8957
posture	-11.8961
▁épaisse	-11.8962
▁germe	-11.8978
▁provienne	-11.8979
aussi	-11.8982
habitat	-11.9005
financière	-11.9009
colonisation	-11.9014
▁criminel	-11.9015
gawa	-11.9027
▁autochtone	-11.9029
▁bêtise	-11.9029
▁leipzig	-11.9029
▁synonyme	-11.9029
▁développa	-11.9029
▁hollandais	-11.9029
thèque	-11.9029
▁kiosque	-11.9029
▁mercure	-11.9029
▁cabaret	-11.9029
▁hospitalier	-11.9029
▁lisbonne	-11.9029
▁orbite	-11.9029
american	-11.9029
▁bourgeon	-11.9029
▁charmant	-11.903
▁charente	-11.903
èdre	-11.9032
▁basketteur	-11.9032
▁rituel	-11.9033
▁renouvelle	-11.9036
▁bandur	-11.904
ologiste	-11.9048
▁crém	-11.9076
▁veste	-11.9086
vienne	-11.9092
▁distribu	-11.9092
extr	-11.9096
▁constituant	-11.9104
rovision	-11.9117
enregistr	-11.912
zhou	-11.9126
▁pipe	-11.9129
▁émerge	-11.9133
▁montgolfi	-11.9135
▁partenariat	-11.9135
▁récurrent	-11.9135
▁rénovation	-11.9135
▁suppression	-11.9135
▁priorité	-11.9135
▁sauvegarde	-11.9135
▁négociant	-11.9135
approvisionne	-11.9135
▁exprimé	-11.9135
▁afro	-11.9136
▁frappa	-11.9137
donnait	-11.9137
▁radiographie	-11.9138
▁corbeau	-11.914
▁rempart	-11.914
▁frotte	-11.9142
▁hurle	-11.9143
electr	-11.9144
▁krist	-11.9148
▁cristallin	-11.9154
▁fatal	-11.9155
▁retenti	-11.9157
▁récupérer	-11.9163
▁bloque	-11.9178
arsena	-11.9182
organisme	-11.9234
exploration	-11.9243
pédagogue	-11.9243
▁budapest	-11.9243
▁décisive	-11.9243
▁homonyme	-11.9243
▁imposant	-11.9243
▁marionnette	-11.9243
▁nicaragua	-11.9243
▁obsession	-11.9243
▁suffrage	-11.9243
▁coquille	-11.9243
▁donjon	-11.9243
▁signification	-11.9243
▁arnaud	-11.9243
affaibli	-11.9243
▁voûté	-11.9243
▁dolmen	-11.9243
▁géométrie	-11.9243
▁duchesse	-11.9243
▁sibérie	-11.9243
▁supermarché	-11.9243
▁hélène	-11.9243
▁quête	-11.9244
▁chameau	-11.9245
▁bassiste	-11.9245
▁gérer	-11.9247
▁coopération	-11.9253
▁salade	-11.9253
▁palmier	-11.926
▁physio	-11.9265
▁manufactur	-11.9266
▁querelle	-11.927
▁faciliter	-11.9271
▁minière	-11.9273
▁mire	-11.9278
▁show	-11.9279
▁fourche	-11.9291
inquiét	-11.9303
indiana	-11.931
philippe	-11.9335
▁rentré	-11.9336
emprunt	-11.9336
vincent	-11.934
▁petro	-11.9345
inauguration	-11.9352
▁anthony	-11.9352
▁baraquement	-11.9352
▁bonaparte	-11.9352
▁diplomate	-11.9352
▁incapable	-11.9352
▁mohamed	-11.9352
▁mosaïque	-11.9352
▁paupière	-11.9352
▁héracl	-11.9352
▁rongeur	-11.9352
▁accusation	-11.9352
▁poupée	-11.9352
acoustique	-11.9352
accouchement	-11.9352
▁tchad	-11.9352
▁rénové	-11.9352
▁amusant	-11.9352
▁compact	-11.9352
▁stabilis	-11.9353
▁résolution	-11.9353
▁décoratif	-11.9354
▁ovale	-11.9355
▁âne	-11.9355
▁poney	-11.9356
▁scout	-11.9357
identifier	-11.9371
▁craign	-11.9373
▁gland	-11.9384
▁crédité	-11.9385
elberg	-11.9422
groupe	-11.9443
soutien	-11.9447
▁mystérieu	-11.9452
▁flu	-11.9454
▁besançon	-11.9461
▁recruté	-11.9461
▁robuste	-11.9461
▁supposé	-11.9461
▁milliard	-11.9461
▁réplique	-11.9461
appropri	-11.9461
▁pommier	-11.9462
▁concentré	-11.9462
▁tronçon	-11.9462
marché	-11.9462
▁cuisse	-11.9464
implantation	-11.9465
▁pedro	-11.9465
▁voila	-11.9465
▁volont	-11.9467
annie	-11.9467
▁devance	-11.9467
▁cidre	-11.9468
▁artificielle	-11.9479
ttonie	-11.9481
▁censé	-11.9487
paraissait	-11.9488
geois	-11.9493
▁secoue	-11.9501
▁sculpt	-11.9506
▁tenté	-11.9508
▁parfumer	-11.9516
utilis	-11.9516
plat	-11.9525
▁comique	-11.9542
▁insuffisa	-11.955
▁minne	-11.9556
▁causé	-11.9556
▁cigare	-11.9564
▁renouv	-11.9572
▁protecteur	-11.9572
▁arbuste	-11.9573
▁bouddhiste	-11.9573
▁consécutif	-11.9573
▁corporation	-11.9573
▁déshabillé	-11.9573
▁fraîche	-11.9573
inquiète	-11.9573
▁traducteur	-11.9573
▁mêlé	-11.9573
▁mexico	-11.9573
▁étiquette	-11.9573
calédonie	-11.9573
▁sûreté	-11.9573
▁cogner	-11.9573
hétéro	-11.9574
openha	-11.9574
secour	-11.9574
▁revendique	-11.9574
▁juré	-11.9578
▁satisfai	-11.9585
opposa	-11.9589
▁sépar	-11.9592
▁étable	-11.9593
▁state	-11.9599
▁présentateur	-11.9603
cock	-11.9615
hampton	-11.9631
▁blesse	-11.9639
iversité	-11.9648
quentin	-11.9661
▁réconcili	-11.9685
▁catholic	-11.9685
▁congressiste	-11.9685
▁cylindrique	-11.9685
▁incorporé	-11.9685
▁nîmes	-11.9685
▁redoutable	-11.9685
▁suppléant	-11.9685
▁traîner	-11.9685
▁comestible	-11.9685
▁coloration	-11.9685
▁spring	-11.9685
icône	-11.9685
▁poignet	-11.9685
▁nigeria	-11.9685
▁habile	-11.9686
▁viaduc	-11.9686
▁sécheresse	-11.9686
▁armand	-11.9687
▁mythe	-11.9687
▁tisser	-11.9689
osaur	-11.9701
▁subsist	-11.9763
nouvelle	-11.9783
▁disposai	-11.9785
▁latéral	-11.9786
fête	-11.9788
souris	-11.9789
▁confus	-11.9796
intéressa	-11.9798
astéroïde	-11.9798
enthousiasme	-11.9798
▁accessoire	-11.9798
▁comptoir	-11.9798
▁inauguré	-11.9798
▁peloton	-11.9798
▁silencieu	-11.9798
▁négative	-11.9799
▁crampe	-11.9799
▁rappeur	-11.9799
▁recommenc	-11.9799
▁canapé	-11.9799
▁beurre	-11.9799
▁tragique	-11.98
▁badger	-11.9801
▁francfort	-11.9801
▁manchester	-11.9803
▁densité	-11.9804
▁coulé	-11.9824
astronomie	-11.9834
▁mauri	-11.9837
▁averti	-11.9855
▁hérite	-11.9859
zélandais	-11.9866
▁remonta	-11.9879
▁lionel	-11.9894
▁raj	-11.9896
dominicaine	-11.9899
podes	-11.9903
olive	-11.9903
atmosphère	-11.9904
grenouille	-11.9904
papier	-11.9904
couleur	-11.9904
extension	-11.9905
région	-11.9905
champion	-11.991
▁biblio	-11.9913
▁beethov	-11.9913
▁conférencier	-11.9913
▁esquimau	-11.9913
▁félicitation	-11.9913
▁législation	-11.9913
▁papouasie	-11.9913
▁ridiculise	-11.9913
▁rébellion	-11.9913
▁symptôme	-11.9913
▁world	-11.9913
borough	-11.9913
▁cricket	-11.9913
▁pseudo	-11.9914
ampleur	-11.9914
▁somalie	-11.9914
▁tolérance	-11.9915
▁trouvaient	-11.9915
accordéon	-11.9918
▁chancelier	-11.9918
mettant	-11.9918
lithique	-11.9919
▁faudrait	-11.9922
▁mystérieuse	-11.9923
▁enfermé	-11.9934
▁east	-11.9935
▁rosier	-11.9938
space	-11.9939
▁homosexuel	-11.9953
▁bretonne	-11.9965
▁attendu	-11.9974
méridionale	-12.0013
hypothèse	-12.0021
bronze	-12.0021
▁apprenti	-12.003
▁armoirie	-12.003
▁dépassé	-12.003
▁reconnaissable	-12.003
▁élastique	-12.003
▁démarre	-12.003
▁augmenté	-12.003
▁émérit	-12.003
▁mathild	-12.003
▁discuté	-12.003
identification	-12.003
▁creusé	-12.003
ingénier	-12.0031
▁sanguin	-12.0031
▁compare	-12.0031
▁guyana	-12.0033
▁jonath	-12.0033
▁fribourg	-12.0034
▁clerc	-12.0035
▁soudan	-12.0036
dôme	-12.004
▁fauve	-12.0041
▁couché	-12.0042
▁salut	-12.0047
▁inquiéte	-12.006
éclairage	-12.006
▁sévill	-12.0065
version	-12.0078
object	-12.0078
hébreu	-12.008
bourne	-12.0085
▁médiéval	-12.0107
▁barreau	-12.0109
investit	-12.0126
board	-12.0128
mobilier	-12.0139
autoroute	-12.014
original	-12.014
▁bénédictin	-12.0147
▁cercueil	-12.0147
▁cuisinier	-12.0147
▁cépage	-12.0147
▁décollage	-12.0147
▁herbivore	-12.0147
▁physicien	-12.0147
▁vengeance	-12.0147
▁donald	-12.0147
▁cavité	-12.0147
agrément	-12.015
▁folie	-12.015
viendront	-12.0151
▁mesura	-12.0151
▁chassé	-12.0156
▁nourri	-12.0157
▁timo	-12.0158
▁emprunte	-12.0164
anthropologi	-12.0167
▁australienne	-12.017
▁heid	-12.0184
▁regret	-12.019
▁gasco	-12.0203
phén	-12.0218
▁cultiv	-12.0224
▁origina	-12.0229
évidence	-12.0255
▁tunisien	-12.0259
intermédiaire	-12.0261
horizon	-12.0261
ukraine	-12.0261
château	-12.0261
essuyer	-12.0266
élimination	-12.0266
▁léopold	-12.0266
▁répliqua	-12.0266
▁syndrome	-12.0266
▁narrateur	-12.0266
▁impressionnant	-12.0266
▁bambou	-12.0266
▁remanié	-12.0266
impératrice	-12.0267
▁découpé	-12.0267
▁certitude	-12.0267
▁cumul	-12.0268
▁prusse	-12.0269
▁pignon	-12.027
▁buffet	-12.027
▁grappe	-12.0271
▁mèche	-12.0273
▁consulat	-12.0276
▁broder	-12.0295
▁poire	-12.0299
▁arist	-12.0314
équit	-12.034
▁énorm	-12.0367
jardin	-12.0383
cardiaque	-12.0383
fruits	-12.0383
gothique	-12.0383
adhésion	-12.0387
▁approximative	-12.0387
▁bouddhisme	-12.0387
▁compromis	-12.0387
▁conçoi	-12.0387
▁crustacés	-12.0387
▁doctrine	-12.0387
▁matthew	-12.0387
▁minimum	-12.0387
▁provoqué	-12.0387
▁néglige	-12.0387
▁anglophone	-12.0387
▁rayonnement	-12.0387
▁ajuster	-12.0387
assistance	-12.0387
▁bruyant	-12.0387
▁déclara	-12.0387
▁entretenu	-12.0387
▁howard	-12.0389
▁plaisant	-12.0389
informa	-12.039
▁maximale	-12.0394
▁venaient	-12.0397
▁complot	-12.0405
▁violoniste	-12.0406
équate	-12.043
▁harv	-12.0456
gratuitement	-12.0459
▁répand	-12.0459
aérienne	-12.0503
astronome	-12.0506
uruguay	-12.0506
expert	-12.0506
accessible	-12.0507
scandinave	-12.0509
étymologie	-12.0509
▁démocratie	-12.0509
▁législatif	-12.0509
▁posséder	-12.0509
▁précède	-12.0509
▁randonneur	-12.0509
éliminer	-12.0509
écluse	-12.0509
▁géométrique	-12.0509
▁dégradé	-12.0509
▁jacquelin	-12.0509
▁ancre	-12.0509
▁arrangement	-12.051
▁patinoire	-12.051
▁tampon	-12.051
▁helena	-12.051
▁épave	-12.051
▁rebond	-12.051
▁ruiné	-12.051
▁préhistorique	-12.0511
▁pékin	-12.0512
▁retira	-12.0514
▁punk	-12.0514
▁reviendra	-12.0515
▁torrent	-12.0517
▁cassé	-12.0518
▁hubert	-12.0518
▁alpiniste	-12.0519
▁navigateur	-12.052
▁habitations	-12.0522
▁dominicain	-12.0524
▁santia	-12.0529
▁climatique	-12.0552
ovitch	-12.0599
▁différe	-12.0609
▁permanen	-12.0611
kawa	-12.0615
sécurité	-12.0631
rapprocher	-12.0632
approfondi	-12.0632
▁confédération	-12.0632
▁crocodile	-12.0632
▁théâtrale	-12.0632
▁paysagiste	-12.0632
▁reportage	-12.0632
animité	-12.0632
▁relatif	-12.0632
▁tabac	-12.0632
équatoriale	-12.0632
épaule	-12.0632
▁paramètre	-12.0633
▁confident	-12.0633
▁saturn	-12.0633
▁academ	-12.0633
▁bueno	-12.0633
▁citation	-12.0633
épée	-12.0634
▁photographique	-12.0634
▁veuf	-12.0634
▁baronnie	-12.0634
éthique	-12.0634
▁hermann	-12.0635
▁ressenti	-12.0636
▁comète	-12.0636
▁havre	-12.0637
▁tibet	-12.0639
▁vieillesse	-12.0639
colonel	-12.0644
▁investigu	-12.0646
▁instituteur	-12.0647
ncia	-12.0655
▁océanique	-12.0659
▁accompagna	-12.0667
▁transmet	-12.0678
▁pêch	-12.0716
▁galic	-12.0749
excellence	-12.0757
helsinki	-12.0757
▁accoucheuse	-12.0757
▁lincoln	-12.0757
▁menhir	-12.0757
▁naturaliste	-12.0757
▁singulier	-12.0757
aquitaine	-12.0757
▁poitiers	-12.0757
▁initié	-12.0757
▁promesse	-12.0757
▁progresse	-12.0757
▁plumage	-12.0757
▁tanzanie	-12.0757
hawaï	-12.0758
▁violoncelle	-12.0758
examen	-12.0758
évêché	-12.0758
▁adhère	-12.0758
▁sédiment	-12.0758
▁référ	-12.0758
algorithme	-12.0758
fontaine	-12.0758
▁complice	-12.0759
▁pablo	-12.0759
▁renault	-12.076
▁ardent	-12.076
▁girond	-12.0761
▁approuvé	-12.0762
intervalle	-12.0762
▁spirit	-12.0762
▁fuji	-12.0762
▁location	-12.0767
▁salué	-12.0769
▁nappe	-12.077
▁catch	-12.0774
▁buff	-12.0787
▁gallois	-12.0813
▁provincial	-12.0816
hexa	-12.0835
▁exceptionnel	-12.0857
disciplinaire	-12.0884
▁bulgare	-12.0884
▁conviction	-12.0884
▁célébrité	-12.0884
▁entertainment	-12.0884
▁menuisier	-12.0884
▁répression	-12.0884
▁danube	-12.0884
▁détention	-12.0884
▁moutarde	-12.0884
▁posthume	-12.0884
▁sinistre	-12.0884
cérébral	-12.0884
▁perçu	-12.0884
▁renvoie	-12.0884
▁romancier	-12.0884
▁comparaison	-12.0884
▁gaulois	-12.0884
▁charpente	-12.0884
▁gueule	-12.0884
mutilation	-12.0884
▁souple	-12.0884
maternelle	-12.0886
chambre	-12.0886
▁fogg	-12.0886
▁vœu	-12.0888
▁ramène	-12.0888
▁truite	-12.0888
▁ryan	-12.0892
▁artisans	-12.0892
▁vicaire	-12.0892
▁torture	-12.0893
▁proportionnel	-12.0909
alpes	-12.0924
▁serré	-12.0924
étonne	-12.0924
évade	-12.0932
▁mongol	-12.0959
▁spécia	-12.096
▁certe	-12.0969
écologi	-12.0982
▁structur	-12.0983
phérique	-12.1012
angoulême	-12.1012
explorateur	-12.1012
▁astronomique	-12.1012
▁bristol	-12.1012
▁cambriolage	-12.1012
▁confrontation	-12.1012
▁expérimente	-12.1012
▁flanqué	-12.1012
▁hiérarchie	-12.1012
▁locuteur	-12.1012
▁sacristie	-12.1012
▁stockholm	-12.1012
couvercle	-12.1012
▁cellulaire	-12.1012
orthographe	-12.1012
▁inhabité	-12.1012
▁ambition	-12.1012
▁salomon	-12.1012
▁emmené	-12.1012
▁soyez	-12.1012
▁rigide	-12.1012
▁nelson	-12.1013
▁pluriel	-12.1013
▁attesté	-12.1013
▁condens	-12.1013
▁conversion	-12.1015
aqueduc	-12.1015
antiaérien	-12.1016
inspecteur	-12.1016
▁transaction	-12.1017
▁ravage	-12.1019
▁privat	-12.102
▁accuse	-12.1036
insigne	-12.1049
sicile	-12.1049
▁virgini	-12.1049
vasculaire	-12.1052
▁ainé	-12.1068
▁dépose	-12.1085
▁gagna	-12.1085
hild	-12.1121
▁créativ	-12.114
▁bailliage	-12.1142
▁macédoine	-12.1142
▁marécage	-12.1142
▁technicien	-12.1142
▁horrible	-12.1142
▁plâtre	-12.1142
▁ébloui	-12.1142
▁hindou	-12.1142
▁mozart	-12.1142
▁démographique	-12.1142
▁crèche	-12.1142
▁concile	-12.1142
▁réchauffe	-12.1143
▁naviguer	-12.1143
▁devinette	-12.1143
istanbul	-12.1144
▁végétarien	-12.1146
assistant	-12.1148
▁titan	-12.1151
▁décriv	-12.1153
plein	-12.1161
▁susan	-12.1164
impér	-12.1189
hésita	-12.121
rôle	-12.1216
▁réfléchi	-12.1222
foraine	-12.1232
▁tropical	-12.1258
administr	-12.1264
▁atterri	-12.1274
▁compliqué	-12.1274
▁curiosité	-12.1274
▁humoristique	-12.1274
▁légendaire	-12.1274
▁prostitution	-12.1274
▁technologique	-12.1274
▁échappé	-12.1274
atlanta	-12.1274
ottawa	-12.1274
▁préalable	-12.1274
économiste	-12.1274
▁cône	-12.1274
évangélis	-12.1274
inquiétude	-12.1274
▁farouche	-12.1275
▁psychologue	-12.1275
▁connexion	-12.1275
▁munition	-12.1276
ncouver	-12.1276
▁compan	-12.1277
▁libéraux	-12.1277
▁honore	-12.1278
imitation	-12.128
▁périphérique	-12.128
tchèque	-12.1281
maurice	-12.1281
audience	-12.1281
▁avancé	-12.1282
abondance	-12.1302
▁xian	-12.1316
▁contempl	-12.1319
▁souligne	-12.1352
▁regrette	-12.1359
oust	-12.1396
opérateur	-12.1407
▁aventurier	-12.1407
▁carnassier	-12.1407
▁cloître	-12.1407
▁corruption	-12.1407
▁libraire	-12.1407
▁locomotive	-12.1407
▁projecteur	-12.1407
▁significatif	-12.1407
▁stadium	-12.1407
intensité	-12.1407
▁abstrait	-12.1407
▁boulogne	-12.1407
▁poursuive	-12.1407
ivresse	-12.1407
▁caricatur	-12.1407
▁tactique	-12.1407
▁souscrit	-12.1407
épargne	-12.1407
▁pivot	-12.1407
▁general	-12.1407
▁ethnique	-12.1408
▁conclusion	-12.1408
étirer	-12.1408
▁eduard	-12.1408
▁choquer	-12.1408
entraineur	-12.141
▁pietro	-12.141
▁warner	-12.1411
interprète	-12.1416
sauveur	-12.1417
effort	-12.1418
▁adrien	-12.142
personn	-12.1431
humidit	-12.1439
▁chouch	-12.1442
initie	-12.1444
utilité	-12.1449
▁gaull	-12.1469
▁vérifie	-12.1493
▁comportai	-12.1526
▁antérieur	-12.1532
aéronautique	-12.1542
▁célébration	-12.1542
▁faillite	-12.1542
▁hostile	-12.1542
▁mémorial	-12.1542
▁offensif	-12.1542
▁éclipse	-12.1542
▁évacué	-12.1542
▁répétition	-12.1542
esclavage	-12.1542
▁châssis	-12.1542
▁croyez	-12.1542
▁théodore	-12.1542
▁douglas	-12.1542
▁inattendu	-12.1542
▁emporté	-12.1542
▁nathali	-12.1542
▁tolède	-12.1542
▁dressé	-12.1543
▁préférence	-12.1543
▁immobile	-12.1544
▁trahison	-12.1545
▁athée	-12.1545
▁minerai	-12.1547
froid	-12.1548
▁pèse	-12.1548
▁innocent	-12.1549
▁redevien	-12.1551
britannique	-12.1553
accessi	-12.1558
▁charlie	-12.1561
▁sceau	-12.1581
abouti	-12.1622
postale	-12.1629
pétit	-12.1645
garonn	-12.1648
▁stimul	-12.1649
allant	-12.166
insurrection	-12.1679
▁astronaute	-12.1679
▁challenge	-12.1679
▁gouffre	-12.1679
▁irrégulière	-12.1679
▁productrice	-12.1679
▁spectaculaire	-12.1679
▁susceptible	-12.1679
elisabeth	-12.1679
▁rigoureu	-12.1679
▁mutuelle	-12.1679
▁prenez	-12.1679
▁arménienne	-12.1679
▁coutume	-12.1679
▁tapisserie	-12.1679
▁ahmed	-12.1679
▁louisiane	-12.1679
▁louvain	-12.1679
abîme	-12.1679
▁employeur	-12.1679
▁mûr	-12.1679
▁salvador	-12.1679
prudence	-12.1679
▁entraîna	-12.168
▁septentrionale	-12.168
▁stanley	-12.1681
▁évoluai	-12.169
plastique	-12.1692
téléphone	-12.1692
▁disposa	-12.1696
cycle	-12.1697
▁kansa	-12.1761
éleva	-12.1791
▁terroris	-12.181
ascendance	-12.1818
hébraïque	-12.1818
illustrateur	-12.1818
paralympique	-12.1818
▁agrégé	-12.1818
▁désaffecté	-12.1818
▁jumelée	-12.1818
▁ludwig	-12.1818
▁misérable	-12.1818
▁monolithe	-12.1818
▁moustache	-12.1818
▁primitive	-12.1818
▁récepteur	-12.1818
▁réprimande	-12.1818
▁énergétique	-12.1818
imprimerie	-12.1818
▁disparaisse	-12.1818
▁dépouille	-12.1818
▁vêtu	-12.1818
imprimeur	-12.1818
▁clarté	-12.1818
▁pelote	-12.1818
▁accrocher	-12.1819
▁soupir	-12.1819
▁immerge	-12.1819
▁lesbienne	-12.1821
▁prussien	-12.1822
▁médiatique	-12.1823
▁gonz	-12.1826
▁verdun	-12.183
insulte	-12.183
exemplaire	-12.1833
indonésie	-12.1833
▁déroula	-12.1853
bancaire	-12.1864
▁feder	-12.1881
▁harber	-12.1915
flott	-12.194
aimerais	-12.1941
▁tétra	-12.1957
accroît	-12.1959
▁anarchiste	-12.1959
▁confédéré	-12.1959
▁législature	-12.1959
▁syllabe	-12.1959
▁windows	-12.1959
▁youtube	-12.1959
▁alphabétique	-12.1959
▁fonctionnalité	-12.1959
▁fluvial	-12.1959
▁pharaon	-12.1959
▁barbier	-12.1959
▁siégea	-12.1959
▁lambert	-12.196
▁symétrique	-12.196
▁lyrique	-12.196
▁bahama	-12.196
▁firme	-12.196
anatomi	-12.196
▁dresde	-12.1961
▁promis	-12.1962
alaska	-12.1972
édouard	-12.1975
inscription	-12.1975
amplifi	-12.1979
allonge	-12.1985
▁assume	-12.1992
azzo	-12.2033
▁triomph	-12.2043
éloge	-12.2051
obtien	-12.2073
sinon	-12.2086
ensuiv	-12.2091
▁occidenta	-12.2096
▁clarinette	-12.2102
▁dissolution	-12.2102
▁divorcé	-12.2102
▁délimité	-12.2102
▁hôpitaux	-12.2102
▁infidèle	-12.2102
▁plaisance	-12.2102
▁polytechnique	-12.2102
▁recommandé	-12.2102
▁suffragant	-12.2102
▁écrasé	-12.2102
▁suzanne	-12.2102
▁réédité	-12.2102
▁adepte	-12.2102
▁fratrie	-12.2102
héroïne	-12.2102
▁phoque	-12.2102
▁clown	-12.2102
▁monastique	-12.2102
▁sanitaire	-12.2102
eugénie	-12.2102
▁bosquet	-12.2102
▁godfre	-12.2102
▁pontifica	-12.2102
▁baleine	-12.2102
pogée	-12.2102
▁immobilier	-12.2102
▁comptable	-12.2103
▁consonne	-12.2103
escadron	-12.2103
agenouill	-12.2105
▁emprunté	-12.2105
▁marshal	-12.2108
augmenter	-12.2121
programme	-12.2122
▁lénin	-12.2123
▁diversifié	-12.217
accompagn	-12.2181
expérimentation	-12.2186
guerran	-12.219
▁déguise	-12.2214
▁artificiel	-12.2223
▁confirm	-12.2235
▁révéla	-12.2245
▁barbican	-12.2247
▁huître	-12.2247
▁incendié	-12.2247
▁plongée	-12.2247
▁problématique	-12.2247
▁sorcier	-12.2247
▁spontané	-12.2247
▁éventail	-12.2247
orfèvre	-12.2247
▁jouxte	-12.2247
▁taxon	-12.2247
▁exporté	-12.2247
▁torturé	-12.2247
▁mystique	-12.2247
angoisse	-12.2247
▁justifie	-12.2247
▁parution	-12.2248
▁doroth	-12.2248
▁remix	-12.2249
▁mesuré	-12.2264
exerce	-12.2268
rivière	-12.2268
zoologique	-12.2331
kirch	-12.2353
innocen	-12.2387
hippolyte	-12.2394
▁adjacent	-12.2394
▁balnéaire	-12.2394
▁condamnation	-12.2394
▁condamne	-12.2394
▁côtoie	-12.2394
▁gouttière	-12.2394
▁incarcéré	-12.2394
▁mollusque	-12.2394
▁moïse	-12.2394
▁souffrant	-12.2394
▁sécession	-12.2394
▁évalué	-12.2394
▁arnold	-12.2394
▁google	-12.2394
embarcation	-12.2394
▁hitler	-12.2394
▁ernst	-12.2394
▁indigent	-12.2394
▁égoutter	-12.2394
▁racheté	-12.2394
▁troyes	-12.2394
▁josef	-12.2394
▁préparatoire	-12.2394
▁prouvé	-12.2394
▁wilaya	-12.2394
▁crawl	-12.2394
▁stuart	-12.2394
▁déficit	-12.2395
hymne	-12.2395
▁démontré	-12.2395
▁celtique	-12.2396
erreur	-12.2396
▁séduit	-12.2397
▁techno	-12.2401
▁edmond	-12.2407
escadre	-12.2412
obsè	-12.2413
elena	-12.2417
agnol	-12.2448
▁souffl	-12.2487
▁explore	-12.2491
mple	-12.25
▁recense	-12.2511
soif	-12.2536
vangile	-12.2541
thérapeutique	-12.2543
▁assimilé	-12.2543
▁bénéfice	-12.2543
▁flexible	-12.2543
▁fluctuation	-12.2543
▁programmé	-12.2543
▁précaution	-12.2543
▁pâtisserie	-12.2543
▁regroupa	-12.2543
▁tragédie	-12.2543
▁corniche	-12.2543
▁rafael	-12.2543
▁matelot	-12.2543
▁theodor	-12.2543
▁retrace	-12.2543
▁neutrali	-12.2543
▁fertile	-12.2543
▁féodal	-12.2543
▁accomplissement	-12.2543
▁padoue	-12.2543
héritière	-12.2544
▁applaudir	-12.2544
▁détourne	-12.2544
▁désespoir	-12.2544
▁révélation	-12.2544
▁clientèle	-12.2544
▁prenait	-12.2545
escorte	-12.2545
▁concord	-12.2545
▁virtuel	-12.2549
▁administre	-12.2555
▁hobs	-12.2555
▁attira	-12.2566
éteint	-12.2568
exclu	-12.2568
islande	-12.2569
oxygène	-12.2569
▁jenni	-12.2575
ermite	-12.2598
leigh	-12.2643
▁gouverne	-12.2654
implant	-12.2694
inflammation	-12.2694
énigme	-12.2694
▁complication	-12.2694
▁inhabituel	-12.2694
▁mississippi	-12.2694
▁médiocre	-12.2694
▁perpignan	-12.2694
▁powiat	-12.2694
▁cofondateur	-12.2694
▁effectua	-12.2694
▁campbell	-12.2694
▁cordonnier	-12.2694
▁scanner	-12.2694
▁routière	-12.2694
▁récif	-12.2694
▁vigoureu	-12.2695
▁paisible	-12.2695
▁recensé	-12.2695
▁présidentielle	-12.2695
▁réformé	-12.2695
▁consolid	-12.2695
▁crédule	-12.2695
vosges	-12.2695
▁spécul	-12.2696
avança	-12.2696
▁atome	-12.2696
raquette	-12.2696
▁intégrant	-12.2696
▁fluide	-12.2698
▁métis	-12.271
▁aspire	-12.272
escalade	-12.2722
cercle	-12.2724
▁familia	-12.2736
ethnie	-12.2737
▁valérie	-12.2811
▁rallie	-12.2816
▁jacqu	-12.2837
quisition	-12.2846
cohérence	-12.2848
▁bibliothécaire	-12.2848
▁chômeur	-12.2848
▁confrérie	-12.2848
▁couturière	-12.2848
▁crépuscule	-12.2848
▁diminué	-12.2848
▁exhaustive	-12.2848
▁membrane	-12.2848
▁mickey	-12.2848
▁perception	-12.2848
▁possédant	-12.2848
▁privilège	-12.2848
▁sensibilité	-12.2848
▁valenciennes	-12.2848
▁céleste	-12.2848
▁muséum	-12.2848
▁répète	-12.2848
▁marathon	-12.2848
▁bûche	-12.2848
▁bouleverse	-12.2848
▁assiette	-12.2848
▁injecter	-12.2848
▁consacra	-12.2848
antisémit	-12.2848
▁nymph	-12.2848
▁societ	-12.2848
▁miguel	-12.2848
▁little	-12.2848
évasion	-12.2849
médico	-12.2849
andorre	-12.2849
▁western	-12.285
▁réfère	-12.285
▁faisceau	-12.2851
▁carthag	-12.2851
▁surplombe	-12.2852
▁libye	-12.2855
hydrogène	-12.2866
humo	-12.2875
héritier	-12.2878
enseignant	-12.2878
estuaire	-12.2895
▁admet	-12.2925
▁paléontolog	-12.2988
épilepsie	-12.3004
▁désagréable	-12.3004
▁irrégulier	-12.3004
▁mensonge	-12.3004
▁perroquet	-12.3004
▁probabilité	-12.3004
▁rebaptisé	-12.3004
▁recommande	-12.3004
▁satisfaction	-12.3004
▁souffrance	-12.3004
▁échangé	-12.3004
▁reconduit	-12.3004
▁subvention	-12.3004
▁fourrure	-12.3005
▁déploie	-12.3005
▁tutelle	-12.3005
▁orangé	-12.3005
▁sauvetage	-12.3005
▁compté	-12.3005
▁sanglant	-12.3006
▁détente	-12.3008
oyauté	-12.3009
▁propagand	-12.3009
▁terrien	-12.3016
▁pardonne	-12.3017
▁pratiqu	-12.302
excellent	-12.3037
alfred	-12.3037
▁gigantesque	-12.3163
▁hydraulique	-12.3163
▁liechtenstein	-12.3163
▁millénaire	-12.3163
▁médaillé	-12.3163
▁parenthèse	-12.3163
▁redescend	-12.3163
▁sylvain	-12.3163
▁symphonie	-12.3163
▁botaniste	-12.3163
▁hybride	-12.3163
▁parachute	-12.3163
▁seattle	-12.3163
grégoire	-12.3163
▁chaussette	-12.3163
▁policière	-12.3163
▁procède	-12.3163
▁électeur	-12.3163
▁aléatoire	-12.3163
▁prestige	-12.3163
▁simplic	-12.3163
▁élégant	-12.3163
▁épingle	-12.3163
▁contrepartie	-12.3163
▁mobilisé	-12.3163
anesthési	-12.3163
▁rallye	-12.3163
▁sweet	-12.3163
▁acquitté	-12.3163
▁sofia	-12.3163
émeute	-12.3163
instinct	-12.3163
▁coopérative	-12.3163
▁senior	-12.3163
▁produisi	-12.3163
▁mijote	-12.3164
▁anéanti	-12.3164
▁sirène	-12.3164
▁vichy	-12.3165
▁connecti	-12.3166
vulv	-12.3168
avoine	-12.3169
▁captiv	-12.3171
julien	-12.3198
intègre	-12.3198
relief	-12.3199
militaire	-12.3199
sœur	-12.32
▁ressource	-12.3247
▁herv	-12.3264
imagine	-12.3296
iculé	-12.3312
▁effrayant	-12.3324
▁folklore	-12.3324
▁informaticienne	-12.3324
▁primitif	-12.3324
▁progressiste	-12.3324
▁subdivision	-12.3324
▁university	-12.3324
▁provoqua	-12.3324
▁rudolf	-12.3324
▁dévoile	-12.3324
▁grimpeur	-12.3324
▁matérialis	-12.3324
isthme	-12.3325
▁isaac	-12.3325
▁commode	-12.3325
▁corinth	-12.3325
▁ardenne	-12.3325
▁ibn	-12.3325
▁instable	-12.3325
▁silver	-12.3326
theater	-12.3328
▁klein	-12.3329
▁rassemblé	-12.3339
▁retien	-12.334
christophe	-12.3362
élaboration	-12.3363
émetteur	-12.3365
nominal	-12.3371
▁soixant	-12.34
▁craindr	-12.3452
▁naiss	-12.346
▁carapace	-12.3488
▁consommateur	-12.3488
▁crématorium	-12.3488
▁incroyable	-12.3488
▁jalousie	-12.3488
▁kentuck	-12.3488
▁lawrence	-12.3488
▁naturalisé	-12.3488
▁parachutiste	-12.3488
▁protestation	-12.3488
▁préliminaire	-12.3488
▁prématuré	-12.3488
▁pâturage	-12.3488
▁récipient	-12.3488
▁scorpion	-12.3488
▁stuttgart	-12.3488
▁téhéran	-12.3488
▁ultime	-12.3488
▁vicomte	-12.3488
▁encouragé	-12.3488
▁wright	-12.3488
▁détaché	-12.3488
▁fidji	-12.3488
▁qatar	-12.3488
▁déçu	-12.3489
▁bâle	-12.3489
▁chartres	-12.349
avoué	-12.3491
▁rustique	-12.3491
▁aperçu	-12.3497
appartement	-12.3529
adulte	-12.3529
affirme	-12.3539
▁vassal	-12.3539
▁légat	-12.3562
épiscopa	-12.365
assomption	-12.3655
▁chronologique	-12.3655
▁commémorative	-12.3655
▁cracovie	-12.3655
▁formidable	-12.3655
▁prophète	-12.3655
▁requête	-12.3655
▁saxophoniste	-12.3655
▁simplifié	-12.3655
▁symphonique	-12.3655
▁mouchoir	-12.3655
▁polyvalent	-12.3655
▁cravate	-12.3655
▁patriarche	-12.3655
▁sourcil	-12.3655
▁tennesse	-12.3655
▁enjambe	-12.3655
▁échoué	-12.3655
▁shérif	-12.3655
▁marginal	-12.3655
applaudissement	-12.3655
évanouissement	-12.3655
▁tumeur	-12.3656
▁jasper	-12.3656
▁apaisé	-12.3656
sseldorf	-12.3656
annibal	-12.3656
introduir	-12.3657
▁résume	-12.3657
enzyme	-12.3662
cliff	-12.3686
normand	-12.3698
côte	-12.3699
montagne	-12.3699
improvisation	-12.372
social	-12.3731
▁organisa	-12.3783
▁reconstrui	-12.3807
éventuel	-12.3824
▁bhoutan	-12.3825
▁dramaturge	-12.3825
▁détérior	-12.3825
▁explicite	-12.3825
▁guadeloup	-12.3825
▁minoritaire	-12.3825
▁mélancoli	-12.3825
▁recommandation	-12.3825
▁vocifér	-12.3825
▁absorbé	-12.3825
▁confection	-12.3825
▁délibér	-12.3825
▁délimite	-12.3825
▁neptune	-12.3825
▁pilastre	-12.3825
▁verdâtre	-12.3825
autobiographique	-12.3825
▁bilingue	-12.3825
▁blindé	-12.3825
▁caucas	-12.3825
▁hanovre	-12.3825
▁arrangé	-12.3825
▁limousin	-12.3825
▁safari	-12.3825
▁languedoc	-12.3825
▁médiathèque	-12.3825
▁relance	-12.3825
abbatial	-12.3825
▁recrue	-12.3825
▁citadel	-12.3825
▁toxic	-12.3827
▁rousseau	-12.3828
▁parsemé	-12.3829
parnass	-12.3835
embauche	-12.3837
▁marchai	-12.3855
botanique	-12.3871
professionnel	-12.3871
▁distrair	-12.3919
▁indiffére	-12.3969
bundesliga	-12.3997
inconvénient	-12.3997
▁bourgmestre	-12.3997
▁indirect	-12.3997
▁rotterdam	-12.3997
▁synthétise	-12.3997
▁étouffer	-12.3997
cyclable	-12.3997
industrialis	-12.3997
▁disparait	-12.3997
▁missouri	-12.3997
▁équestre	-12.3997
▁pâque	-12.3997
▁succomb	-12.3997
pillière	-12.3997
▁mensuel	-12.3997
intersection	-12.3997
▁écoulé	-12.3997
▁relate	-12.3997
▁saveur	-12.3998
▁parodie	-12.4001
ouganda	-12.4004
excè	-12.4022
chapelle	-12.4047
écrase	-12.4115
lazare	-12.412
▁territoria	-12.4131
hostilité	-12.4172
ingenieur	-12.4172
évacuation	-12.4172
▁baltimor	-12.4172
▁blanchâtre	-12.4172
▁céramiste	-12.4172
▁déménagé	-12.4172
▁minuscule	-12.4172
▁mozambi	-12.4172
▁quatuor	-12.4172
▁révéler	-12.4172
▁successif	-12.4172
▁trébucher	-12.4172
▁incolore	-12.4172
oeuvre	-12.4172
▁crevette	-12.4172
▁délivré	-12.4172
▁julius	-12.4172
▁quelconque	-12.4172
▁englobe	-12.4172
roubaix	-12.4172
▁moldavi	-12.4172
▁déroute	-12.4173
▁suggér	-12.4173
▁gîte	-12.4173
▁éduqué	-12.4173
indicatif	-12.4173
▁estivale	-12.4173
▁éclor	-12.4173
inscrir	-12.4174
intestin	-12.4175
▁soustracti	-12.4179
yuki	-12.4217
démocratique	-12.4225
▁encadre	-12.4235
écoutai	-12.425
▁quadri	-12.4346
intendant	-12.4351
▁carolingien	-12.4351
▁diabolique	-12.4351
▁divertissement	-12.4351
▁guêpe	-12.4351
▁intitulé	-12.4351
▁primordial	-12.4351
▁silhouette	-12.4351
▁stewart	-12.4351
▁ukrainienne	-12.4351
▁vestiaire	-12.4351
▁écosystème	-12.4351
▁ambulance	-12.4351
▁douloureu	-12.4351
▁pédestre	-12.4351
▁microscope	-12.4351
▁recycler	-12.4351
▁shangha	-12.4351
affranchi	-12.4351
▁transpire	-12.4351
▁subordonné	-12.4351
▁éminent	-12.4351
▁tandem	-12.4351
▁psychiatrique	-12.4351
▁charrette	-12.4351
▁cooper	-12.4351
▁portuaire	-12.4351
indochin	-12.4351
▁suscité	-12.4351
phobie	-12.4351
▁informé	-12.4351
▁classic	-12.4352
apollon	-12.4352
▁renferme	-12.4352
encontre	-12.4352
▁pollinis	-12.4353
▁bascule	-12.4353
compressi	-12.4353
ù	-13.3359
